<unk>	0
<s>	0
</s>	0
<0x00>	0
<0x01>	0
<0x02>	0
<0x03>	0
<0x04>	0
<0x05>	0
<0x06>	0
<0x07>	0
<0x08>	0
<0x09>	0
<0x0A>	0
<0x0B>	0
<0x0C>	0
<0x0D>	0
<0x0E>	0
<0x0F>	0
<0x10>	0
<0x11>	0
<0x12>	0
<0x13>	0
<0x14>	0
<0x15>	0
<0x16>	0
<0x17>	0
<0x18>	0
<0x19>	0
<0x1A>	0
<0x1B>	0
<0x1C>	0
<0x1D>	0
<0x1E>	0
<0x1F>	0
<0x20>	0
<0x21>	0
<0x22>	0
<0x23>	0
<0x24>	0
<0x25>	0
<0x26>	0
<0x27>	0
<0x28>	0
<0x29>	0
<0x2A>	0
<0x2B>	0
<0x2C>	0
<0x2D>	0
<0x2E>	0
<0x2F>	0
<0x30>	0
<0x31>	0
<0x32>	0
<0x33>	0
<0x34>	0
<0x35>	0
<0x36>	0
<0x37>	0
<0x38>	0
<0x39>	0
<0x3A>	0
<0x3B>	0
<0x3C>	0
<0x3D>	0
<0x3E>	0
<0x3F>	0
<0x40>	0
<0x41>	0
<0x42>	0
<0x43>	0
<0x44>	0
<0x45>	0
<0x46>	0
<0x47>	0
<0x48>	0
<0x49>	0
<0x4A>	0
<0x4B>	0
<0x4C>	0
<0x4D>	0
<0x4E>	0
<0x4F>	0
<0x50>	0
<0x51>	0
<0x52>	0
<0x53>	0
<0x54>	0
<0x55>	0
<0x56>	0
<0x57>	0
<0x58>	0
<0x59>	0
<0x5A>	0
<0x5B>	0
<0x5C>	0
<0x5D>	0
<0x5E>	0
<0x5F>	0
<0x60>	0
<0x61>	0
<0x62>	0
<0x63>	0
<0x64>	0
<0x65>	0
<0x66>	0
<0x67>	0
<0x68>	0
<0x69>	0
<0x6A>	0
<0x6B>	0
<0x6C>	0
<0x6D>	0
<0x6E>	0
<0x6F>	0
<0x70>	0
<0x71>	0
<0x72>	0
<0x73>	0
<0x74>	0
<0x75>	0
<0x76>	0
<0x77>	0
<0x78>	0
<0x79>	0
<0x7A>	0
<0x7B>	0
<0x7C>	0
<0x7D>	0
<0x7E>	0
<0x7F>	0
<0x80>	0
<0x81>	0
<0x82>	0
<0x83>	0
<0x84>	0
<0x85>	0
<0x86>	0
<0x87>	0
<0x88>	0
<0x89>	0
<0x8A>	0
<0x8B>	0
<0x8C>	0
<0x8D>	0
<0x8E>	0
<0x8F>	0
<0x90>	0
<0x91>	0
<0x92>	0
<0x93>	0
<0x94>	0
<0x95>	0
<0x96>	0
<0x97>	0
<0x98>	0
<0x99>	0
<0x9A>	0
<0x9B>	0
<0x9C>	0
<0x9D>	0
<0x9E>	0
<0x9F>	0
<0xA0>	0
<0xA1>	0
<0xA2>	0
<0xA3>	0
<0xA4>	0
<0xA5>	0
<0xA6>	0
<0xA7>	0
<0xA8>	0
<0xA9>	0
<0xAA>	0
<0xAB>	0
<0xAC>	0
<0xAD>	0
<0xAE>	0
<0xAF>	0
<0xB0>	0
<0xB1>	0
<0xB2>	0
<0xB3>	0
<0xB4>	0
<0xB5>	0
<0xB6>	0
<0xB7>	0
<0xB8>	0
<0xB9>	0
<0xBA>	0
<0xBB>	0
<0xBC>	0
<0xBD>	0
<0xBE>	0
<0xBF>	0
<0xC0>	0
<0xC1>	0
<0xC2>	0
<0xC3>	0
<0xC4>	0
<0xC5>	0
<0xC6>	0
<0xC7>	0
<0xC8>	0
<0xC9>	0
<0xCA>	0
<0xCB>	0
<0xCC>	0
<0xCD>	0
<0xCE>	0
<0xCF>	0
<0xD0>	0
<0xD1>	0
<0xD2>	0
<0xD3>	0
<0xD4>	0
<0xD5>	0
<0xD6>	0
<0xD7>	0
<0xD8>	0
<0xD9>	0
<0xDA>	0
<0xDB>	0
<0xDC>	0
<0xDD>	0
<0xDE>	0
<0xDF>	0
<0xE0>	0
<0xE1>	0
<0xE2>	0
<0xE3>	0
<0xE4>	0
<0xE5>	0
<0xE6>	0
<0xE7>	0
<0xE8>	0
<0xE9>	0
<0xEA>	0
<0xEB>	0
<0xEC>	0
<0xED>	0
<0xEE>	0
<0xEF>	0
<0xF0>	0
<0xF1>	0
<0xF2>	0
<0xF3>	0
<0xF4>	0
<0xF5>	0
<0xF6>	0
<0xF7>	0
<0xF8>	0
<0xF9>	0
<0xFA>	0
<0xFB>	0
<0xFC>	0
<0xFD>	0
<0xFE>	0
<0xFF>	0
▁de	-2.97664
s	-3.42826
,	-3.43987
.	-3.45534
▁la	-3.67002
▁	-3.74529
▁en	-4.00175
▁el	-4.03339
▁y	-4.06143
▁a	-4.1721
▁que	-4.24443
▁los	-4.61626
▁se	-4.82979
▁con	-4.85153
0	-4.89128
▁para	-4.90955
▁un	-4.91504
▁del	-4.91733
1	-4.95473
n	-5.03523
r	-5.08474
▁una	-5.10994
▁las	-5.13278
2	-5.2165
▁es	-5.22154
▁por	-5.24015
▁su	-5.3906
▁no	-5.39422
▁o	-5.55644
do	-5.57215
es	-5.5771
-	-5.63619
:	-5.64022
▁al	-5.64432
▁(	-5.7265
3	-5.77017
5	-5.79597
a	-5.80875
▁lo	-5.85319
▁como	-5.88407
▁más	-5.91531
4	-5.93574
9	-5.98653
da	-6.00555
)	-6.05776
6	-6.11795
8	-6.15488
ción	-6.1898
o	-6.22012
7	-6.24635
l	-6.31246
▁si	-6.31877
e	-6.34075
▁este	-6.44239
▁ha	-6.45018
▁-	-6.46497
▁re	-6.47998
t	-6.49543
mente	-6.5182
▁esta	-6.5493
▁sus	-6.57431
▁puede	-6.62378
▁son	-6.62468
▁sobre	-6.64267
te	-6.64889
?	-6.66619
▁le	-6.67344
d	-6.6805
▁e	-6.69154
se	-6.70179
ndo	-6.70479
c	-6.72513
ta	-6.72614
▁pero	-6.72634
la	-6.72681
dos	-6.74399
y	-6.75692
▁me	-6.7595
▁sin	-6.78725
/	-6.78976
▁está	-6.80248
▁ser	-6.80479
de	-6.80977
mos	-6.81743
lo	-6.83676
▁“	-6.84567
no	-6.85376
▁también	-6.85441
ra	-6.85729
m	-6.86339
;	-6.86692
ba	-6.86952
ca	-6.87105
ciones	-6.88043
▁in	-6.88428
p	-6.92794
to	-6.93112
▁entre	-6.95573
▁"	-6.96049
▁mi	-6.96633
na	-6.96817
i	-6.96858
▁¿	-6.9694
▁cuando	-6.98154
ma	-7.01847
le	-7.0536
g	-7.07808
▁te	-7.07853
▁todo	-7.09009
das	-7.10733
▁muy	-7.13265
en	-7.1333
▁tiene	-7.17606
▁fue	-7.18284
sa	-7.19226
re	-7.19449
me	-7.2008
).	-7.20744
▁tu	-7.2092
co	-7.21582
b	-7.21654
▁ya	-7.22343
▁desde	-7.23421
▁dos	-7.245
ron	-7.24621
▁forma	-7.2519
f	-7.25429
rse	-7.25833
v	-7.25874
u	-7.28517
▁todos	-7.28948
▁cada	-7.30835
á	-7.31458
ce	-7.32336
▁parte	-7.3264
x	-7.33476
▁tiempo	-7.34553
▁hay	-7.36121
so	-7.36439
▁años	-7.37318
▁co	-7.37347
mo	-7.37473
▁hasta	-7.3808
▁ca	-7.38474
ga	-7.40162
"	-7.41449
▁durante	-7.41483
z	-7.43922
ro	-7.44095
pa	-7.44336
!	-7.44378
el	-7.44378
rá	-7.45136
▁gran	-7.45607
que	-7.46012
ar	-7.46171
nte	-7.46267
▁así	-7.47728
▁esto	-7.48165
go	-7.48622
▁pueden	-7.48722
▁c	-7.49169
”	-7.49262
li	-7.49334
▁han	-7.49368
▁vez	-7.52846
▁vida	-7.52882
h	-7.54189
dor	-7.54245
ti	-7.55031
▁hacer	-7.55575
▁ver	-7.55944
vi	-7.56154
ci	-7.56359
ó	-7.56476
in	-7.58642
▁pa	-7.59174
k	-7.59419
▁uno	-7.60552
di	-7.61049
mi	-7.62307
▁después	-7.62698
al	-7.62866
▁pre	-7.63759
▁otros	-7.63761
▁era	-7.63803
 	-7.63853
w	-7.63975
▁día	-7.64793
▁trabajo	-7.64797
va	-7.65327
▁están	-7.66713
▁sistema	-7.66733
▁ma	-7.67168
▁debe	-7.6744
les	-7.67572
%	-7.68038
▁pro	-7.69382
▁información	-7.69749
▁personas	-7.69749
▁p	-7.70436
▁mejor	-7.71291
ne	-7.71292
▁contra	-7.71627
ía	-7.72366
▁donde	-7.72434
▁ni	-7.74246
▁lugar	-7.7433
▁bien	-7.74633
tu	-7.75518
pe	-7.75791
▁estos	-7.76037
▁m	-7.76171
▁mismo	-7.76265
▁agua	-7.76543
▁mundo	-7.7689
▁i	-7.7705
▁tanto	-7.77805
),	-7.77922
▁vi	-7.78946
▁ra	-7.79152
idad	-7.79465
cu	-7.79945
▁año	-7.80148
▁solo	-7.80388
er	-7.81635
▁ex	-7.82228
▁tipo	-7.82745
▁he	-7.82812
▁mayor	-7.82926
ver	-7.84387
▁d	-7.84924
▁cuenta	-7.85017
▁hace	-7.85359
ve	-7.86268
▁casa	-7.86701
▁estado	-7.86837
▁antes	-7.87487
▁nuevo	-7.87503
▁di	-7.8775
é	-7.87854
▁sa	-7.88509
je	-7.88918
▁manera	-7.89281
▁cualquier	-7.89409
▁datos	-7.90019
▁va	-7.90145
ado	-7.90386
▁todas	-7.9102
▁porque	-7.91163
▁otro	-7.91249
an	-7.9128
▁además	-7.914
on	-7.9163
▁sólo	-7.92536
▁nos	-7.92728
▁tra	-7.93707
▁tan	-7.94171
za	-7.94386
ble	-7.95267
▁había	-7.95407
▁mar	-7.95621
▁tener	-7.9586
bo	-7.95878
í	-7.95964
▁uso	-7.96267
ría	-7.96582
▁él	-7.96651
▁ahora	-7.97326
▁b	-7.97387
nos	-7.97508
ja	-7.97611
▁través	-7.97797
▁menos	-7.98174
▁caso	-7.98424
▁ciudad	-7.99284
▁tienen	-7.99491
▁da	-7.99882
▁siempre	-8.00158
▁g	-8.00338
...	-8.00772
ter	-8.01013
▁usted	-8.01151
▁tres	-8.01269
ten	-8.01608
▁sido	-8.02039
os	-8.03224
tó	-8.03612
▁bo	-8.04197
qui	-8.04247
▁–	-8.04582
▁mucho	-8.04626
▁qué	-8.04665
ri	-8.04677
▁primera	-8.04935
fa	-8.05049
▁diseño	-8.05137
si	-8.05229
▁li	-8.0588
▁general	-8.0607
▁sea	-8.06175
▁nuestro	-8.06246
▁ro	-8.07029
▁per	-8.0719
▁mientras	-8.0776
miento	-8.08078
be	-8.08181
▁otra	-8.0839
▁control	-8.08502
▁san	-8.09062
▁nueva	-8.09208
▁desarrollo	-8.09972
▁calidad	-8.10016
▁¡	-8.10296
po	-8.10316
▁x	-8.10396
▁pe	-8.10596
▁nuestra	-8.10649
rio	-8.11012
com	-8.11096
los	-8.11104
▁fondo	-8.11209
▁ti	-8.11308
dores	-8.11394
fi	-8.11488
ni	-8.11879
▁color	-8.119
▁alta	-8.11997
▁embargo	-8.12081
▁otras	-8.12126
ban	-8.12368
▁ba	-8.1272
▁eso	-8.12725
▁pi	-8.13083
▁u	-8.13266
▁so	-8.13474
▁na	-8.13719
▁servicio	-8.13737
▁hacia	-8.1377
▁ejemplo	-8.14168
▁hecho	-8.14314
▁niños	-8.1461
▁t	-8.14742
án	-8.14905
▁nivel	-8.15051
▁momento	-8.1515
▁productos	-8.15338
vo	-8.16111
▁algunos	-8.16147
us	-8.16211
▁medio	-8.163
▁#	-8.16457
ya	-8.16475
▁/	-8.16876
ck	-8.1688
▁grupo	-8.16957
▁estas	-8.18048
▁equipo	-8.18058
▁bajo	-8.18172
▁poco	-8.18248
jo	-8.18258
▁seguridad	-8.18367
▁—	-8.18642
ria	-8.18707
▁car	-8.18915
▁proceso	-8.19034
▁mujer	-8.19042
▁cómo	-8.19303
ntes	-8.19442
'	-8.19542
▁según	-8.19709
▁f	-8.19862
▁hombre	-8.19873
▁blanco	-8.19953
bi	-8.20795
▁servicios	-8.21022
▁ellos	-8.21441
▁ese	-8.21675
▁importante	-8.21718
▁v	-8.21722
▁ella	-8.22519
▁programa	-8.22823
▁centro	-8.22952
cha	-8.231
▁to	-8.23254
▁número	-8.23404
con	-8.23502
as	-8.23614
▁salud	-8.23693
”.	-8.23958
▁yo	-8.24996
ge	-8.25001
tra	-8.25212
▁algo	-8.25316
ña	-8.25339
▁foto	-8.25539
▁diferentes	-8.26062
▁dentro	-8.26554
▁posible	-8.26643
▁producto	-8.2679
▁cual	-8.26838
▁historia	-8.26945
▁muchos	-8.26985
▁ayuda	-8.27332
▁imagen	-8.27806
▁mo	-8.27853
tas	-8.27943
▁sí	-8.28134
▁primer	-8.28381
▁aunque	-8.28795
is	-8.29205
▁estaba	-8.29521
▁base	-8.29671
▁días	-8.29699
pi	-8.29828
▁nombre	-8.29899
tos	-8.30629
▁aquí	-8.30799
ha	-8.31098
ng	-8.3176
▁nacional	-8.32162
▁cuerpo	-8.32466
▁poder	-8.33167
▁país	-8.33352
”,	-8.33582
▁fin	-8.33742
▁estar	-8.34088
▁«	-8.34285
▁toda	-8.34411
▁punto	-8.3502
▁valor	-8.35242
▁aire	-8.3557
▁dios	-8.35687
man	-8.35716
▁tal	-8.35828
j	-8.35861
…	-8.36387
▁personal	-8.36846
▁línea	-8.36854
▁sol	-8.37212
▁acuerdo	-8.37225
▁mujeres	-8.37362
las	-8.37396
▁persona	-8.37986
cion	-8.38159
▁modo	-8.38459
por	-8.38614
▁po	-8.38621
▁decir	-8.38631
ada	-8.39001
ing	-8.39015
▁ve	-8.39204
▁ta	-8.39379
▁dis	-8.39767
▁luego	-8.39776
▁sub	-8.39834
sión	-8.40376
▁largo	-8.40401
qué	-8.40471
cia	-8.40646
ismo	-8.40828
▁juego	-8.41317
ista	-8.41323
▁dijo	-8.41383
▁cu	-8.4201
▁fi	-8.42057
▁par	-8.42147
gi	-8.42577
▁fe	-8.42827
▁web	-8.43449
ido	-8.43463
▁libre	-8.43934
ch	-8.44072
▁muestra	-8.4469
th	-8.45238
res	-8.45251
▁veces	-8.45272
▁be	-8.45405
▁inter	-8.45422
gu	-8.45467
▁nuestros	-8.45555
▁estados	-8.45665
▁esa	-8.45965
un	-8.45968
▁empresa	-8.46282
▁mano	-8.46315
zo	-8.46373
ida	-8.46387
che	-8.46438
▁mal	-8.46567
▁ven	-8.46599
▁bi	-8.4673
▁proyecto	-8.46732
▁archivo	-8.46906
tiva	-8.46914
▁hoy	-8.47377
▁fa	-8.47555
▁k	-8.47634
▁será	-8.47656
▁h	-8.47855
tivo	-8.48045
▁pu	-8.48258
per	-8.48369
ven	-8.48651
▁les	-8.48708
]	-8.48896
▁social	-8.48908
ia	-8.4893
▁cerca	-8.49035
ncia	-8.49077
▁fueron	-8.49541
▁gobierno	-8.49695
▁permite	-8.49802
▁familia	-8.49839
▁entonces	-8.50086
tar	-8.50229
▁muchas	-8.50367
▁•	-8.50469
▁incluso	-8.50623
▁hu	-8.50625
▁luz	-8.50903
▁final	-8.5105
▁negro	-8.51184
▁red	-8.512
ho	-8.51223
▁grandes	-8.51515
rán	-8.52065
▁encuentra	-8.52391
tro	-8.5245
▁sal	-8.52492
ur	-8.53387
▁auto	-8.53522
".	-8.53528
ú	-8.53547
▁fuera	-8.53617
▁tratamiento	-8.53633
▁l	-8.5365
▁mercado	-8.53737
▁pantalla	-8.54096
▁cosas	-8.54245
car	-8.54328
▁ante	-8.54395
nes	-8.54406
siones	-8.54412
▁papel	-8.54512
men	-8.54728
▁podría	-8.54853
pu	-8.54952
▁sino	-8.55103
▁estilo	-8.5533
▁misma	-8.55486
▁ja	-8.55953
▁nada	-8.56388
▁cor	-8.56508
▁mediante	-8.56519
▁países	-8.56633
▁cambio	-8.56787
▁ir	-8.56815
▁casi	-8.5687
▁gente	-8.57034
ul	-8.57106
▁derecho	-8.57115
▁dar	-8.57155
▁trata	-8.57191
▁usar	-8.57503
▁acceso	-8.57634
▁tierra	-8.57679
▁algunas	-8.57796
lla	-8.5788
▁serie	-8.57891
▁ru	-8.57928
▁deben	-8.57962
tor	-8.58226
gue	-8.58266
▁problemas	-8.58515
▁ce	-8.58826
▁causa	-8.58969
▁zona	-8.59361
▁experiencia	-8.59479
▁bar	-8.59494
▁estudio	-8.60063
▁horas	-8.60142
fo	-8.60209
ke	-8.604
ización	-8.6045
▁millones	-8.6055
▁noche	-8.60592
tal	-8.60646
▁fácil	-8.60672
▁necesita	-8.60831
",	-8.60969
▁tras	-8.61041
▁vista	-8.6171
▁siguiente	-8.61747
▁carga	-8.61844
▁ho	-8.61888
▁imágenes	-8.61913
▁stock	-8.62044
du	-8.62357
▁aplicación	-8.62366
sis	-8.62412
▁relación	-8.62645
nta	-8.62858
▁[	-8.62981
fe	-8.63098
▁nosotros	-8.63148
son	-8.63266
▁condiciones	-8.63548
▁hotel	-8.63808
▁ri	-8.64026
▁ofrece	-8.64043
▁modelo	-8.64106
ró	-8.64115
▁resultados	-8.64234
▁media	-8.6434
▁tamaño	-8.64413
▁unos	-8.64458
▁espacio	-8.64504
ll	-8.64537
▁>	-8.64781
▁mayoría	-8.64915
lu	-8.65182
cho	-8.65193
▁total	-8.6526
▁principal	-8.65267
▁nunca	-8.65279
▁ga	-8.66101
ir	-8.66299
▁lista	-8.66604
▁encontrar	-8.66621
▁problema	-8.66737
▁debido	-8.66752
▁baja	-8.66873
▁realizar	-8.66881
▁cuatro	-8.66987
▁utilizar	-8.67055
▁haber	-8.67237
▁mu	-8.67249
▁buena	-8.67436
▁energía	-8.676
▁precio	-8.68155
▁ci	-8.68243
era	-8.68258
mp	-8.68279
or	-8.68305
▁producción	-8.68316
▁capacidad	-8.68441
▁estructura	-8.68771
▁can	-8.69063
▁quien	-8.69418
▁indica	-8.69577
ka	-8.69653
▁du	-8.70102
▁sur	-8.70155
▁actividades	-8.70232
▁bu	-8.70246
tura	-8.70304
▁orden	-8.70384
▁superior	-8.70569
▁marca	-8.70658
▁alto	-8.70894
▁varios	-8.7117
▁unidos	-8.7172
▁arte	-8.71874
▁lu	-8.71893
mu	-8.71967
▁real	-8.72051
▁necesario	-8.72503
▁ne	-8.72561
▁sitio	-8.72694
pre	-8.73087
ry	-8.73481
pro	-8.73526
▁atención	-8.73529
tion	-8.73708
▁gracias	-8.73987
▁conjunto	-8.7426
ente	-8.74487
▁toma	-8.7465
▁aún	-8.74665
il	-8.74743
ación	-8.74757
▁presenta	-8.74834
▁obtener	-8.75098
ita	-8.7528
▁amor	-8.75304
▁internacional	-8.75318
st	-8.75541
▁grande	-8.75778
▁cantidad	-8.75994
▁paso	-8.76032
▁material	-8.76212
▁ad	-8.76268
▁campo	-8.76359
▁entrada	-8.76775
▁artículo	-8.76812
▁contacto	-8.76883
▁tenía	-8.76891
▁semana	-8.7691
▁azul	-8.77337
▁tus	-8.77371
▁especial	-8.7738
▁considera	-8.77755
▁pasado	-8.77966
▁anti	-8.78011
▁com	-8.78041
▁función	-8.78205
▁área	-8.78209
▁derechos	-8.78386
via	-8.78627
gra	-8.78762
▁r	-8.78839
▁minutos	-8.78875
▁investigación	-8.78927
▁ju	-8.78986
▁do	-8.79043
xi	-8.79085
▁crear	-8.79168
▁figura	-8.79204
cin	-8.79233
▁dice	-8.79475
▁junto	-8.79602
▁piel	-8.79974
▁ley	-8.79984
▁hombres	-8.80129
▁objetivo	-8.80191
nas	-8.80224
có	-8.8031
▁$	-8.80336
ber	-8.80497
▁página	-8.8058
▁natural	-8.8065
ton	-8.80706
▁interior	-8.80806
cio	-8.8082
it	-8.81366
▁gra	-8.81412
▁cha	-8.81424
ero	-8.81618
iza	-8.8163
▁edad	-8.81632
▁mantener	-8.82264
▁hi	-8.82597
▁utiliza	-8.82649
▁hora	-8.82714
▁mundial	-8.82938
dora	-8.82943
▁igual	-8.83179
▁clientes	-8.83189
▁n	-8.83563
▁empresas	-8.8372
▁the	-8.83793
▁acerca	-8.84035
>	-8.84177
mb	-8.84207
▁peso	-8.84571
bra	-8.84603
▁partir	-8.84609
ol	-8.84915
▁tomar	-8.84954
cas	-8.84972
▁plan	-8.85096
▁'	-8.85224
▁cocina	-8.85305
▁mil	-8.8558
▁coche	-8.85688
▁trans	-8.85918
▁fotos	-8.85968
▁casos	-8.86016
▁mejores	-8.86318
▁frente	-8.86346
ye	-8.8643
mina	-8.86539
encia	-8.86576
»	-8.8658
gar	-8.86589
▁cabeza	-8.86627
▁fo	-8.86911
he	-8.87026
▁ar	-8.87074
▁informa	-8.87424
▁política	-8.87743
▁camino	-8.88017
▁dirección	-8.88039
▁educación	-8.88143
bles	-8.88186
▁mis	-8.88213
▁meses	-8.88297
▁tecnología	-8.88317
yo	-8.88322
ex	-8.88371
▁ayudar	-8.88518
sh	-8.88622
▁cara	-8.8867
iendo	-8.88692
▁mas	-8.88757
nda	-8.88822
▁incluye	-8.88895
▁protección	-8.88997
▁buen	-8.89048
▁universidad	-8.89102
▁riesgo	-8.89119
▁llegar	-8.89141
▁sentido	-8.89209
▁madera	-8.89319
▁alrededor	-8.89338
▁medida	-8.89523
bu	-8.89611
ros	-8.89685
ad	-8.89797
▁prueba	-8.89824
sta	-8.8983
emos	-8.89845
den	-8.89952
ina	-8.89975
ón	-8.9005
▁pasa	-8.90084
▁presente	-8.90109
▁teléfono	-8.90208
▁recursos	-8.90227
▁escuela	-8.90328
▁fecha	-8.90334
▁público	-8.90435
▁verde	-8.90638
▁situación	-8.90809
▁ambiente	-8.90884
▁acción	-8.90935
ré	-8.91016
▁ilustración	-8.91096
▁ello	-8.91459
▁segundo	-8.91763
tri	-8.9177
_	-8.91848
hi	-8.91909
▁temperatura	-8.91971
▁resultado	-8.92054
▁desea	-8.92386
um	-8.92424
▁vector	-8.92435
ste	-8.92564
▁amplia	-8.92637
▁comida	-8.92641
▁lleva	-8.93099
▁actividad	-8.9314
cre	-8.9344
▁go	-8.93446
▁texto	-8.93469
nt	-8.9385
sas	-8.94079
▁cámara	-8.94219
▁tenemos	-8.94324
▁velocidad	-8.94476
▁motor	-8.9465
▁significa	-8.94777
▁usa	-8.9481
▁usuario	-8.94839
▁central	-8.94875
▁fotografía	-8.94898
▁sociedad	-8.94926
▁joven	-8.95055
▁fu	-8.95058
▁siguientes	-8.95245
▁miembros	-8.95492
▁parece	-8.95498
▁diferencia	-8.95527
der	-8.95679
▁podemos	-8.95733
▁j	-8.95791
▁hemos	-8.95802
▁nuevos	-8.96136
▁llama	-8.96363
cta	-8.96376
▁análisis	-8.96403
▁ka	-8.96485
▁etc	-8.96542
▁gusta	-8.96661
tica	-8.96675
▁representa	-8.96724
rro	-8.96785
istas	-8.96903
▁respecto	-8.96936
chi	-8.96941
▁madre	-8.97003
▁for	-8.97184
cal	-8.97289
sos	-8.97312
▁efecto	-8.97351
▁respuesta	-8.97424
▁planta	-8.97527
▁único	-8.97561
sion	-8.97587
▁playa	-8.97659
://	-8.97705
▁niño	-8.97855
▁puedes	-8.97922
▁mejora	-8.97981
ño	-8.98262
▁realidad	-8.98278
▁pues	-8.98395
▁proporciona	-8.98441
▁gestión	-8.98492
ki	-8.98512
▁visita	-8.98526
ica	-8.98565
▁dinero	-8.98597
ed	-8.98681
▁favor	-8.98703
▁*	-8.9871
▁varias	-8.98765
nia	-8.98788
▁llevar	-8.98789
dia	-8.9888
▁sala	-8.98999
tación	-8.99079
▁concepto	-8.99094
▁unidad	-8.99104
▁haga	-8.99106
▁cabo	-8.9924
▁cinco	-8.99362
▁elementos	-8.99414
▁siendo	-8.99518
cen	-8.99648
▁caja	-8.99726
▁seguro	-8.99859
▁características	-8.99883
▁falta	-9.00031
▁sistemas	-9.00058
▁jo	-9.00076
(	-9.00079
▁españa	-9.00096
cer	-9.002
▁presidente	-9.00319
nd	-9.00388
▁local	-9.00409
▁cable	-9.00428
’	-9.00434
mer	-9.00515
▁construcción	-9.00517
▁apoyo	-9.00604
▁tri	-9.00736
▁principales	-9.00774
▁pregunta	-9.00919
▁dicho	-9.01044
ran	-9.01139
▁activa	-9.01259
▁fuerza	-9.01287
▁último	-9.01439
▁alguna	-9.01639
▁código	-9.0167
▁puntos	-9.01716
▁estudiantes	-9.01835
▁man	-9.01853
▁libro	-9.02057
▁corte	-9.02071
▁mí	-9.02215
▁cal	-9.02223
▁tema	-9.02331
▁evitar	-9.02339
▁clase	-9.02403
cción	-9.02653
am	-9.02849
▁música	-9.02931
fre	-9.02945
▁funciona	-9.03138
▁contenido	-9.03174
ru	-9.03216
▁comunidad	-9.03383
cos	-9.03433
cómo	-9.03558
tado	-9.03656
▁super	-9.03681
▁rojo	-9.03725
mar	-9.03758
ger	-9.0387
ales	-9.03871
rra	-9.03972
▁nuevas	-9.03986
bilidad	-9.03987
▁pacientes	-9.04133
ando	-9.04234
▁ropa	-9.04269
▁haya	-9.04286
▁baño	-9.04327
tero	-9.04385
▁sociales	-9.04437
▁muerte	-9.0444
▁entrega	-9.04477
▁siglo	-9.04525
▁cuidado	-9.04767
▁puesto	-9.04845
▁guerra	-9.04858
▁clic	-9.04872
▁marco	-9.04992
▁corazón	-9.05035
su	-9.0505
▁afecta	-9.05059
nto	-9.05077
▁venta	-9.05262
▁norte	-9.05282
▁queda	-9.05427
ic	-9.05437
▁cliente	-9.05441
▁superficie	-9.05543
▁salida	-9.05605
▁mezcla	-9.05615
▁hizo	-9.0566
at	-9.05703
▁naturaleza	-9.05705
▁completa	-9.05719
▁organización	-9.05722
▁w	-9.05737
▁+	-9.0581
▁espera	-9.0583
▁dolor	-9.05889
▁rosa	-9.0596
▁pie	-9.06085
▁iglesia	-9.06088
▁col	-9.06308
menta	-9.06445
▁crecimiento	-9.06451
▁saber	-9.06536
dera	-9.06549
▁pueda	-9.06564
gen	-9.06741
esta	-9.06821
llo	-9.06888
▁ob	-9.06912
q	-9.06945
▁sector	-9.07017
▁segunda	-9.07216
▁primero	-9.07269
lia	-9.07344
▁capital	-9.07399
▁padre	-9.07478
▁completo	-9.07512
▁obra	-9.07611
ud	-9.07657
▁cuanto	-9.07789
nal	-9.07891
▁futuro	-9.08026
dio	-9.08117
▁director	-9.08197
ras	-9.08282
▁cre	-9.08309
tes	-9.08497
▁cama	-9.08519
ana	-9.08831
▁disponible	-9.08887
▁pequeño	-9.09026
ados	-9.09147
▁fuerte	-9.09338
▁grupos	-9.09464
ly	-9.09712
pla	-9.09713
▁aplica	-9.09733
▁oficina	-9.0981
▁internet	-9.09884
día	-9.09895
▁mejorar	-9.09921
▁comunicación	-9.10027
tina	-9.10144
▁original	-9.10145
ones	-9.10176
▁anterior	-9.10328
www	-9.10368
▁palabras	-9.10516
▁idea	-9.10771
▁estamos	-9.11005
▁estudios	-9.11104
▁méxico	-9.11148
▁colores	-9.11293
▁cambiar	-9.11359
▁eran	-9.11402
wa	-9.11456
gan	-9.11593
▁actual	-9.11682
▁mesa	-9.11734
▁ojos	-9.11741
▁ningún	-9.11745
tivos	-9.11807
▁movimiento	-9.11837
▁profesional	-9.12055
▁&	-9.1223
▁compra	-9.12271
▁presión	-9.12345
ji	-9.12396
able	-9.12509
▁cambios	-9.12583
▁viaje	-9.12606
▁transporte	-9.12625
ju	-9.12664
▁solución	-9.12716
▁industria	-9.12768
▁pan	-9.12821
▁fuente	-9.13031
▁compañía	-9.13398
▁especialmente	-9.13487
▁van	-9.13506
▁hijo	-9.13511
▁clave	-9.13514
▁reserva	-9.13599
▁tarde	-9.13759
ã	-9.13769
▁[...]	-9.13773
nce	-9.13871
▁seguir	-9.13947
una	-9.1423
▁materiales	-9.14308
▁doble	-9.144
▁partes	-9.14522
para	-9.14568
▁realmente	-9.14637
▁posición	-9.14656
▁qui	-9.14701
br	-9.14777
▁efectos	-9.14821
▁realiza	-9.14845
▁niveles	-9.14936
▁opción	-9.15035
▁habla	-9.15081
▁lucha	-9.15097
▁aceite	-9.1515
▁éxito	-9.15294
ían	-9.15363
▁puerto	-9.15425
ec	-9.15428
▁propio	-9.15456
▁dispositivo	-9.15537
▁precios	-9.15622
remos	-9.15699
▁esté	-9.15774
té	-9.15857
em	-9.15977
▁cultura	-9.15993
▁referencia	-9.16319
▁valores	-9.16474
cía	-9.16632
▁rápido	-9.16789
▁distancia	-9.16789
▁dejar	-9.1681
gre	-9.1695
▁genera	-9.1696
▁her	-9.17058
▁calle	-9.171
▁ambos	-9.17273
▁inicio	-9.17282
fer	-9.17296
ac	-9.17373
▁allí	-9.17377
til	-9.17458
▁nota	-9.17466
mas	-9.17563
▁todavía	-9.17603
illa	-9.1767
▁propia	-9.17799
▁busca	-9.17974
▁nu	-9.1808
▁común	-9.18088
tan	-9.18093
▁estoy	-9.18119
▁puerta	-9.18139
▁usuarios	-9.18284
▁normal	-9.18453
▁pago	-9.18492
nu	-9.18538
▁región	-9.18647
▁gas	-9.18654
torio	-9.18692
ano	-9.18801
rlo	-9.18824
▁población	-9.18831
▁necesidades	-9.1901
▁trabajar	-9.19114
▁fiesta	-9.19156
▁conocer	-9.19209
▁|	-9.19295
▁continuación	-9.19324
tivas	-9.19403
▁alimentos	-9.19534
▁tenga	-9.19655
▁pasar	-9.19712
▁formación	-9.19855
▁crea	-9.19929
pen	-9.19932
▁pueblo	-9.20063
▁china	-9.2007
▁costa	-9.20131
▁chi	-9.2015
▁carrera	-9.20164
▁suelo	-9.20182
ura	-9.20269
ino	-9.20362
▁manos	-9.20445
▁sigue	-9.20473
▁excelente	-9.20506
▁electrónico	-9.20529
▁volver	-9.20557
▁existe	-9.20633
▁tipos	-9.20714
par	-9.20848
cciones	-9.2087
▁simple	-9.20958
sen	-9.20958
▁...	-9.21041
▁película	-9.21147
▁enfermedad	-9.21255
—	-9.21317
▁cer	-9.21378
▁parque	-9.21446
▁ten	-9.21454
fu	-9.21547
▁versión	-9.21553
▁última	-9.21609
ty	-9.21676
▁amigos	-9.2168
▁nuestras	-9.21705
▁humanos	-9.21714
enta	-9.21739
▁pri	-9.21865
endo	-9.21923
▁medidas	-9.21924
▁claro	-9.21968
dido	-9.21968
dad	-9.22017
▁importa	-9.22277
▁conocimiento	-9.22288
▁resulta	-9.22545
▁proyectos	-9.226
et	-9.22613
im	-9.22626
▁plazo	-9.2263
id	-9.22634
▁única	-9.22661
tí	-9.22666
▁mm	-9.2269
▁tarjeta	-9.22719
▁soporte	-9.22779
▁hogar	-9.22817
▁multi	-9.22822
▁menor	-9.2296
ctor	-9.23011
▁ge	-9.23029
▁bastante	-9.23046
▁video	-9.23333
▁verdad	-9.23344
▁chica	-9.2349
rios	-9.23635
ct	-9.23684
▁ejercicio	-9.23695
▁cuales	-9.23748
▁necesidad	-9.23763
▁ninguna	-9.2382
▁ocupa	-9.23882
▁bueno	-9.2389
▁administración	-9.2411
▁aplicaciones	-9.24227
▁disco	-9.24302
▁banco	-9.24399
ko	-9.24401
ine	-9.24775
adas	-9.24837
▁opciones	-9.24976
▁algún	-9.25073
▁interés	-9.25112
▁medios	-9.25276
ea	-9.25351
▁cla	-9.25384
▁río	-9.25389
▁negocio	-9.25416
▁presencia	-9.25536
▁dado	-9.25635
▁sería	-9.25708
=	-9.25866
ie	-9.26062
▁gratis	-9.26072
▁and	-9.26084
▁importantes	-9.26106
▁señor	-9.26159
▁cm	-9.26188
stra	-9.26268
▁difícil	-9.2627
izado	-9.26313
▁duda	-9.26376
▁of	-9.2644
▁europa	-9.26455
▁hacen	-9.26467
bre	-9.26554
▁animales	-9.26659
▁haciendo	-9.2668
sco	-9.26736
▁juegos	-9.26766
▁programas	-9.26772
ieron	-9.26843
▁tabla	-9.27074
▁mensaje	-9.2718
▁frecuencia	-9.273
▁tengo	-9.27337
▁período	-9.2749
val	-9.27683
lle	-9.27789
mática	-9.27842
https	-9.27881
lí	-9.2792
▁disponibles	-9.27979
▁español	-9.27982
▁extra	-9.28129
▁resto	-9.28217
▁habitación	-9.28229
ster	-9.28231
▁herramientas	-9.28253
tre	-9.28324
▁conexión	-9.28342
▁ideal	-9.28358
des	-9.28409
▁ciento	-9.28549
▁oro	-9.28758
▁demanda	-9.28901
▁ 	-9.2891
land	-9.2899
▁combina	-9.29003
rre	-9.29084
▁jóvenes	-9.2909
▁software	-9.29102
▁acciones	-9.29353
▁aumenta	-9.29385
▁global	-9.29586
fec	-9.29682
▁=	-9.29868
▁tales	-9.29873
▁rendimiento	-9.29884
▁correo	-9.29896
▁bebé	-9.30062
▁opera	-9.30063
▁objeto	-9.30196
▁lado	-9.30212
°	-9.303
rí	-9.30399
▁verano	-9.30556
▁pesar	-9.30561
ide	-9.30639
cor	-9.30694
▁pequeña	-9.30699
▁observa	-9.30704
▁botón	-9.30711
▁partido	-9.30746
▁método	-9.30965
lá	-9.31009
▁demás	-9.31109
▁funciones	-9.31149
stro	-9.31167
▁micro	-9.31284
▁poner	-9.31361
can	-9.31406
▁mañana	-9.31418
▁inglés	-9.3156
▁mor	-9.31591
ándose	-9.31603
toria	-9.31897
ren	-9.31991
tin	-9.32065
▁manual	-9.32065
▁moda	-9.32123
▁acero	-9.3227
▁dio	-9.32304
▁dura	-9.32304
eo	-9.32375
mon	-9.32456
▁práctica	-9.32464
▁pin	-9.32609
▁quiere	-9.32619
alamy	-9.32697
▁bro	-9.32723
▁ventana	-9.32762
▁podía	-9.32779
▁configuración	-9.32897
▁sabe	-9.32935
▁gui	-9.33111
▁mon	-9.33129
▁principio	-9.33148
▁relaciones	-9.33202
▁suficiente	-9.33249
▁mes	-9.33262
▁inferior	-9.33314
▁médico	-9.33324
▁palabra	-9.33356
▁capa	-9.33425
▁mostrar	-9.33437
▁bio	-9.33492
▁padres	-9.3351
▁esca	-9.33521
▁pared	-9.33611
gui	-9.33751
nza	-9.338
▁llega	-9.33913
▁informe	-9.33931
mm	-9.33947
▁aumento	-9.33991
▁<	-9.3413
▁presta	-9.34324
▁alguien	-9.34334
▁hospital	-9.34387
▁banda	-9.34465
▁digital	-9.34496
▁im	-9.34519
▁civil	-9.34639
▁larga	-9.34727
▁comprar	-9.3475
▁reducir	-9.34872
▁poli	-9.34902
▁económico	-9.34967
▁che	-9.35314
siva	-9.35366
and	-9.35391
▁suave	-9.35492
▁meta	-9.3554
▁materia	-9.35634
▁propiedad	-9.35647
cul	-9.35733
dura	-9.35801
▁demasiado	-9.35832
▁radio	-9.35833
▁pública	-9.35842
dió	-9.35903
▁sección	-9.35966
▁gu	-9.36095
▁instalación	-9.36163
▁oportunidad	-9.36238
gas	-9.36312
▁económica	-9.36392
▁guía	-9.36415
▁independiente	-9.3643
ante	-9.36458
osa	-9.36461
stitu	-9.36485
ez	-9.36519
wi	-9.36551
▁equipos	-9.36627
▁directamente	-9.36732
ig	-9.36796
▁conocido	-9.36816
▁flor	-9.36819
rea	-9.36869
▁máximo	-9.36946
▁cargo	-9.3699
tt	-9.36994
▁ac	-9.3723
cua	-9.37311
▁negocios	-9.37339
▁vol	-9.3738
▁aquellos	-9.37474
▁desarrolla	-9.37499
▁hijos	-9.37529
▁memoria	-9.37604
▁particular	-9.37697
table	-9.3773
▁flores	-9.37813
▁fija	-9.37901
bia	-9.37939
ador	-9.38033
▁vía	-9.38076
▁encuentran	-9.38162
▁etapa	-9.38281
▁pérdida	-9.38294
▁pla	-9.38296
cido	-9.38332
mento	-9.38398
lar	-9.38403
▁incluyen	-9.38448
▁últimos	-9.38489
▁variedad	-9.38568
▁razón	-9.38569
▁máquina	-9.3863
▁áreas	-9.38647
▁carta	-9.38809
▁antiguo	-9.38833
▁lugares	-9.38902
▁simplemente	-9.38944
▁gi	-9.38952
▁art	-9.38974
▁cadena	-9.39014
▁ki	-9.39049
rte	-9.39126
▁búsqueda	-9.39151
▁cosa	-9.39232
▁visto	-9.39309
▁técnica	-9.39339
▁explica	-9.39514
▁corta	-9.39567
▁deja	-9.39685
▁paquete	-9.39749
▁importancia	-9.39891
▁piezas	-9.39904
▁batería	-9.40006
▁potencia	-9.40241
▁registro	-9.40303
▁hablar	-9.40307
▁temporada	-9.40361
oso	-9.40415
▁humano	-9.40477
▁quienes	-9.406
sti	-9.40604
▁consumo	-9.40611
▁metal	-9.40616
▁sean	-9.40678
▁entorno	-9.40784
▁juan	-9.40857
ible	-9.40911
▁habitaciones	-9.40947
▁debería	-9.40951
cional	-9.40992
▁requiere	-9.41037
▁trabaja	-9.41103
var	-9.41117
▁consejo	-9.41183
▁física	-9.4121
▁sangre	-9.41311
▁resistencia	-9.41366
icia	-9.4137
lina	-9.41436
tico	-9.41445
▁responsabilidad	-9.41469
ito	-9.41472
▁título	-9.41648
▁escala	-9.41701
▁departamento	-9.41706
▁dia	-9.41767
▁funda	-9.41779
▁existen	-9.41803
▁tor	-9.41893
▁tendrá	-9.41961
▁lograr	-9.41967
ff	-9.41993
▁impacto	-9.42016
▁conoce	-9.42027
▁habían	-9.42031
cep	-9.42053
▁procesos	-9.42108
▁compa	-9.42116
▁oficial	-9.42237
▁pareja	-9.42285
▁actualmente	-9.42317
gado	-9.42432
▁celebra	-9.42603
▁creo	-9.42728
▁seis	-9.4275
▁diferente	-9.42828
▁continua	-9.42868
pare	-9.42878
▁conseguir	-9.42906
ny	-9.42959
▁exterior	-9.43092
rina	-9.43269
▁metros	-9.43283
▁beneficios	-9.43299
▁q	-9.43394
▁firma	-9.43442
▁rey	-9.43533
▁santa	-9.43585
▁blanca	-9.43606
▁esos	-9.43682
▁plano	-9.43869
cle	-9.43925
▁or	-9.43954
ario	-9.43967
cien	-9.44055
▁adecuado	-9.44084
dy	-9.44118
▁png	-9.44176
▁tuvo	-9.44185
▁gal	-9.44209
▁curso	-9.44239
▁divi	-9.44252
▁pintura	-9.44283
▁‘	-9.44287
▁arriba	-9.44349
▁fase	-9.4438
▁pul	-9.44427
sal	-9.44592
▁policía	-9.44672
▁estaban	-9.44746
▁nadie	-9.44815
▁contiene	-9.44819
▁tasa	-9.44884
au	-9.44896
▁medi	-9.45096
▁comercial	-9.45219
▁sonido	-9.45281
▁cuadro	-9.45346
▁funcionamiento	-9.45376
▁mira	-9.45378
cto	-9.45395
▁bolsa	-9.45482
¡	-9.45632
▁formas	-9.45635
▁adecuada	-9.45644
▁menudo	-9.45669
▁locales	-9.45669
▁club	-9.45704
▁piedra	-9.45743
▁val	-9.45756
▁acu	-9.45954
▁comisión	-9.46096
▁participación	-9.46118
dero	-9.4626
▁aproximadamente	-9.4637
▁evaluación	-9.46405
▁posibilidad	-9.4651
▁isla	-9.46552
ld	-9.46598
▁señala	-9.46617
▁mayo	-9.46646
cimiento	-9.46808
▁coloca	-9.46813
▁za	-9.46934
▁edificio	-9.46936
▁km	-9.46965
▁economía	-9.4698
cla	-9.4698
▁fra	-9.47023
▁pequeños	-9.4705
▁cierto	-9.47099
rri	-9.47106
bri	-9.47112
▁inicial	-9.47171
▁libertad	-9.47258
eron	-9.47276
▁podrá	-9.47283
▁cita	-9.47462
▁puedo	-9.4753
▁ben	-9.47544
▁tienda	-9.47563
iz	-9.47695
▁resolución	-9.47723
▁imp	-9.47938
▁américa	-9.4799
▁altura	-9.48043
▁detalles	-9.48093
ula	-9.48134
▁archivos	-9.48143
▁incorpora	-9.48145
▁adapta	-9.48169
▁cro	-9.48192
tá	-9.4823
▁corriente	-9.4824
▁dr	-9.48415
▁herramienta	-9.48597
▁redes	-9.48618
▁pruebas	-9.48712
mbo	-9.48712
▁grado	-9.48923
gro	-9.4901
▁descarga	-9.49099
▁wi	-9.4911
cida	-9.49118
–	-9.49144
▁completamente	-9.49163
¿	-9.49179
&	-9.49252
lado	-9.49257
cur	-9.49301
▁participa	-9.49334
▁rápida	-9.49344
▁plataforma	-9.49482
▁creación	-9.49522
▁reino	-9.49705
▁esco	-9.49757
▁aparece	-9.49862
▁cree	-9.49878
▁copia	-9.49925
▁llamado	-9.49937
lin	-9.50005
▁cambia	-9.50016
▁plantas	-9.50078
▁mantenimiento	-9.501
tió	-9.50113
hu	-9.50125
▁vino	-9.50283
▁junio	-9.50338
▁soy	-9.50383
▁cielo	-9.50495
▁origen	-9.50569
▁barra	-9.50635
aba	-9.50748
▁caliente	-9.5083
▁expresa	-9.50867
▁mayores	-9.50885
▁licencia	-9.50977
▁disfrutar	-9.50997
▁próximo	-9.51035
ner	-9.51103
▁perfil	-9.51118
diendo	-9.51156
▁profesionales	-9.51213
▁sueño	-9.51328
▁vestido	-9.51475
▁paciente	-9.5148
▁selección	-9.51509
▁au	-9.51575
▁comercio	-9.51616
▁potencial	-9.51625
▁señal	-9.51644
▁á	-9.51677
▁objetivos	-9.51845
▁voz	-9.51855
cula	-9.51911
▁vídeo	-9.52005
▁desarrollar	-9.52022
mbre	-9.52047
▁ellas	-9.52169
▁icono	-9.52261
▁contrato	-9.52352
sto	-9.52478
▁café	-9.52649
tic	-9.5274
▁asigna	-9.52907
forma	-9.53118
▁factores	-9.53129
lan	-9.53186
▁implica	-9.53297
▁corto	-9.5333
ería	-9.53368
▁recibir	-9.5337
como	-9.53371
▁trabajadores	-9.53574
van	-9.5359
▁llena	-9.5362
▁popular	-9.53621
▁ko	-9.53732
▁procedimiento	-9.53777
▁primeros	-9.53825
▁gana	-9.53853
▁políticas	-9.53916
▁dispone	-9.53951
▁julio	-9.53988
▁finalmente	-9.54077
dieron	-9.54137
▁términos	-9.54146
▁feliz	-9.54168
▁evento	-9.54284
zar	-9.54346
▁mini	-9.54352
ología	-9.54364
▁dicha	-9.54425
▁sé	-9.54459
ral	-9.54537
mé	-9.54594
▁alimentación	-9.54663
▁acepta	-9.54798
▁hermosa	-9.54799
▁menú	-9.54847
▁dan	-9.54856
▁pelo	-9.54989
▁post	-9.55069
▁viene	-9.55107
▁comp	-9.55134
▁premio	-9.55172
▁buscar	-9.55175
▁gua	-9.55304
▁pone	-9.55327
bio	-9.55372
sor	-9.55405
▁depende	-9.55454
▁sola	-9.55468
▁junta	-9.55486
▁mapa	-9.55486
▁piso	-9.55534
▁entra	-9.55563
▁je	-9.55667
▁fuego	-9.5568
rias	-9.55704
ndi	-9.55801
▁tú	-9.55857
▁estándar	-9.55874
▁abierto	-9.55919
▁flujo	-9.56037
▁enfrenta	-9.5608
▁elemento	-9.56086
nio	-9.56103
▁afirma	-9.56152
▁decoración	-9.56206
▁operaciones	-9.56249
we	-9.56318
▁incluyendo	-9.56403
sivo	-9.5652
nc	-9.56527
▁em	-9.5666
................	-9.56726
▁crédito	-9.56754
ena	-9.56798
ice	-9.56904
+	-9.56956
▁jardín	-9.56968
▁células	-9.57041
▁utilizando	-9.57058
puesta	-9.57073
▁propósito	-9.5723
▁operación	-9.57273
▁compara	-9.57379
▁hacerlo	-9.57399
▁perfecto	-9.57445
▁piscina	-9.57488
rme	-9.57499
▁unidades	-9.5758
▁asegura	-9.57632
▁accesorios	-9.57632
ifica	-9.57632
del	-9.57753
▁corre	-9.57867
▁paz	-9.57883
▁ajuste	-9.57905
▁ciclo	-9.57998
▁placa	-9.58109
▁bosque	-9.58234
▁cri	-9.58251
▁jesús	-9.58251
▁modelos	-9.58307
▁tenido	-9.58336
mpa	-9.5839
▁gri	-9.58426
▁vivir	-9.58437
▁reco	-9.58463
ció	-9.58498
ot	-9.58551
ces	-9.58586
▁establecer	-9.58627
▁adicional	-9.5873
▁zonas	-9.58785
▁reloj	-9.58814
▁aislado	-9.58831
▁enviar	-9.5902
tido	-9.59116
▁privado	-9.59284
lio	-9.5937
▁serán	-9.59408
▁destino	-9.59486
izar	-9.5952
▁ahí	-9.59568
▁obras	-9.59722
nder	-9.5983
▁competencia	-9.59873
▁bal	-9.59892
▁gira	-9.59892
▁wa	-9.59906
ut	-9.60004
▁vehículo	-9.60251
▁cubierta	-9.60262
▁abajo	-9.60301
cial	-9.60395
▁fre	-9.60413
▁maestro	-9.60457
mor	-9.60504
▁totalmente	-9.60616
eta	-9.60677
▁realizado	-9.607
ñe	-9.60779
▁visión	-9.6081
▁unión	-9.60818
▁dispositivos	-9.60822
▁descripción	-9.60834
▁preguntas	-9.60907
▁sentir	-9.60921
▁decisión	-9.60942
▁artículos	-9.61068
▁museo	-9.61107
▁acto	-9.61159
▁volumen	-9.61178
stre	-9.61275
▁principios	-9.61462
▁pensar	-9.61483
▁gar	-9.61491
▁solicitud	-9.61522
tur	-9.61626
aje	-9.6166
▁inf	-9.61669
▁aspecto	-9.61745
▁villa	-9.61751
▁traje	-9.6185
▁bra	-9.61853
▁diciembre	-9.61867
▁bru	-9.61933
shi	-9.61951
▁aprendizaje	-9.62048
▁ana	-9.62115
▁aprender	-9.62121
▁calor	-9.62268
▁tro	-9.62292
▁canal	-9.62327
op	-9.62381
▁tienes	-9.62382
izada	-9.6248
▁provoca	-9.62535
▁humana	-9.62555
▁autor	-9.62573
▁cristal	-9.6263
▁soluciones	-9.62695
▁cabello	-9.62791
nar	-9.62794
▁elegir	-9.62855
▁enfermedades	-9.62858
▁bomba	-9.62907
▁regalo	-9.62991
▁quiero	-9.63048
ico	-9.63108
▁enfoque	-9.63112
cé	-9.63148
▁motivo	-9.63155
▁ubicación	-9.63263
▁esas	-9.6333
idades	-9.6336
▁torre	-9.6338
▁octubre	-9.63415
▁remo	-9.63475
▁mantiene	-9.63485
▁carácter	-9.63488
▁exten	-9.63521
idos	-9.63531
▁derecha	-9.63543
▁ruta	-9.63612
▁pen	-9.63657
▁produce	-9.63681
▁puedan	-9.63758
só	-9.63771
bar	-9.6378
mático	-9.63804
▁longitud	-9.63896
▁diseñado	-9.63929
▁documento	-9.63957
▁consulta	-9.63959
▁tejido	-9.63977
▁llamada	-9.63998
lé	-9.64011
▁ofrecer	-9.64059
▁componentes	-9.64071
▁eventos	-9.64091
▁brillante	-9.64097
▁geo	-9.64128
▁costo	-9.64198
▁dibujos	-9.64215
zca	-9.64247
▁mismos	-9.64277
▁arma	-9.64291
bor	-9.64307
▁creado	-9.64329
▁solamente	-9.64413
▁determinar	-9.64433
rd	-9.64469
spe	-9.64509
▁error	-9.64555
▁capítulo	-9.64587
▁pat	-9.64591
▁mucha	-9.64656
▁conserva	-9.64682
eg	-9.64716
▁internacionales	-9.64769
▁mínimo	-9.6479
▁pronto	-9.64827
▁intenta	-9.64861
▁aumentar	-9.64951
qu	-9.65027
▁marcha	-9.65048
▁leer	-9.65063
ler	-9.65148
▁jugar	-9.65166
dica	-9.65219
rla	-9.65284
▁deberá	-9.653
net	-9.65324
▁invita	-9.6536
gua	-9.65435
▁prepara	-9.65453
▁marzo	-9.6548
▁comerciales	-9.65519
rico	-9.65602
▁boca	-9.65609
rt	-9.65778
▁termina	-9.65792
▁envío	-9.65823
quí	-9.65895
jas	-9.65943
▁idioma	-9.65955
▁plástico	-9.65966
dra	-9.65978
▁distribución	-9.66001
▁vamos	-9.66021
nó	-9.66096
tera	-9.66124
▁abril	-9.66143
om	-9.66166
▁tren	-9.66179
leta	-9.66199
▁confirma	-9.66224
▁josé	-9.66256
▁retrato	-9.66267
dic	-9.66327
▁anual	-9.66394
▁cine	-9.66502
▁apartamento	-9.66586
gio	-9.66586
▁plaza	-9.66669
▁ideas	-9.66745
▁restaurante	-9.66771
▁masa	-9.66781
▁colombia	-9.66804
▁madrid	-9.66839
▁requisitos	-9.66854
ment	-9.66875
▁moderno	-9.66889
▁salir	-9.66956
▁vivo	-9.66966
▁usando	-9.66978
▁instalaciones	-9.66989
▁naturales	-9.67007
▁aspectos	-9.67049
vel	-9.67064
▁bri	-9.67067
▁formato	-9.67126
▁diario	-9.67155
▁espíritu	-9.67162
▁supuesto	-9.67197
▁temas	-9.673
▁símbolo	-9.67372
▁móvil	-9.67393
▁década	-9.67409
▁líneas	-9.67471
én	-9.67504
▁sab	-9.67524
▁normas	-9.67528
▁monta	-9.67539
▁regular	-9.67549
mó	-9.67556
▁escrito	-9.67566
▁navidad	-9.67714
▁tratar	-9.67769
▁ataque	-9.67835
cro	-9.67863
▁empleo	-9.67943
▁época	-9.67981
ker	-9.68108
▁septiembre	-9.68122
cra	-9.68164
▁familiar	-9.68189
▁antigua	-9.68237
▁compartir	-9.68245
▁eliminar	-9.68278
ph	-9.68295
▁comportamiento	-9.68319
▁miembro	-9.6833
▁ii	-9.68478
▁mala	-9.6851
º	-9.68622
▁aplicar	-9.68685
▁cuarto	-9.68708
▁york	-9.6876
▁estima	-9.68773
▁técnicas	-9.68867
io	-9.68873
▁almacenamiento	-9.68882
▁pc	-9.68882
▁izquierda	-9.68913
tir	-9.68939
cular	-9.69
».	-9.69011
tel	-9.69059
▁dólares	-9.6908
▁rep	-9.6912
▁roja	-9.6915
▁tele	-9.69182
▁abrir	-9.69204
▁buenos	-9.69245
▁preocupa	-9.6927
▁interna	-9.69284
▁fácilmente	-9.69337
▁suma	-9.69379
rica	-9.69383
▁compuesto	-9.69383
ua	-9.695
▁semanas	-9.69595
▁proporcionar	-9.69609
▁complejo	-9.6961
amiento	-9.69662
▁tubo	-9.69691
®	-9.69717
dri	-9.69762
▁campaña	-9.69806
▁inversión	-9.69812
▁tendencia	-9.69813
▁carne	-9.69854
▁eléctrica	-9.69879
▁provincia	-9.69906
eno	-9.69907
▁min	-9.69909
▁compromiso	-9.69913
▁árbol	-9.69917
feri	-9.69917
▁chile	-9.69929
sin	-9.69941
▁allá	-9.69951
her	-9.70056
▁asistencia	-9.70104
nica	-9.70132
▁comienza	-9.70145
▁mono	-9.70206
▁ésta	-9.70208
clu	-9.70263
▁correspondiente	-9.70366
▁rápidamente	-9.70369
rm	-9.70373
▁europea	-9.70378
tener	-9.70499
▁tur	-9.70512
▁tira	-9.70609
▁fer	-9.7062
ió	-9.70692
▁coste	-9.70698
▁led	-9.70707
▁mac	-9.70712
▁fuentes	-9.70788
▁tradicional	-9.70804
▁organizaciones	-9.70864
gó	-9.70952
▁acaba	-9.70989
od	-9.7099
▁contrario	-9.71008
▁vivienda	-9.71049
*	-9.71152
▁pon	-9.71211
▁deseo	-9.71252
▁sensor	-9.71257
▁adelante	-9.71291
▁paisaje	-9.71332
▁estación	-9.7134
▁especiales	-9.71345
▁descargar	-9.71355
▁enlace	-9.71373
▁seleccione	-9.71374
duc	-9.71384
ín	-9.7148
▁comer	-9.71611
culo	-9.71627
▁debajo	-9.71641
▁principalmente	-9.71686
▁fiscal	-9.71703
▁impresión	-9.71729
▁espe	-9.71775
rnos	-9.71797
▁éste	-9.71818
▁eje	-9.71856
▁perro	-9.71864
lica	-9.71876
▁periodo	-9.7194
▁ácido	-9.72012
dó	-9.72023
▁pedido	-9.72077
▁retro	-9.72114
jado	-9.72147
▁emi	-9.72153
tiendo	-9.72194
▁abierta	-9.72296
bro	-9.7232
▁especifica	-9.7235
▁mitad	-9.72409
▁responsable	-9.72552
este	-9.72631
▁encima	-9.72642
▁inteligente	-9.72656
▁máxima	-9.72754
▁autoridades	-9.72764
▁windows	-9.72944
▁colección	-9.72982
▁limpieza	-9.73054
aria	-9.7309
▁carretera	-9.73134
nea	-9.73138
▁personales	-9.73201
▁estrategia	-9.73263
▁camiseta	-9.73318
▁pies	-9.73326
▁denomina	-9.73363
▁uni	-9.73376
tía	-9.73452
▁producir	-9.7353
ér	-9.73531
▁posee	-9.73569
▁inten	-9.73584
▁útil	-9.73639
▁aeropuerto	-9.7367
tribu	-9.73736
▁exp	-9.73795
▁pensamiento	-9.73863
▁vuelta	-9.73887
▁contar	-9.73949
▁entender	-9.74006
gia	-9.74016
tón	-9.74023
▁cumplir	-9.74147
▁alternativa	-9.74379
ética	-9.74435
▁cáncer	-9.74463
▁justicia	-9.74469
min	-9.74501
▁inicia	-9.74512
▁somos	-9.74516
▁contexto	-9.74595
▁sha	-9.74654
▁generalmente	-9.74742
▁atrás	-9.74746
▁utilizado	-9.74757
iga	-9.74758
tores	-9.74774
▁destaca	-9.74787
▁revela	-9.74825
fra	-9.74845
▁fabricante	-9.75049
vio	-9.75104
cí	-9.75185
entes	-9.75198
gos	-9.75211
ite	-9.75377
gri	-9.75408
ent	-9.75524
▁generación	-9.75531
▁propiedades	-9.75537
▁mate	-9.75546
stru	-9.7562
▁objetos	-9.75626
▁hoja	-9.75636
mbra	-9.7568
ley	-9.75699
▁pasos	-9.75706
▁am	-9.75718
▁directo	-9.75864
ok	-9.75872
blo	-9.75877
▁libros	-9.75898
▁libres	-9.75923
cito	-9.75982
▁similar	-9.76015
▁presentación	-9.76105
▁cuyo	-9.76165
▁ministerio	-9.76196
▁cast	-9.762
▁hojas	-9.76217
▁nacionales	-9.76592
▁pagar	-9.76618
▁noviembre	-9.76659
▁organiza	-9.76698
▁capaz	-9.76743
▁gama	-9.76753
▁consiste	-9.76799
▁constante	-9.76807
▁limpia	-9.76819
ser	-9.76867
▁francia	-9.76921
▁exposición	-9.76984
▁reciente	-9.77024
cita	-9.77047
▁eléctrico	-9.77132
ue	-9.77259
uu	-9.77309
▁comité	-9.77351
▁laboral	-9.77409
ris	-9.7744
▁enero	-9.77441
pp	-9.77516
▁confi	-9.77672
▁legal	-9.77725
▁clo	-9.77776
▁emplea	-9.77785
sia	-9.77803
▁ingresos	-9.77858
▁fun	-9.77872
▁extremo	-9.77913
▁paga	-9.77935
▁presentar	-9.77948
▁televisión	-9.77965
▁aporta	-9.77988
▁comenzó	-9.78038
▁proteger	-9.78074
▁unido	-9.78079
▁situado	-9.78101
▁alcanzar	-9.78163
▁métodos	-9.7827
ví	-9.78294
▁escolar	-9.78312
▁bloque	-9.78341
▁decisiones	-9.78381
▁amenaza	-9.78489
▁podrían	-9.78492
▁género	-9.78541
▁zapatos	-9.78553
▁estadounidense	-9.78579
▁pequeñas	-9.78634
▁polvo	-9.78666
▁individual	-9.78709
eros	-9.78727
▁fondos	-9.78731
▁distintos	-9.78814
▁increíble	-9.78846
▁comenzar	-9.78977
▁acompaña	-9.78984
▁elegante	-9.79062
▁ee	-9.79064
rían	-9.79077
▁negra	-9.79124
▁jefe	-9.79167
▁familias	-9.79172
▁santo	-9.79242
▁us	-9.7933
idas	-9.79417
▁plu	-9.7947
▁lectura	-9.79485
▁justo	-9.79503
▁pal	-9.79524
▁gen	-9.79537
▁ciencia	-9.79545
tada	-9.79688
▁sirve	-9.79747
html	-9.79852
▁indi	-9.79877
▁gris	-9.79979
▁invierno	-9.80043
▁fri	-9.8006
▁adultos	-9.80073
▁centra	-9.80078
▁diversos	-9.80104
gon	-9.80136
▁argentina	-9.80148
▁agrega	-9.80152
▁encanta	-9.80162
▁jugadores	-9.80173
▁transforma	-9.8024
▁vuelo	-9.80251
scrip	-9.80285
▁confianza	-9.80291
▁basado	-9.80296
▁enorme	-9.80394
tino	-9.80424
▁bur	-9.80431
▁refiere	-9.80465
▁diez	-9.80489
▁bor	-9.80505
▁interesante	-9.80557
▁belleza	-9.80584
▁hija	-9.80787
▁fútbol	-9.80822
▁agosto	-9.80845
▁costos	-9.80867
pica	-9.80903
▁asociación	-9.80915
tró	-9.80936
vis	-9.81035
▁levanta	-9.81071
▁panel	-9.81127
▁new	-9.81205
▁niña	-9.8122
let	-9.81259
▁crisis	-9.81266
ure	-9.81306
▁siente	-9.81312
dí	-9.81345
▁filtro	-9.81395
▁histórico	-9.81408
▁amigo	-9.81427
lea	-9.81468
▁kit	-9.81498
ela	-9.8154
▁patrón	-9.81554
▁iba	-9.8162
▁alcanza	-9.81679
▁empezar	-9.81717
▁ámbito	-9.81735
▁brasil	-9.81739
▁prácticas	-9.81767
▁maría	-9.81822
▁módulo	-9.81849
▁estrellas	-9.81864
bul	-9.81915
▁empleados	-9.81996
▁ip	-9.82
▁animal	-9.82015
▁documentos	-9.82025
▁sexual	-9.82027
▁viejo	-9.82032
mba	-9.8205
▁cau	-9.82074
▁esfuerzo	-9.82105
▁sta	-9.82132
uro	-9.82135
▁cierre	-9.82167
▁cata	-9.82171
▁india	-9.82269
▁oferta	-9.82335
voca	-9.82377
▁sesión	-9.82402
▁alemania	-9.82447
port	-9.82454
▁liga	-9.82553
▁lujo	-9.82591
▁cap	-9.826
pedi	-9.82607
▁ventas	-9.82636
▁garantizar	-9.8264
▁ab	-9.82692
line	-9.82698
cli	-9.82792
king	-9.82829
▁sp	-9.82834
posición	-9.82893
ple	-9.82916
▁vacaciones	-9.8292
▁profesor	-9.82944
▁ama	-9.82998
▁instituciones	-9.83049
▁entrenamiento	-9.83084
▁almacena	-9.83113
▁punta	-9.83167
▁escena	-9.83177
▁frecuente	-9.83198
▁garantía	-9.83225
éis	-9.83297
▁múltiples	-9.834
▁defensa	-9.83497
iente	-9.83568
▁apo	-9.83593
▁líquido	-9.83613
▁cruz	-9.83661
▁vistas	-9.83714
▁alumnos	-9.83722
▁incluir	-9.83761
▁privada	-9.83833
▁conflicto	-9.83838
▁categoría	-9.83886
▁duro	-9.83897
▁entrar	-9.83905
▁clases	-9.83934
▁perder	-9.8395
▁edición	-9.83958
cti	-9.83981
▁boda	-9.84004
▁físico	-9.8403
▁república	-9.8405
▁permanente	-9.84127
▁borde	-9.84148
▁comunica	-9.8417
mica	-9.84322
▁ocurre	-9.84327
▁anima	-9.84381
▁page	-9.84422
▁violencia	-9.84451
▁tela	-9.84461
rle	-9.84475
▁desarrollado	-9.84499
▁anillo	-9.84529
▁clima	-9.84536
tida	-9.84585
pas	-9.84635
pon	-9.84639
▁municipal	-9.84655
pul	-9.84665
▁vidrio	-9.84691
▁solar	-9.84715
by	-9.84838
▁z	-9.84943
▁cuestión	-9.85028
pó	-9.85097
▁interno	-9.85107
▁tv	-9.85145
▁síntomas	-9.85187
▁utilizan	-9.85218
ı	-9.85229
▁entrevista	-9.8525
▁tapa	-9.85298
▁posterior	-9.85344
▁encuentro	-9.8536
▁corresponde	-9.85374
▁reunión	-9.85379
icio	-9.85446
bol	-9.85522
▁cultural	-9.85523
cado	-9.85735
▁territorio	-9.85736
▁establece	-9.85766
▁don	-9.85809
▁imagina	-9.8588
ts	-9.85884
▁ciudades	-9.85939
▁relacionados	-9.85952
lación	-9.86028
dro	-9.86037
▁barco	-9.86126
▁mental	-9.86169
▁emb	-9.86243
▁reducción	-9.86278
▁teoría	-9.86326
▁pena	-9.86354
▁vale	-9.86411
▁plantea	-9.86466
▁calcula	-9.86534
▁roma	-9.86547
▁sujeto	-9.86547
▁etiqueta	-9.86549
▁vo	-9.86588
▁amarillo	-9.86593
▁lanza	-9.86603
▁permitir	-9.86611
▁ofrecen	-9.86681
rie	-9.86709
▁men	-9.86831
▁industrial	-9.86921
▁medicina	-9.86978
▁estable	-9.8717
vir	-9.87186
▁euros	-9.87218
▁siete	-9.8729
▁llegó	-9.87344
▁cru	-9.87447
▁vuelve	-9.87463
▁promedio	-9.87507
▁peligro	-9.87597
up	-9.87605
▁dibujo	-9.87628
▁adopta	-9.87632
▁%	-9.87688
▁gato	-9.87693
▁basa	-9.87708
▁conferencia	-9.87742
▁at	-9.87795
▁computadora	-9.87898
▁controlar	-9.87913
fen	-9.8797
▁probablemente	-9.87975
▁financiera	-9.87976
▁plata	-9.88002
▁vio	-9.88027
▁domingo	-9.88033
▁escenario	-9.88079
▁inspira	-9.88145
):	-9.88157
▁instituto	-9.88255
▁cuya	-9.88256
▁diversas	-9.88428
▁solicita	-9.88445
▁terreno	-9.88534
teo	-9.88564
▁opinión	-9.88605
▁pra	-9.88605
▁hubiera	-9.88619
▁menciona	-9.88632
bla	-9.88634
▁iniciativa	-9.88636
ella	-9.88639
▁febrero	-9.88669
▁distrito	-9.88691
▁servidor	-9.88703
▁consecuencia	-9.88724
▁miedo	-9.8875
▁especies	-9.88761
▁chico	-9.88789
▁permiten	-9.88823
▁cabe	-9.88861
▁garantiza	-9.8896
ku	-9.88965
ere	-9.88966
▁clara	-9.89017
▁europeo	-9.89108
vie	-9.89127
▁sexo	-9.89129
▁médica	-9.89195
sign	-9.89238
▁muerto	-9.89238
▁fibra	-9.89331
▁portátil	-9.89332
▁et	-9.89355
▁existencia	-9.89375
▁sabor	-9.89387
▁agencia	-9.89391
▁ganar	-9.89396
▁alamy	-9.89437
▁suministro	-9.8944
illo	-9.8955
▁segura	-9.89574
▁mag	-9.89579
▁er	-9.89589
▁fuerzas	-9.89598
▁leche	-9.89599
jó	-9.89681
ang	-9.89826
▁disfruta	-9.89851
▁daño	-9.8987
▁guarda	-9.89944
▁ambas	-9.89987
▁tono	-9.90002
▁plantilla	-9.90054
▁transmisión	-9.90135
▁instrucciones	-9.90202
▁amplio	-9.90202
▁alcance	-9.90255
▁sitios	-9.90274
▁apoya	-9.90301
▁limita	-9.90356
▁asegurar	-9.90394
▁eres	-9.90452
▁vehículos	-9.90471
▁detrás	-9.90511
yó	-9.90571
▁comunidades	-9.90642
▁expresión	-9.90705
▁cola	-9.90756
▁top	-9.90866
▁asimismo	-9.90867
▁ensayo	-9.90886
▁establecido	-9.90899
▁seleccionar	-9.90919
▁voy	-9.90953
▁bicicleta	-9.90984
▁condición	-9.91008
▁dulce	-9.91008
▁habilidades	-9.91016
▁luna	-9.91057
▁federal	-9.91067
dis	-9.91103
▁cuero	-9.91259
tend	-9.9128
lidad	-9.9128
▁lejos	-9.91308
▁fundamental	-9.91365
▁identificar	-9.91401
▁anteriores	-9.91402
mero	-9.91442
▁alma	-9.91449
▁transmi	-9.9145
▁convierte	-9.91464
ham	-9.9153
▁flu	-9.91537
▁directa	-9.91614
▁procedimientos	-9.91659
ft	-9.91761
▁grasa	-9.91814
▁concentra	-9.91859
▁agregar	-9.91864
▁influencia	-9.91921
▁juntos	-9.92044
▁quién	-9.92045
antes	-9.9205
▁resistente	-9.92077
ás	-9.92087
▁significativa	-9.92295
▁pulgadas	-9.923
▁tampoco	-9.92367
▁acceder	-9.92367
▁columna	-9.92426
gido	-9.92462
lógico	-9.92466
▁construir	-9.92479
▁hermoso	-9.9248
▁electro	-9.92517
lli	-9.92519
▁similares	-9.92535
);	-9.92535
nico	-9.92547
eña	-9.92606
uel	-9.9262
art	-9.92655
col	-9.92695
▁moderna	-9.92729
▁combinación	-9.92736
▁elimina	-9.92753
▁camp	-9.92766
▁norma	-9.92803
▁conocida	-9.92877
▁victoria	-9.92904
▁cho	-9.92926
▁cualquiera	-9.93019
▁ordenador	-9.93073
▁puente	-9.93083
▁hd	-9.93133
nie	-9.93167
▁st	-9.93177
▁tarea	-9.93184
▁distintas	-9.93194
▁profunda	-9.93219
▁reforma	-9.93221
ps	-9.93254
▁golpe	-9.93287
▁técnico	-9.93331
▁añadir	-9.9334
▁ph	-9.93446
▁agradable	-9.93506
▁rango	-9.93559
▁prensa	-9.9358
ificación	-9.93588
▁jugador	-9.93606
▁factor	-9.9362
▁visual	-9.93644
▁cuello	-9.93648
▁captura	-9.93704
▁relaja	-9.93707
▁usb	-9.93758
▁lengua	-9.93789
▁diagnóstico	-9.93806
▁cinta	-9.93834
ego	-9.93836
▁exige	-9.93843
ze	-9.93901
▁valle	-9.94021
if	-9.94037
▁infantil	-9.94071
▁pieza	-9.9409
▁manga	-9.94092
▁emergencia	-9.94109
▁escribir	-9.94111
▁tribunal	-9.94192
▁esencial	-9.94246
▁bandera	-9.94326
▁pista	-9.9443
▁arena	-9.94473
▁utilizada	-9.94473
▁ocho	-9.94477
▁instalar	-9.94541
▁hechos	-9.94568
▁llave	-9.94609
▁tareas	-9.94612
▁duración	-9.94634
pan	-9.94639
zi	-9.9467
▁pocos	-9.94674
parti	-9.9471
▁municipio	-9.94754
▁oportunidades	-9.94756
▁estará	-9.94785
▁combustible	-9.94815
▁centros	-9.94851
▁come	-9.94891
▁trabajando	-9.94982
dón	-9.9508
▁audio	-9.9509
▁participar	-9.951
▁positivo	-9.95114
▁ejército	-9.95167
▁perspectiva	-9.95175
▁monitor	-9.95199
▁efectivo	-9.95221
ún	-9.95241
ting	-9.95301
▁rico	-9.95307
▁italia	-9.95375
▁oscuro	-9.95389
▁participantes	-9.95397
▁verdadera	-9.95441
imos	-9.95508
igu	-9.95527
yu	-9.95604
▁propuesta	-9.95616
vas	-9.95726
▁·	-9.95753
▁animados	-9.95757
▁arquitectura	-9.95774
zu	-9.95774
▁cuba	-9.95781
▁barcelona	-9.95851
bal	-9.95885
curri	-9.95891
▁ref	-9.95963
▁rodea	-9.96015
▁ejecución	-9.96029
▁riesgos	-9.96035
▁planes	-9.96045
▁google	-9.96059
ló	-9.96086
▁tre	-9.96169
image	-9.96177
▁debemos	-9.96187
▁refleja	-9.96206
▁militar	-9.96239
pl	-9.96278
itario	-9.96328
▁tar	-9.9635
▁spa	-9.96387
pero	-9.96425
▁asi	-9.96425
▁botella	-9.96477
▁planeta	-9.96488
▁comunes	-9.96516
▁alimenta	-9.96551
▁cultivo	-9.96578
▁hor	-9.96617
▁escucha	-9.96625
▁manejo	-9.96687
▁cura	-9.96689
món	-9.96692
▁laboratorio	-9.96749
doras	-9.96794
fort	-9.96812
rón	-9.96855
▁compatible	-9.96878
fina	-9.96907
▁disposición	-9.96908
▁mari	-9.96909
▁zo	-9.96934
mico	-9.96951
▁practica	-9.96959
▁we	-9.96978
▁cifra	-9.97147
uda	-9.9716
▁gratuita	-9.97162
▁establecimiento	-9.9717
cera	-9.97205
ético	-9.9722
▁gene	-9.97317
cri	-9.97332
glo	-9.97333
mera	-9.97392
▁experimenta	-9.97453
▁caracteriza	-9.97478
▁estudiante	-9.97479
americana	-9.97554
▁toca	-9.97563
ab	-9.97615
▁lateral	-9.97623
▁resolver	-9.97656
tem	-9.97679
▁fines	-9.97722
ores	-9.97743
tec	-9.97747
vin	-9.97789
▁lenguaje	-9.97863
▁cierta	-9.97898
▁perfecta	-9.97924
▁habría	-9.97945
▁revista	-9.97952
▁carlos	-9.97989
$	-9.98078
▁determina	-9.98082
▁dónde	-9.98108
mientos	-9.9825
▁situaciones	-9.98267
▁tarjetas	-9.98293
▁obstante	-9.98301
▁circuito	-9.98323
▁salón	-9.9834
▁necesitan	-9.98341
▁integra	-9.98346
▁cristo	-9.98348
▁doctor	-9.98356
ndida	-9.9842
▁monte	-9.98434
die	-9.98506
▁vincula	-9.98506
▁colabora	-9.9854
▁revisión	-9.98633
▁hidro	-9.98659
▁dormitorio	-9.9868
▁luis	-9.98713
▁comi	-9.98754
▁clásico	-9.98768
▁evidencia	-9.98791
serv	-9.98852
▁finales	-9.98857
▁caballo	-9.98877
▁registra	-9.98899
tario	-9.99019
▁niñas	-9.99035
scend	-9.99053
▁comentarios	-9.99211
▁elección	-9.99264
▁cá	-9.99264
scrib	-9.99325
tz	-9.99332
▁@	-9.99356
▁especie	-9.99397
esto	-9.99494
linea	-9.99506
sumi	-9.99559
▁espacios	-9.99609
▁seguimiento	-9.99621
▁accidente	-9.99644
▁estre	-9.99741
▁armas	-9.99804
log	-9.99868
▁adicionales	-9.99869
▁declara	-9.99921
▁conciencia	-9.99922
▁razones	-9.99925
solu	-9.99988
the	-10.0005
▁término	-10.0006
▁quieres	-10.0007
▁considerar	-10.0013
▁ke	-10.0014
pie	-10.0019
▁eu	-10.0025
▁mod	-10.0026
lera	-10.0029
▁acumula	-10.003
▁barrio	-10.003
org	-10.0031
▁describe	-10.0031
▁personaje	-10.0031
▁convertido	-10.004
▁saludable	-10.0042
cina	-10.0048
▁extranjero	-10.0056
▁virtual	-10.0059
▁hab	-10.006
ear	-10.0062
▁asiento	-10.0064
▁próxima	-10.0069
▁labor	-10.0072
▁edi	-10.0074
▁localiza	-10.0078
▁silla	-10.0083
▁identidad	-10.0086
▁esperar	-10.0087
▁john	-10.0088
zos	-10.0095
▁básica	-10.0105
és	-10.0108
jos	-10.0121
▁líder	-10.0123
▁conductor	-10.0132
▁medicamentos	-10.0134
▁reto	-10.014
▁musical	-10.0149
▁presupuesto	-10.0151
▁bienes	-10.0155
▁abre	-10.016
▁médicos	-10.0161
▁crítica	-10.0168
▁vea	-10.0178
▁negocia	-10.0186
▁viento	-10.0191
▁buenas	-10.0194
▁esposa	-10.0197
▁reuni	-10.0198
▁manifesta	-10.0203
▁certificado	-10.0205
▁misión	-10.0208
cie	-10.0214
▁hecha	-10.0216
▁dominio	-10.0219
▁vectorial	-10.0221
san	-10.0223
ografía	-10.0226
ion	-10.0227
▁sil	-10.023
▁utilice	-10.0231
▁tenían	-10.0234
tán	-10.0238
▁anuncio	-10.0239
xa	-10.0239
><	-10.0245
scar	-10.0248
▁tercera	-10.0248
▁regla	-10.0263
▁muestran	-10.0265
▁techo	-10.0267
▁taza	-10.0278
pto	-10.028
▁respira	-10.0282
box	-10.0283
cy	-10.0287
▁bel	-10.0289
▁mensajes	-10.0296
▁índice	-10.0299
▁puertas	-10.03
▁amazon	-10.0301
▁deporte	-10.0301
▁dé	-10.0316
ling	-10.0317
▁admi	-10.0318
lie	-10.0319
ub	-10.0326
▁transparente	-10.0334
▁mol	-10.0335
▁pod	-10.0336
▁reduce	-10.0338
▁noticias	-10.0339
▁deriva	-10.0345
▁estén	-10.0346
▁universal	-10.0348
cente	-10.0349
cm	-10.0351
one	-10.0352
▁copa	-10.0354
▁nube	-10.0354
gres	-10.0356
▁cumpleaños	-10.0358
▁tensión	-10.0361
▁comparación	-10.0368
pri	-10.0373
▁batalla	-10.0376
▁dosis	-10.0378
▁fal	-10.0388
▁fran	-10.0391
▁mente	-10.0391
▁hoteles	-10.0396
▁online	-10.0405
▁tercer	-10.0407
▁efectiva	-10.0408
▁rol	-10.0409
ona	-10.041
▁conecta	-10.0415
▁aquel	-10.0416
▁transferencia	-10.0417
▁ed	-10.0418
▁determinado	-10.042
▁israel	-10.0428
▁dona	-10.0433
▁interpreta	-10.0442
▁haz	-10.0442
▁consta	-10.0447
▁ubicado	-10.0447
▁abra	-10.0449
▁rural	-10.0451
▁ajusta	-10.0459
tima	-10.046
rlos	-10.0461
▁fábrica	-10.0462
▁montaña	-10.0463
presión	-10.0464
▁habitual	-10.0464
▁recomienda	-10.0468
▁secuencia	-10.0474
▁clínica	-10.0475
ónico	-10.0476
▁vas	-10.0487
▁ter	-10.0491
▁ancho	-10.0494
▁leyes	-10.0497
ense	-10.05
▁celular	-10.0503
logía	-10.0504
mine	-10.0506
▁agentes	-10.0506
▁ber	-10.051
▁alquiler	-10.051
▁ultra	-10.0511
▁menores	-10.0514
lón	-10.0514
▁válvula	-10.0515
▁automáticamente	-10.0522
▁definición	-10.0527
▁recuperación	-10.0531
▁sale	-10.0537
▁personajes	-10.0539
▁habrá	-10.0542
▁verdadero	-10.0543
▁inc	-10.0543
zz	-10.0546
▁ocasiones	-10.0549
▁©	-10.0552
cuál	-10.0558
▁orienta	-10.0559
▁naciones	-10.056
▁teniendo	-10.0563
▁detalle	-10.0565
▁quería	-10.0566
▁camina	-10.0568
▁preparación	-10.0579
▁arco	-10.0585
▁diaria	-10.0589
▁involucra	-10.059
▁pase	-10.0591
▁gastos	-10.0593
▁use	-10.0593
▁estrella	-10.0595
▁configura	-10.0601
lito	-10.0601
▁aluminio	-10.0604
▁vaya	-10.0604
▁reconocimiento	-10.061
▁anuncia	-10.061
▁correcta	-10.0614
▁activos	-10.0615
▁necesaria	-10.0616
▁político	-10.062
▁montaje	-10.0621
ceso	-10.0624
▁temporal	-10.0626
▁supone	-10.0628
eza	-10.0628
tio	-10.0629
▁dieta	-10.064
ento	-10.0642
▁fabricación	-10.0644
▁familiares	-10.0648
scrito	-10.065
▁eleva	-10.0653
lico	-10.0658
bur	-10.066
▁vive	-10.066
▁gusto	-10.0662
rena	-10.0666
▁normalmente	-10.0672
▁propios	-10.0675
▁bre	-10.0683
ted	-10.0684
▁basada	-10.0686
▁visitar	-10.0686
▁inmediatamente	-10.0688
▁moneda	-10.069
▁puesta	-10.0695
▁analiza	-10.0695
▁enseñanza	-10.0697
▁hacía	-10.0697
▁impre	-10.0702
jar	-10.0702
out	-10.0706
▁recuerdo	-10.0706
bel	-10.0707
han	-10.0707
ller	-10.0717
▁pol	-10.0718
gna	-10.0726
▁pobre	-10.0734
▁hará	-10.0736
mue	-10.0738
▁fan	-10.074
tom	-10.0749
▁é	-10.0759
ólogo	-10.0759
▁generar	-10.0762
▁buscando	-10.0763
▁viernes	-10.0775
ní	-10.0776
mbi	-10.0779
▁realización	-10.0779
▁pesca	-10.0783
▁aliexpress	-10.0783
ios	-10.08
▁miles	-10.0804
»,	-10.0805
▁incrementa	-10.0815
▁sucede	-10.0818
▁cerebro	-10.0823
ológica	-10.0829
▁podrán	-10.0832
▁publicado	-10.0836
▁lleno	-10.0836
comp	-10.0837
▁desayuno	-10.0844
▁textura	-10.0846
ular	-10.0847
▁honor	-10.0848
eño	-10.0857
▁espiritual	-10.0857
▁festival	-10.0857
▁wal	-10.0859
▁propietario	-10.0862
▁regula	-10.0863
▁anteriormente	-10.0865
▁probable	-10.0866
▁posibles	-10.0867
ring	-10.0868
▁órgano	-10.087
pensa	-10.0874
▁reglas	-10.0874
ip	-10.0875
▁sencillo	-10.0877
▁continuar	-10.0877
met	-10.0882
▁aparato	-10.0887
▁convertir	-10.0888
rió	-10.0888
▁bas	-10.0892
▁libera	-10.0905
▁recibido	-10.0906
▁sabía	-10.0908
▁biblioteca	-10.0908
▁pedir	-10.091
anza	-10.0913
▁virus	-10.0915
▁ruido	-10.0917
▁intereses	-10.0918
▁audi	-10.0921
▁generales	-10.0925
▁eva	-10.0927
pricing	-10.0927
▁autoridad	-10.0927
grama	-10.0928
▁londres	-10.0928
▁beneficia	-10.0929
itos	-10.093
licenses	-10.0933
▁tratado	-10.0938
▁presentan	-10.0941
uta	-10.0941
@	-10.0952
ónica	-10.0952
tiene	-10.0957
▁trabajos	-10.0965
▁escuchar	-10.0967
▁avance	-10.0971
▁diferencias	-10.0971
³	-10.0974
ial	-10.0974
▁eficaz	-10.0974
damente	-10.0979
tilla	-10.0982
▁peri	-10.0982
▁tiendas	-10.0982
▁tráfico	-10.0983
▁alojamiento	-10.0984
~	-10.0985
▁positiva	-10.0985
▁breve	-10.1006
▁record	-10.1007
▁proveedores	-10.1024
▁española	-10.1024
tano	-10.1025
az	-10.1028
tados	-10.103
▁estuvo	-10.1034
▁activo	-10.1038
mail	-10.104
▁fresco	-10.105
▁iniciar	-10.1052
dir	-10.1055
deo	-10.1056
▁expertos	-10.1057
▁hubo	-10.1064
tista	-10.1064
ete	-10.1065
▁regional	-10.1067
▁esperanza	-10.1071
▁rea	-10.1074
▁logra	-10.1079
▁encontrado	-10.1079
riendo	-10.1081
▁vertical	-10.1085
▁cd	-10.1097
▁ur	-10.1101
▁marcas	-10.1104
▁socio	-10.1107
▁eficiente	-10.1114
▁árboles	-10.1115
▁otorga	-10.1117
▁fla	-10.1118
▁ministro	-10.112
fri	-10.1127
/?	-10.1128
▁cumplimiento	-10.1131
▁luces	-10.1134
▁frío	-10.1135
hua	-10.1138
vió	-10.1139
▁lluvia	-10.1142
▁lla	-10.1144
▁piensa	-10.1144
▁resumen	-10.115
▁infraestructura	-10.1155
▁estatal	-10.1161
▁manda	-10.1164
▁incluido	-10.1167
▁inde	-10.1186
▁predi	-10.1186
volv	-10.1192
\	-10.1194
▁turismo	-10.1198
▁correcto	-10.1199
▁gor	-10.1204
▁quiera	-10.1208
▁tecla	-10.1217
qua	-10.1222
ático	-10.1222
▁lámpara	-10.1223
▁azúcar	-10.1231
cuer	-10.124
▁aun	-10.1242
▁identifica	-10.1256
▁cumple	-10.126
chu	-10.1268
▁conectar	-10.127
▁listo	-10.127
ológico	-10.1271
▁radi	-10.1276
▁char	-10.1287
▁ji	-10.1287
▁abandona	-10.1288
▁reacción	-10.1292
liza	-10.1294
▁integral	-10.13
▁arre	-10.1301
▁chino	-10.1302
▁declaración	-10.1302
▁usado	-10.1306
▁dibuja	-10.1306
▁teatro	-10.131
▁estudia	-10.1312
▁japón	-10.1312
▁escuelas	-10.1314
icos	-10.1315
▁facilita	-10.1331
▁cruza	-10.1334
dd	-10.1339
▁externa	-10.1341
▁epi	-10.1345
▁silencio	-10.1354
▁conocimientos	-10.1357
▁depósito	-10.1361
jan	-10.1363
fusión	-10.1364
habilita	-10.1371
gráfico	-10.1371
▁francés	-10.1371
▁instrumentos	-10.1374
▁actitud	-10.1378
mpi	-10.1378
▁restaurantes	-10.1379
▁colaboración	-10.138
▁externo	-10.1382
ducción	-10.1389
pm	-10.139
▁ml	-10.1392
und	-10.1407
▁moral	-10.1409
▁servir	-10.1413
mia	-10.1413
tch	-10.1414
ther	-10.1417
psi	-10.1423
▁dedica	-10.1424
▁cena	-10.1427
▁significado	-10.1433
▁aprecia	-10.1437
▁is	-10.1443
▁recibe	-10.1444
▁wo	-10.1448
▁pudo	-10.1449
venta	-10.145
itaria	-10.1451
▁juicio	-10.1454
jes	-10.1456
▁neuro	-10.1459
▁ban	-10.146
▁bla	-10.1463
▁protector	-10.1468
sky	-10.1479
▁recientemente	-10.1489
▁darle	-10.149
▁realizada	-10.1499
mini	-10.1499
▁toque	-10.15
▁informes	-10.1503
▁campos	-10.1503
▁sencilla	-10.1511
▁hermano	-10.1512
▁receta	-10.1512
▁salva	-10.152
▁frontera	-10.1521
fil	-10.1528
arios	-10.1529
sivos	-10.1532
▁agente	-10.1533
▁separado	-10.1534
▁tercero	-10.1535
▁empe	-10.1535
▁hermana	-10.1536
▁eficiencia	-10.1536
▁eco	-10.1536
▁inclu	-10.1537
▁formula	-10.1544
▁recuerda	-10.155
▁escritura	-10.1553
▁ambiental	-10.1553
▁corona	-10.1556
tex	-10.1561
ight	-10.1565
▁cobertura	-10.1569
▁deportivo	-10.1573
mino	-10.1576
▁mercados	-10.1576
lf	-10.1576
▁primavera	-10.1577
sí	-10.1581
▁ejecutivo	-10.1583
▁actualidad	-10.1596
itis	-10.1597
▁estrategias	-10.1599
▁air	-10.1601
▁evita	-10.1602
cc	-10.1603
▁pendiente	-10.1609
▁apenas	-10.161
▁ejecuta	-10.1612
▁segundos	-10.1615
ticos	-10.1616
▁investiga	-10.1619
▁acelera	-10.1623
▁colo	-10.1623
mal	-10.1626
zó	-10.1631
▁comienzo	-10.1638
▁evolución	-10.164
▁controlador	-10.1645
▁porcentaje	-10.1648
sistir	-10.1649
▁anal	-10.1656
fí	-10.1657
▁mc	-10.1658
▁mg	-10.166
▁pesa	-10.1663
▁op	-10.1663
▁esfuerzos	-10.167
▁continúa	-10.1671
▁probar	-10.1678
▁motiva	-10.1685
▁canales	-10.1685
usd	-10.1685
nk	-10.1685
▁android	-10.1689
▁publica	-10.169
▁horario	-10.1692
form	-10.1692
▁identificación	-10.1694
▁lin	-10.1695
▁ritmo	-10.1696
▁pudiera	-10.1697
▁procesa	-10.1699
vier	-10.1702
▁páginas	-10.1702
▁alcohol	-10.1704
▁daños	-10.1705
▁colegio	-10.171
▁apertura	-10.171
▁películas	-10.1711
▁promo	-10.1717
▁iluminación	-10.1718
▁interesa	-10.1729
▁gratuito	-10.1729
▁límite	-10.173
bil	-10.1734
▁carbono	-10.1735
▁lunes	-10.1736
ix	-10.1738
%)	-10.1739
gb	-10.1741
▁sensación	-10.1749
▁cole	-10.1751
▁cali	-10.1753
▁on	-10.1754
▁brinda	-10.1757
lega	-10.1757
▁desafío	-10.1762
▁fila	-10.1764
inas	-10.1765
grafía	-10.1776
▁»	-10.1785
▁terminal	-10.1793
▁california	-10.1794
▁momentos	-10.1797
▁responder	-10.1798
▁sombra	-10.1801
iéndose	-10.1805
▁parecía	-10.1805
▁tiempos	-10.1805
▁famoso	-10.1808
▁pic	-10.1816
zón	-10.1817
▁invención	-10.1818
ima	-10.1823
gh	-10.1823
▁posibilidades	-10.1824
▁sr	-10.1829
▁empresarial	-10.1843
bus	-10.1847
▁prevención	-10.1849
tracción	-10.186
▁diálogo	-10.186
▁llevó	-10.1862
▁ste	-10.1862
grada	-10.1863
vesti	-10.1869
▁vela	-10.1871
▁errores	-10.1878
rito	-10.188
▁regiones	-10.1881
▁inoxidable	-10.1888
▁tecnologías	-10.1892
▁star	-10.19
▁terraza	-10.1902
▁nieve	-10.1903
▁vacío	-10.1904
▁prohibi	-10.1905
▁altos	-10.1909
▁profundidad	-10.191
▁cuentas	-10.1911
▁dra	-10.1912
tante	-10.1913
▁recordar	-10.1915
▁grave	-10.1917
ak	-10.1922
▁altera	-10.1923
▁individuales	-10.1927
▁curva	-10.1927
lip	-10.1932
▁conducta	-10.1933
▁llegada	-10.1938
ej	-10.1942
▁mirada	-10.1944
▁ciudadanos	-10.1945
mita	-10.1947
▁guardar	-10.1951
oc	-10.1952
▁caída	-10.1957
▁rama	-10.1958
▁peor	-10.1965
▁rusia	-10.1974
▁comodidad	-10.1976
▁equi	-10.1979
▁francisco	-10.1985
▁insu	-10.199
▁pila	-10.1992
ías	-10.1994
▁estimula	-10.1996
▁abogado	-10.2002
▁tribu	-10.2004
volu	-10.2005
▁acusa	-10.2005
▁espalda	-10.2007
▁educativo	-10.2008
ard	-10.2019
▁automático	-10.202
▁ejemplos	-10.2023
ü	-10.2023
▁alarma	-10.2025
▁composición	-10.2026
▁artista	-10.2031
▁colocar	-10.2032
mado	-10.2035
▁precisión	-10.2037
▁incluida	-10.2041
▁operativo	-10.2045
▁mascota	-10.2057
▁correctamente	-10.2057
dre	-10.2058
▁ángulo	-10.206
cara	-10.206
▁números	-10.2061
▁contribuye	-10.2066
ión	-10.2067
▁interfaz	-10.2077
▁rica	-10.2081
▁encuesta	-10.2089
▁entidad	-10.2094
fica	-10.2097
▁bola	-10.2099
▁define	-10.2103
poli	-10.2107
plica	-10.2107
▁pata	-10.2109
▁comando	-10.2109
iera	-10.211
▁juguetes	-10.2123
▁modifica	-10.2124
▁chu	-10.2127
ñi	-10.2128
▁suerte	-10.213
▁aprendi	-10.2133
▁reca	-10.2136
▁tengan	-10.2137
tha	-10.214
▁exclu	-10.2142
▁app	-10.2142
nic	-10.2143
pli	-10.215
tales	-10.2164
ah	-10.2171
▁metro	-10.2175
▁división	-10.2175
▁comprender	-10.2177
▁califica	-10.2179
▁aventura	-10.2182
▁vitamina	-10.2185
for	-10.2185
▁cooperación	-10.2193
ños	-10.2197
▁intercambio	-10.2198
▁ku	-10.2199
▁roda	-10.2199
▁sectores	-10.2202
▁firme	-10.2204
cuáles	-10.2204
▁administra	-10.2207
▁públicos	-10.2214
ning	-10.2214
forza	-10.2216
▁elabora	-10.2219
todo	-10.2222
▁camisa	-10.2222
▁parámetros	-10.2224
▁divertido	-10.2225
parte	-10.2226
▁pantalones	-10.2229
▁instrumento	-10.2229
▁sábado	-10.223
iano	-10.223
▁pulsa	-10.2232
▁hierro	-10.2232
▁secreto	-10.2241
▁cirugía	-10.2248
ity	-10.2253
tú	-10.226
▁congreso	-10.2261
▁paseo	-10.2263
▁examen	-10.2274
ificado	-10.2275
▁promover	-10.2275
▁fenómeno	-10.2277
▁casas	-10.2283
▁química	-10.2285
▁moto	-10.2301
▁partida	-10.2303
vivi	-10.2307
▁fórmula	-10.2307
▁distribu	-10.231
rup	-10.231
▁cálculo	-10.2313
kin	-10.2314
tismo	-10.2316
part	-10.2319
▁sólido	-10.232
▁evaluar	-10.2325
▁utilización	-10.2333
▁planea	-10.2335
▁enemigo	-10.2337
▁llegado	-10.2339
▁recorrido	-10.2341
▁ue	-10.2341
▁receptor	-10.2345
▁gráfico	-10.2345
▁naranja	-10.2348
▁formulario	-10.2351
iste	-10.2354
▁ib	-10.2356
gina	-10.2357
▁avanza	-10.2359
▁equilibrio	-10.2376
ii	-10.2381
▁vaso	-10.2395
mul	-10.2399
▁caza	-10.24
▁promoción	-10.2401
▁beneficio	-10.2405
▁reina	-10.2409
▁templo	-10.2409
▁integrado	-10.2412
▁examina	-10.2412
▁pulse	-10.2416
mont	-10.2416
▁falla	-10.2417
▁integración	-10.2418
▁ducha	-10.2424
▁sostenible	-10.2426
▁cuadrado	-10.2429
▁acord	-10.2432
dina	-10.2435
▁graba	-10.2442
▁administrador	-10.2442
gió	-10.2444
way	-10.2446
▁impulsa	-10.2449
▁iphone	-10.2451
▁mus	-10.2451
uma	-10.2451
lic	-10.2454
▁soldado	-10.246
▁criterios	-10.246
▁vintage	-10.2461
▁perú	-10.2462
▁golf	-10.2465
▁té	-10.2465
▁innovación	-10.2469
▁asesor	-10.2471
▁mat	-10.2475
▁ó	-10.2476
▁hicieron	-10.2477
pone	-10.2479
▁lavado	-10.2479
más	-10.2479
▁canción	-10.2481
▁delante	-10.2482
▁permita	-10.2483
illas	-10.2486
▁trastorno	-10.2488
▁públicas	-10.2489
<	-10.2493
▁australia	-10.2494
▁transporta	-10.2497
▁crema	-10.2499
▁relacionadas	-10.25
ray	-10.2508
▁actualiza	-10.2508
▁vectores	-10.2511
▁tru	-10.2511
▁plena	-10.2512
▁mismas	-10.2513
mil	-10.2516
media	-10.2517
▁ustedes	-10.2522
▁borra	-10.2525
ponga	-10.2525
▁papa	-10.2532
▁propias	-10.2541
nada	-10.2544
ciendo	-10.2547
▁profundo	-10.2548
▁obtiene	-10.2549
▁publicación	-10.2554
rk	-10.2558
▁dientes	-10.256
dé	-10.2566
▁proveedor	-10.2567
▁bus	-10.2568
ñ	-10.2577
▁dicen	-10.2579
▁mover	-10.258
pt	-10.2583
▁frase	-10.2583
isa	-10.2589
▁quieren	-10.2591
▁ligero	-10.2592
▁escritorio	-10.2595
▁actualización	-10.2595
izó	-10.2597
▁roca	-10.2598
▁penal	-10.2599
ecto	-10.2604
▁perdido	-10.2607
▁cumpli	-10.2608
▁ataca	-10.2609
▁occidental	-10.2612
▁queremos	-10.2614
▁parcial	-10.2614
▁viola	-10.2622
▁http	-10.2624
▁culpa	-10.2626
▁hierba	-10.2633
▁separa	-10.2634
▁optimiza	-10.264
▁sar	-10.2641
▁ventajas	-10.2641
▁cerrar	-10.2641
▁viajes	-10.2642
dico	-10.2642
▁aleja	-10.2642
▁únicamente	-10.2643
uela	-10.2644
▁prima	-10.2654
▁sacar	-10.2654
pina	-10.2656
▁talla	-10.2657
ford	-10.2659
▁pasó	-10.2665
▁acabado	-10.2666
▁descubrir	-10.2666
ciente	-10.267
▁neu	-10.2679
▁pescado	-10.2679
▁otoño	-10.2681
▁recién	-10.269
▁característica	-10.2694
▁titular	-10.2696
▁experiencias	-10.2698
▁cur	-10.2699
▁impresionante	-10.2704
terra	-10.2709
▁concentración	-10.2711
▁deportes	-10.2713
tieron	-10.2714
▁pá	-10.2716
▁evalua	-10.2717
▁llamar	-10.2719
▁she	-10.2719
venir	-10.2722
▁apaga	-10.2726
▁electrónica	-10.2727
vid	-10.2732
▁colonia	-10.2734
ep	-10.2741
▁círculo	-10.2742
▁medición	-10.2743
fund	-10.2745
▁uniforme	-10.2745
▁bienestar	-10.275
▁aguas	-10.2751
tric	-10.2758
▁protocolo	-10.2764
▁complementa	-10.2766
▁sustancia	-10.277
▁interruptor	-10.2773
▁siguen	-10.2775
gráfica	-10.2776
bó	-10.2777
marca	-10.2777
bie	-10.2778
cier	-10.278
má	-10.2783
▁david	-10.2786
lares	-10.2788
▁considerado	-10.2788
▁castillo	-10.2798
▁extensión	-10.2799
▁fabrica	-10.2799
▁realizan	-10.2799
mio	-10.28
▁construc	-10.28
foto	-10.2804
▁seleccionado	-10.2807
▁rock	-10.2808
▁pedro	-10.2813
▁realizó	-10.2816
▁apunta	-10.282
▁automática	-10.2821
▁consulte	-10.2822
▁primaria	-10.2822
▁dimensiones	-10.2828
▁secundaria	-10.2828
▁pertenece	-10.2831
▁propone	-10.2845
▁ojo	-10.2849
▁tarifa	-10.2851
▁vapor	-10.2851
timo	-10.2853
▁shi	-10.2853
güe	-10.2854
▁discu	-10.2857
▁intervención	-10.2857
▁denuncia	-10.2863
▁empa	-10.2864
▁preparado	-10.2864
▁vibra	-10.2864
▁músculo	-10.2864
▁voluntad	-10.2864
▁cartel	-10.2865
▁lector	-10.2867
▁dispuesto	-10.2869
▁categorías	-10.2876
ientes	-10.2878
▁ciencias	-10.288
▁renta	-10.2884
▁institución	-10.2885
▁intento	-10.2885
▁corea	-10.2889
▁finaliza	-10.2891
ículo	-10.2891
▁concreto	-10.2892
▁urbano	-10.2893
▁definir	-10.2901
star	-10.2901
▁gre	-10.2902
▁impu	-10.2908
▁pega	-10.2913
▁sexy	-10.2915
▁imposible	-10.2915
!!!	-10.2917
taria	-10.2918
▁soporta	-10.2919
▁edificios	-10.2922
▁judicial	-10.2924
▁investigadores	-10.2926
▁id	-10.2926
▁previa	-10.2928
▁cercano	-10.2928
▁ingresa	-10.2929
▁perros	-10.2932
▁halla	-10.2933
plan	-10.2938
adores	-10.2939
fig	-10.2945
▁flexible	-10.2946
▁llevan	-10.2946
▁preparar	-10.2948
▁analizar	-10.2948
▁diámetro	-10.2949
▁introducción	-10.2952
▁tradicionales	-10.2954
▁algodón	-10.297
etas	-10.297
▁conector	-10.2972
▁necesarios	-10.2982
▁cómodo	-10.2984
▁lesiones	-10.2988
▁terapia	-10.299
▁marina	-10.2991
▁selecciona	-10.2998
gg	-10.2999
▁mando	-10.3001
fico	-10.3005
tando	-10.3005
▁respuestas	-10.3009
▁fundación	-10.301
ola	-10.3011
▁clip	-10.3013
▁ram	-10.3014
▁semi	-10.3016
▁docente	-10.3021
▁nombres	-10.3026
▁terminar	-10.3027
▁tiro	-10.3027
tia	-10.3028
▁acondicionado	-10.303
▁www	-10.3032
▁€	-10.3032
▁sabemos	-10.3034
gin	-10.3034
cionales	-10.3039
▁actuales	-10.3039
▁respeto	-10.3041
▁ec	-10.3042
▁malo	-10.3045
nova	-10.3049
▁gla	-10.3053
gén	-10.3056
▁personalizado	-10.3057
▁conectado	-10.306
▁posteriormente	-10.3063
cidas	-10.3064
posit	-10.3066
▁bella	-10.3068
▁rostro	-10.3072
▁mur	-10.3072
ticas	-10.3075
flu	-10.3085
▁empieza	-10.3087
▁negativo	-10.3087
▁movimientos	-10.3087
▁kilómetros	-10.3089
pin	-10.309
▁ventaja	-10.3091
▁planificación	-10.3091
▁matrimonio	-10.3092
▁operador	-10.3093
▁recibió	-10.3094
▁artes	-10.3095
▁marketing	-10.3097
▁facilitar	-10.3102
▁seguros	-10.3103
▁blog	-10.3106
▁designa	-10.3109
ee	-10.3116
▁bon	-10.3123
ier	-10.3127
▁especialista	-10.3129
▁presentado	-10.313
▁hol	-10.3132
▁convirtió	-10.3135
lice	-10.3136
ture	-10.3139
mán	-10.3141
izados	-10.3142
▁componente	-10.3145
▁iso	-10.3153
nera	-10.3154
▁juguete	-10.3154
ñó	-10.3156
▁permiso	-10.3161
▁claramente	-10.3162
espera	-10.3162
iana	-10.3165
▁molde	-10.3166
ual	-10.3169
▁hielo	-10.3169
▁hombro	-10.3171
itud	-10.3175
▁parís	-10.3177
▁reemplaza	-10.3178
▁requieren	-10.318
idez	-10.3185
tim	-10.3187
▁antonio	-10.3188
!!	-10.3192
▁evidente	-10.3194
▁empleado	-10.3195
▁prioridad	-10.3196
▁límites	-10.3197
▁suministra	-10.3198
ifique	-10.32
▁flota	-10.3201
▁cel	-10.3209
▁rela	-10.3211
quilla	-10.3218
▁emp	-10.3219
dencia	-10.3222
▁inmediato	-10.3231
▁estadística	-10.3232
age	-10.3236
▁procede	-10.3236
▁ocasión	-10.3239
▁agrícola	-10.3241
prim	-10.3241
▁cuestiones	-10.3242
▁histórica	-10.3244
▁dependiendo	-10.3254
▁defecto	-10.3257
▁exactamente	-10.326
▁incremento	-10.3265
pí	-10.3266
xo	-10.3266
▁encontrará	-10.3267
▁hola	-10.3268
▁apoyar	-10.3269
▁echa	-10.3281
▁tornillo	-10.3284
▁palacio	-10.3286
tividad	-10.3292
▁tatuaje	-10.3295
activo	-10.3295
▁amar	-10.33
▁adver	-10.3302
▁máscara	-10.3309
▁ruedas	-10.3312
fini	-10.3313
▁suele	-10.332
▁dando	-10.3329
pal	-10.3329
▁favorito	-10.333
▁políticos	-10.3334
uelo	-10.3335
▁impuestos	-10.3351
▁reconoce	-10.3353
▁elevado	-10.3357
▁tour	-10.3358
mato	-10.3364
▁pastel	-10.3364
ibles	-10.3365
▁temp	-10.3366
▁ajustar	-10.3367
▁abs	-10.337
▁consciente	-10.3389
▁indígena	-10.3391
▁publicidad	-10.3392
key	-10.3395
lt	-10.3397
ótico	-10.3406
▁régimen	-10.3408
tiza	-10.3412
▁iv	-10.3413
▁ze	-10.3413
▁letras	-10.3426
▁dejó	-10.3426
tru	-10.3432
▁robot	-10.3439
úl	-10.3441
guard	-10.3448
▁prevenir	-10.345
▁esquema	-10.3451
▁clasificación	-10.3459
▁máquinas	-10.3464
▁compras	-10.3468
▁host	-10.348
▁descuento	-10.3486
▁implementación	-10.3489
▁facebook	-10.3492
▁aceptar	-10.3497
▁obliga	-10.35
▁viven	-10.3502
rías	-10.3507
▁respeta	-10.3508
▁siquiera	-10.3509
▁representación	-10.351
▁constituye	-10.3511
▁cerrado	-10.3514
▁sch	-10.3514
nero	-10.3515
genera	-10.3517
▁quizás	-10.3518
▁préstamo	-10.3519
▁paredes	-10.3521
▁reuniones	-10.3522
▁móviles	-10.3523
▁recuperar	-10.3526
▁capacitación	-10.3526
▁sede	-10.3531
plo	-10.3533
▁aquella	-10.3539
▁vital	-10.3539
▁ger	-10.3543
▁ilustraciones	-10.3543
▁infección	-10.3544
▁ingredientes	-10.3548
▁llamadas	-10.3548
▁específico	-10.3552
▁pablo	-10.3552
▁relevante	-10.3552
▁investigaciones	-10.3556
uri	-10.3564
gli	-10.3565
▁atractivo	-10.3566
▁brazo	-10.3572
▁seres	-10.3573
▁cristiano	-10.3576
▁cent	-10.3577
▁instala	-10.3577
▁espejo	-10.3582
▁carpeta	-10.3585
▁obtenido	-10.3587
▁precisa	-10.3588
▁notas	-10.359
▁lindo	-10.3594
▁humedad	-10.3595
mentos	-10.3595
▁vieja	-10.3598
▁impresora	-10.3604
▁lanzamiento	-10.3609
izo	-10.3612
▁anda	-10.3615
▁cancela	-10.3615
▁ubica	-10.362
tología	-10.3626
▁relativa	-10.3627
▁logotipo	-10.3627
▁frutas	-10.3628
▁tap	-10.3633
▁consejos	-10.3635
▁oficiales	-10.3639
▁canta	-10.3639
▁orgullo	-10.364
▁universo	-10.364
fin	-10.3643
▁incluidos	-10.3646
▁sujeta	-10.3649
▁causar	-10.365
tter	-10.3651
▁terror	-10.3652
▁agricultura	-10.3653
▁contenidos	-10.3653
lógica	-10.3656
▁deberán	-10.3657
▁disciplina	-10.3662
tho	-10.3664
▁retira	-10.3669
cam	-10.3672
▁ingeniería	-10.3675
▁ahorro	-10.3675
taba	-10.3676
▁episodio	-10.3679
▁selec	-10.3682
▁park	-10.3686
▁calles	-10.3689
▁compensa	-10.3698
▁organismo	-10.3698
▁aspira	-10.3699
▁secundario	-10.3707
▁oculta	-10.3708
neo	-10.3713
▁grados	-10.3714
▁observar	-10.3716
▁líderes	-10.3717
ril	-10.3718
▁guardia	-10.3719
my	-10.3721
▁canadá	-10.3721
▁profe	-10.3725
▁candidato	-10.3726
diente	-10.3726
rosa	-10.3733
▁innovador	-10.3739
ferencia	-10.3741
sio	-10.3742
▁reales	-10.3747
▁jornada	-10.3749
▁específicos	-10.375
▁avión	-10.3752
▁signo	-10.3753
▁áfrica	-10.3754
▁circunstancias	-10.3755
▁señora	-10.3759
just	-10.3762
▁humanidad	-10.3762
▁mecanismo	-10.3767
▁artificial	-10.3768
▁limpio	-10.377
▁sentado	-10.3774
▁financieros	-10.3775
mí	-10.3777
▁ciertos	-10.3784
▁formar	-10.3785
▁gustaría	-10.3787
▁ayer	-10.3788
▁iii	-10.3796
▁inglaterra	-10.3798
ómetro	-10.3801
▁hueso	-10.3804
ney	-10.3806
▁public	-10.3807
▁comenta	-10.3808
▁consecuencias	-10.3814
▁trasera	-10.3817
cuadr	-10.3822
▁debate	-10.3822
▁compañías	-10.3825
▁here	-10.3826
lc	-10.3828
▁embarazo	-10.3833
▁bajos	-10.3836
rita	-10.3837
anti	-10.3837
▁tanque	-10.3839
▁viajar	-10.3841
▁solicitar	-10.3842
▁simula	-10.385
▁neo	-10.3858
▁dificultades	-10.3859
▁entidades	-10.386
▁recepción	-10.3862
▁individuos	-10.387
▁correa	-10.3875
▁núcleo	-10.3875
▁personalidad	-10.3875
▁vende	-10.3883
▁reglamento	-10.3883
▁pueblos	-10.3884
▁carro	-10.3885
▁comprende	-10.3885
tral	-10.3888
▁microsoft	-10.3889
▁explicar	-10.3889
ciencia	-10.3889
▁emocional	-10.389
▁patrimonio	-10.3894
▁vestidos	-10.3896
▁previo	-10.3899
▁pecho	-10.3899
hor	-10.3903
▁estancia	-10.3904
▁piloto	-10.3904
▁cobra	-10.3912
▁compañeros	-10.3914
▁populares	-10.3914
▁convertirse	-10.3915
▁álbum	-10.3915
▁novia	-10.3917
ile	-10.392
▁organizado	-10.3926
▁recon	-10.3929
▁recibi	-10.3931
▁negativa	-10.3932
▁comprobar	-10.3936
▁alemán	-10.3936
▁fuertes	-10.3936
▁actuar	-10.3936
▁pegatina	-10.394
ist	-10.3941
▁partidos	-10.3942
▁horno	-10.3942
▁pun	-10.3944
▁producido	-10.3945
▁instancia	-10.3952
tive	-10.3961
ced	-10.3962
▁inteligencia	-10.3965
▁supera	-10.397
▁muebles	-10.3971
▁asia	-10.3972
▁paul	-10.3972
▁puso	-10.3973
▁perfectamente	-10.3982
▁registros	-10.3983
▁señales	-10.3984
▁kg	-10.3986
▁enrique	-10.3987
▁compu	-10.3988
^	-10.3996
▁juega	-10.3998
bb	-10.4005
▁conveniente	-10.4009
▁hiper	-10.4011
▁war	-10.4011
▁onda	-10.4012
▁mirando	-10.4013
▁latina	-10.4016
▁determinada	-10.4021
▁descon	-10.4022
iva	-10.4026
▁pretende	-10.4031
▁quedar	-10.4034
▁debía	-10.4038
▁casco	-10.4038
▁presentes	-10.4039
▁variable	-10.404
▁usan	-10.4041
▁prote	-10.4042
▁avanzada	-10.4042
mada	-10.4043
▁víctimas	-10.4045
▁ganado	-10.4045
▁triste	-10.4052
▁hermanos	-10.4052
yan	-10.4055
▁artistas	-10.4058
▁estudiar	-10.4058
▁audiencia	-10.4058
▁nacimiento	-10.406
lín	-10.406
▁eficacia	-10.4064
▁formal	-10.4071
▁teclado	-10.4071
▁interesado	-10.4076
▁hayan	-10.4077
▁fruta	-10.4082
▁residuos	-10.4083
ini	-10.4083
▁chocolate	-10.4093
▁intentar	-10.4099
▁unidas	-10.4102
▁seguido	-10.4105
▁bebidas	-10.4113
tería	-10.4114
▁visitantes	-10.4115
▁zi	-10.4116
▁amiga	-10.4121
▁asuntos	-10.4121
▁cuál	-10.4122
▁demostr	-10.4126
▁conforme	-10.4128
▁plana	-10.413
▁consumidores	-10.4134
▁autobús	-10.4134
▁sello	-10.4138
▁señaló	-10.4142
▁miguel	-10.4148
cieron	-10.4153
ibilidad	-10.4154
▁últimas	-10.4156
▁necesarias	-10.4158
activa	-10.416
▁limitada	-10.4161
▁discurso	-10.4163
▁combate	-10.4164
▁progreso	-10.4164
▁pocas	-10.4166
▁asegúrese	-10.4173
▁nacido	-10.4173
color	-10.4178
▁intención	-10.4183
▁ingreso	-10.4185
▁videos	-10.4188
cept	-10.4189
▁justifica	-10.419
▁configurar	-10.4192
dez	-10.4192
▁crítico	-10.4201
métrica	-10.4201
▁patio	-10.4204
▁hilo	-10.4207
▁compren	-10.4211
▁capacidades	-10.4211
▁elaboración	-10.4212
▁reproducción	-10.422
▁esquina	-10.4225
ilu	-10.4235
▁deuda	-10.4242
▁construido	-10.4243
▁cero	-10.4244
ell	-10.4246
▁rueda	-10.4246
▁científica	-10.4248
▁mancha	-10.425
▁torno	-10.4252
▁tam	-10.4252
gran	-10.4253
▁aprovecha	-10.4254
▁fruto	-10.4254
▁muñeca	-10.4257
▁brazos	-10.4259
▁culturales	-10.426
ístico	-10.4261
▁asunto	-10.4265
▁hablando	-10.4269
▁drogas	-10.4272
▁libra	-10.4286
▁letra	-10.4286
▁my	-10.4287
▁inversiones	-10.4287
uso	-10.429
▁aves	-10.4293
▁limpiar	-10.4293
▁contraseña	-10.4295
▁canciones	-10.4301
cilia	-10.4304
▁gesto	-10.4305
▁vota	-10.4307
▁domina	-10.4307
▁nuevamente	-10.431
▁pide	-10.4311
▁probabilidad	-10.4312
cero	-10.4313
▁play	-10.4317
▁estrés	-10.4319
llar	-10.432
gencia	-10.4321
▁dicta	-10.433
▁talento	-10.4335
▁institucional	-10.4337
▁fui	-10.4337
▁produc	-10.4343
▁habitantes	-10.4346
leo	-10.4346
▁vegetal	-10.4347
▁corporal	-10.4348
▁dormir	-10.4348
▁ganancia	-10.4352
▁ciertas	-10.4357
berg	-10.4358
▁vacuna	-10.4361
bina	-10.4362
▁poca	-10.4363
▁legisla	-10.4371
▁factura	-10.4371
▁autores	-10.4372
▁iconos	-10.4377
▁voto	-10.4379
▁indu	-10.438
dge	-10.4384
▁ajustes	-10.4385
set	-10.4385
▁espero	-10.4387
▁atra	-10.4395
▁aparecen	-10.4402
▁bloqueo	-10.4402
▁oeste	-10.4404
▁demostrar	-10.4404
▁gradua	-10.4405
▁aquellas	-10.4405
▁permitirá	-10.4409
▁nueve	-10.441
▁educativa	-10.441
▁llevado	-10.4411
▁zu	-10.4414
roso	-10.4414
▁wil	-10.4415
▁contienen	-10.4415
▁barato	-10.4416
▁científicos	-10.4424
lly	-10.4426
▁quedó	-10.4427
▁escalera	-10.4428
▁home	-10.4429
▁mani	-10.4431
▁oral	-10.4436
▁insta	-10.4442
▁reclama	-10.4445
llen	-10.4447
grado	-10.4458
▁suelen	-10.4467
▁logro	-10.4467
▁frontal	-10.447
▁gafas	-10.4471
▁collar	-10.4471
▁consolida	-10.4471
´	-10.4473
▁particularmente	-10.4473
▁conservación	-10.4475
▁facultad	-10.448
▁filtra	-10.448
▁traducción	-10.4482
▁plato	-10.4489
▁mexicano	-10.4494
▁presione	-10.45
▁horizontal	-10.45
▁enseña	-10.4501
▁utilidad	-10.4501
blan	-10.4502
▁sor	-10.4503
▁facilidad	-10.4504
▁compre	-10.4504
▁graves	-10.4507
▁raza	-10.4509
▁recurso	-10.451
▁mínima	-10.4518
bert	-10.4522
▁capaces	-10.4522
▁chaqueta	-10.4523
▁reconocer	-10.4527
▁recomendaciones	-10.4544
tuvieron	-10.4545
▁indicador	-10.4546
tadas	-10.4546
óxido	-10.4548
▁estabilidad	-10.4549
▁bloquea	-10.455
▁concreta	-10.4551
ulo	-10.4558
ob	-10.4559
▁americano	-10.4559
▁habita	-10.4559
▁sho	-10.456
▁ejecutar	-10.4563
▁reporta	-10.4564
ática	-10.4566
▁ira	-10.4577
px	-10.4587
▁existentes	-10.4592
▁pelea	-10.4593
pia	-10.4595
▁mata	-10.4597
▁up	-10.4599
▁siento	-10.4602
▁instalado	-10.4604
▁encarga	-10.461
▁aérea	-10.4612
▁tradición	-10.4617
▁seco	-10.462
▁abu	-10.4622
▁cuentan	-10.4626
▁desempeño	-10.4626
espec	-10.4629
▁entendi	-10.4632
▁hipo	-10.4633
tones	-10.4633
▁manipula	-10.4636
▁limitado	-10.4637
▁utilizados	-10.4638
▁variables	-10.464
▁secretario	-10.4642
▁comprensión	-10.4643
▁asamblea	-10.4646
▁espectáculo	-10.4646
▁permane	-10.4647
flex	-10.4649
▁pecado	-10.4651
▁bonito	-10.4652
ire	-10.4653
▁intra	-10.4654
▁marrón	-10.4654
clo	-10.4655
▁nº	-10.4657
▁semillas	-10.4657
▁siga	-10.4658
gle	-10.466
▁asistente	-10.4662
dela	-10.4663
▁apple	-10.4665
▁presiona	-10.4672
▁deportiva	-10.4674
▁cursos	-10.4677
lú	-10.4682
pila	-10.4682
ína	-10.4682
tc	-10.4683
▁bolsillo	-10.4688
cp	-10.469
spec	-10.4691
▁enfoca	-10.4691
▁jueves	-10.4699
▁reparación	-10.4699
▁cc	-10.4699
▁italiano	-10.4705
▁oído	-10.4705
▁doce	-10.4708
▁cerveza	-10.4709
▁sombrero	-10.4713
▁demuestra	-10.4713
bc	-10.4713
▁remoto	-10.4715
▁aviso	-10.4718
▁restaura	-10.473
▁viaja	-10.4731
▁goberna	-10.4733
real	-10.4749
cú	-10.475
▁específica	-10.4751
▁nación	-10.4765
▁ilustra	-10.4766
▁sensible	-10.4767
▁lámina	-10.4771
nato	-10.4771
▁dinámica	-10.4772
educa	-10.4777
▁significativo	-10.4783
bit	-10.4783
quisi	-10.4784
▁pobreza	-10.4784
▁concierto	-10.4788
tm	-10.4789
eccion	-10.479
▁permanece	-10.4793
▁detección	-10.4794
▁misterio	-10.4796
▁explora	-10.4796
▁encontramos	-10.4809
pc	-10.481
▁encontró	-10.4811
dita	-10.4811
▁representan	-10.4826
▁kar	-10.4829
▁completar	-10.4833
▁condena	-10.4843
▁disponibilidad	-10.4844
▁directiva	-10.4846
▁vaca	-10.4853
▁visible	-10.4854
▁sugiere	-10.4855
▁narra	-10.4858
ándolo	-10.4861
está	-10.4861
▁resu	-10.4862
hay	-10.4864
▁calendario	-10.4869
▁cantidades	-10.4872
▁entera	-10.4877
▁intelectual	-10.4878
▁lente	-10.4886
▁baile	-10.4886
▁león	-10.4888
▁técnicos	-10.4891
▁diseñada	-10.4892
▁ausencia	-10.4899
vía	-10.4901
ª	-10.4903
▁revolución	-10.4904
dilla	-10.4908
▁específicas	-10.4911
▁proce	-10.4911
▁volvió	-10.4913
▁sustancias	-10.4919
mpo	-10.4923
▁añade	-10.4927
cuándo	-10.4931
▁cómoda	-10.4933
▁acer	-10.4934
▁diver	-10.4937
▁contempla	-10.4937
▁prolonga	-10.4938
▁euro	-10.4939
top	-10.495
explo	-10.4952
“	-10.4953
▁constitución	-10.4953
▁programación	-10.4958
▁orientación	-10.496
▁balance	-10.4961
▁alguno	-10.4969
▁versiones	-10.4972
▁vender	-10.4973
bé	-10.4975
▁islas	-10.4976
cultura	-10.4978
▁gol	-10.4987
▁cubierto	-10.4994
▁opiniones	-10.4995
▁gigante	-10.4998
ian	-10.4999
nch	-10.4999
▁motores	-10.5
▁funcionarios	-10.5005
dh	-10.5005
▁demostrado	-10.5012
▁intensidad	-10.5013
rum	-10.5014
▁traslada	-10.5016
▁elegido	-10.5017
▁relaciona	-10.5017
▁xx	-10.5023
▁diversidad	-10.5024
▁cubre	-10.5024
▁tendría	-10.503
▁conducir	-10.503
▁case	-10.5032
centr	-10.5034
cil	-10.5036
▁literatura	-10.504
▁creciente	-10.5041
▁producen	-10.5042
▁regalos	-10.5043
place	-10.5044
▁controles	-10.5049
▁interpretación	-10.505
▁manuel	-10.5051
▁brillo	-10.5057
▁cubrir	-10.5059
▁consigue	-10.5067
▁encuentre	-10.5068
▁palma	-10.507
▁amante	-10.507
▁podrás	-10.5075
quién	-10.5076
▁cuerda	-10.5079
▁llegan	-10.5081
▁sc	-10.5082
▁estándares	-10.5083
tible	-10.5086
▁dirigido	-10.5092
ctu	-10.5098
rista	-10.51
▁montañas	-10.5101
▁palo	-10.5102
▁adolescentes	-10.5103
▁impulso	-10.5104
▁proporcionan	-10.5104
▁responde	-10.5106
▁quitar	-10.5109
▁pel	-10.5116
▁deberían	-10.5117
▁cala	-10.5118
▁amable	-10.5119
cada	-10.512
llu	-10.5121
book	-10.5124
▁aproxima	-10.5133
▁diseñador	-10.5136
osos	-10.5137
▁individuo	-10.5138
▁etiquetas	-10.514
entre	-10.5142
condiciona	-10.5146
▁explicó	-10.5148
▁estrecha	-10.5149
▁ocasiona	-10.515
▁ejecu	-10.5156
▁robert	-10.516
▁socios	-10.5166
vul	-10.5167
▁respon	-10.5167
▁vecinos	-10.5172
oides	-10.5173
▁trabajador	-10.5174
▁	-10.5176
ik	-10.5178
▁modificar	-10.5182
▁obten	-10.5185
▁responsables	-10.5187
puesto	-10.5192
pac	-10.52
▁ofertas	-10.5204
▁permi	-10.5206
▁adaptador	-10.5207
▁básicos	-10.5207
▁eliminación	-10.5209
▁adulto	-10.5211
off	-10.5211
[	-10.5213
▁reconocido	-10.5214
▁gerente	-10.5219
▁preciso	-10.5224
ngu	-10.5232
▁procesamiento	-10.5234
▁juez	-10.5235
▁detecta	-10.5235
▁empresario	-10.5238
americano	-10.5239
▁notifica	-10.524
▁mirar	-10.5241
▁querido	-10.5244
▁saca	-10.5244
chó	-10.5252
▁mamá	-10.5259
piece	-10.5263
▁sali	-10.5263
▁funcional	-10.5264
▁conexiones	-10.5266
▁registrado	-10.5267
▁asociados	-10.5269
juga	-10.5274
▁inci	-10.5278
pico	-10.5279
▁financiero	-10.5281
▁dará	-10.5285
▁parecer	-10.5288
▁periódico	-10.5301
▁tome	-10.5308
▁razonable	-10.5309
▁ayudará	-10.5311
▁santiago	-10.532
▁vienen	-10.5325
}	-10.533
▁show	-10.5332
▁botones	-10.5332
▁exceso	-10.5337
▁rechaza	-10.5338
▁incendio	-10.5338
rru	-10.5339
▁by	-10.5342
▁superiores	-10.5346
▁proteínas	-10.5347
ml	-10.5349
▁freno	-10.5354
creta	-10.5358
▁masaje	-10.536
€	-10.5362
▁piernas	-10.5362
â	-10.5363
▁ambi	-10.5367
▁bolso	-10.5367
▁digitales	-10.5389
▁periodista	-10.5389
▁resi	-10.5391
dula	-10.5404
▁feria	-10.5407
▁subir	-10.5414
▁aplicable	-10.5417
▁apartado	-10.5417
▁transformación	-10.5418
fl	-10.5418
▁actúa	-10.5418
▁film	-10.5418
file	-10.5418
hidrata	-10.542
▁actores	-10.5423
▁congela	-10.5429
ándole	-10.5431
ui	-10.5437
▁tropical	-10.5439
▁comparte	-10.544
tillo	-10.5442
▁angel	-10.5444
▁concurso	-10.5446
▁gráficos	-10.5447
▁preferencia	-10.5449
▁medir	-10.5449
▁hacemos	-10.5451
▁cercana	-10.5451
▁tendrán	-10.5452
▁celebración	-10.5453
miti	-10.5453
▁comunicaciones	-10.5458
▁expansión	-10.5458
▁sonrisa	-10.546
▁pastor	-10.5461
▁cultiva	-10.5461
▁platos	-10.5469
▁mecanismos	-10.5471
▁ninguno	-10.5476
▁juzga	-10.5478
▁pollo	-10.548
▁dispara	-10.5487
▁pala	-10.5487
ducto	-10.5487
lig	-10.5496
▁representantes	-10.5496
▁dedicado	-10.5498
▁sam	-10.5505
py	-10.5505
▁data	-10.5507
▁garcía	-10.5507
▁ido	-10.5511
▁ilumina	-10.5513
repeti	-10.5516
▁globo	-10.5518
cid	-10.552
▁recicla	-10.5522
▁venezuela	-10.5525
▁propuestas	-10.5529
▁placer	-10.553
iro	-10.5531
▁conduce	-10.5531
▁apariencia	-10.5532
▁previsto	-10.5535
▁jack	-10.5535
▁superar	-10.5541
▁segmento	-10.5544
▁black	-10.5552
▁psico	-10.5559
nega	-10.5561
▁goma	-10.5562
▁vinilo	-10.5563
▁patrones	-10.5564
▁potente	-10.5572
tier	-10.5583
▁sentencia	-10.5583
ug	-10.5583
▁hacerse	-10.5586
▁taller	-10.5586
▁huéspedes	-10.5587
▁desplaza	-10.5588
pé	-10.5591
▁felicidad	-10.5599
cón	-10.5603
▁recupera	-10.5608
▁suficientemente	-10.5609
ilo	-10.561
▁herida	-10.5611
▁expone	-10.5611
▁asociada	-10.5612
▁apropiado	-10.5612
▁indicadores	-10.5613
▁ingeniero	-10.5613
ila	-10.5614
▁trabajan	-10.5621
▁extraño	-10.5622
▁representante	-10.5624
▁provee	-10.5627
▁organismos	-10.5631
▁escribió	-10.5634
▁test	-10.564
™	-10.5646
kb	-10.5646
ólico	-10.5648
▁tomando	-10.5649
▁caminar	-10.5654
▁elecciones	-10.5654
▁rob	-10.5655
pot	-10.5657
▁relativamente	-10.5658
▁inclina	-10.5659
▁alerta	-10.5659
ductor	-10.5663
▁localidad	-10.5665
▁envía	-10.5665
▁gel	-10.5671
imiento	-10.5674
▁informó	-10.5674
▁encontraba	-10.5674
introdu	-10.5679
▁altamente	-10.5683
mano	-10.5684
▁tomó	-10.5684
▁martes	-10.569
▁convencional	-10.5698
igi	-10.57
ística	-10.5701
▁ple	-10.5705
▁dhgate	-10.5711
cioso	-10.5712
▁comedor	-10.5713
▁hong	-10.5713
migra	-10.5716
ward	-10.5719
▁intervalo	-10.5723
▁casual	-10.5723
▁agujero	-10.5724
▁coordinación	-10.5726
arte	-10.5726
▁océano	-10.5727
▁tuvieron	-10.5728
ramos	-10.5729
▁documentación	-10.5736
▁mensual	-10.5738
▁caer	-10.574
▁reg	-10.5741
▁vendedor	-10.5744
cker	-10.5751
mple	-10.5751
▁merece	-10.5752
▁fresca	-10.5756
▁residencia	-10.5759
▁femenino	-10.5762
ek	-10.5764
▁novela	-10.5769
vé	-10.5769
▁sy	-10.5775
▁petróleo	-10.5777
▁notable	-10.5779
fici	-10.5783
▁descanso	-10.5784
▁turístico	-10.5784
front	-10.5793
▁básico	-10.5794
▁estadio	-10.5799
▁signos	-10.5805
▁direcciones	-10.581
▁dueño	-10.5813
punt	-10.5819
▁decidió	-10.5822
▁genial	-10.5823
ding	-10.5823
▁ganador	-10.5826
▁presu	-10.583
▁grabado	-10.5831
fc	-10.5833
▁sienta	-10.5844
▁prácticamente	-10.5846
link	-10.5853
▁pico	-10.5858
▁militares	-10.5866
▁alegría	-10.5869
live	-10.5872
▁cuestiona	-10.5876
▁encontr	-10.5876
▁argumento	-10.5882
ish	-10.5883
▁salvador	-10.5883
▁introducir	-10.5885
ótica	-10.5885
▁silueta	-10.5887
▁tiende	-10.5892
▁montón	-10.5893
visor	-10.5895
▁satisfacer	-10.5908
▁lógica	-10.591
▁académico	-10.5922
▁diamante	-10.5922
▁consola	-10.5923
véase	-10.5924
▁espectacular	-10.5925
▁pasada	-10.5926
▁enviado	-10.5931
▁circu	-10.5932
▁bonita	-10.5932
▁antecedentes	-10.5937
▁anime	-10.5939
▁parecen	-10.5941
ident	-10.5947
▁acce	-10.595
▁espacial	-10.5954
▁whi	-10.5955
▁ángel	-10.5957
gente	-10.5957
▁logo	-10.5957
▁ejerce	-10.5959
**	-10.5961
▁ubicada	-10.5962
rial	-10.5964
▁presentó	-10.5964
expres	-10.5967
▁derrota	-10.5969
▁escritor	-10.5977
▁mecánica	-10.5979
▁desempeña	-10.598
▁privacidad	-10.5982
▁hy	-10.5984
▁giro	-10.5991
▁raíz	-10.5994
phi	-10.5997
▁posiciones	-10.5997
▁clínico	-10.6001
work	-10.6004
▁ofrecemos	-10.6004
▁mencionado	-10.6004
▁avanzado	-10.6008
▁ficha	-10.6021
▁consultor	-10.6027
▁habilidad	-10.6029
▁discapacidad	-10.603
ction	-10.6031
▁comprometi	-10.6031
▁equivalente	-10.6033
▁cuento	-10.6039
▁agrupa	-10.6044
▁foro	-10.6045
▁fundamentales	-10.6046
▁virtud	-10.6046
▁mantenga	-10.6048
▁urbana	-10.6048
▁crece	-10.6052
▁fría	-10.6054
▁esenciales	-10.6055
▁legales	-10.6055
▁alianza	-10.6057
▁muscular	-10.6061
▁aparición	-10.6063
▁ken	-10.6066
▁cosecha	-10.6073
▁power	-10.608
▁neg	-10.6085
verso	-10.6087
▁group	-10.6095
unda	-10.6099
▁fallo	-10.61
gico	-10.6102
▁minuto	-10.6107
dijo	-10.6108
▁numerosos	-10.6109
▁reporte	-10.611
▁comen	-10.6113
▁típica	-10.6113
▁convenio	-10.6113
ux	-10.6123
uni	-10.6124
▁legislación	-10.6125
▁guitarra	-10.6128
▁actor	-10.6132
▁independencia	-10.6134
▁publicaciones	-10.6134
▁barrera	-10.6135
▁desee	-10.6136
▁disminuye	-10.6139
▁joyería	-10.614
ille	-10.6142
mber	-10.6144
tín	-10.6145
▁pierde	-10.6147
▁bau	-10.6149
▁imprimir	-10.6152
▁relacionado	-10.6153
inter	-10.6155
▁encendido	-10.6165
▁quizá	-10.6166
▁igualmente	-10.6166
▁ignora	-10.6167
ánico	-10.6167
▁sentimientos	-10.6176
▁clásica	-10.6178
▁dirigida	-10.6179
▁caribe	-10.6184
▁salario	-10.6184
▁pop	-10.6184
▁salta	-10.6194
▁actuación	-10.6195
▁macro	-10.6196
quito	-10.6198
▁disminución	-10.6201
▁maquillaje	-10.6201
▁pasando	-10.6202
▁escribe	-10.6209
▁ángeles	-10.621
▁protege	-10.6213
gun	-10.6215
▁miércoles	-10.6216
▁creativo	-10.622
▁max	-10.6221
▁nave	-10.6233
cripción	-10.6247
▁empezó	-10.6248
▁manejar	-10.6249
▁reproduc	-10.6249
▁crecer	-10.6251
▁maneja	-10.6252
monio	-10.6253
▁elige	-10.6256
figura	-10.626
▁podido	-10.626
▁densidad	-10.6266
▁exteriores	-10.6268
▁incon	-10.6269
▁secretaría	-10.627
▁cuesta	-10.627
▁valencia	-10.6273
▁conclusión	-10.6285
geno	-10.6286
▁excepcional	-10.6288
▁salvo	-10.6289
▁dc	-10.6289
▁industriales	-10.6291
▁terminado	-10.6292
▁filosofía	-10.6294
▁contaminación	-10.6295
▁vemos	-10.6298
▁continuo	-10.6301
▁saben	-10.6302
▁productores	-10.6303
ville	-10.6314
▁nervio	-10.6317
▁automóvil	-10.6317
▁funcionar	-10.6317
▁testigo	-10.6318
▁dise	-10.632
▁dificultad	-10.6321
▁cambiado	-10.6321
▁rutina	-10.6321
▁editor	-10.6325
▁bandeja	-10.6327
▁siguiendo	-10.6333
▁situada	-10.6335
▁verá	-10.6337
▁trasero	-10.634
pino	-10.6341
▁árabe	-10.6342
▁previamente	-10.6345
▁cantante	-10.6346
▁fiel	-10.6349
pio	-10.6351
▁marino	-10.6351
ieran	-10.6355
▁mueve	-10.6359
▁presidencia	-10.636
▁revisa	-10.6362
puede	-10.6362
jero	-10.6363
▁construye	-10.6366
▁adquirir	-10.6369
▁religión	-10.6369
▁recopila	-10.6372
▁éstos	-10.6373
▁huevos	-10.6373
▁olor	-10.6375
▁origina	-10.6378
▁exporta	-10.6381
spir	-10.6386
▁jer	-10.6389
▁satisfacción	-10.6391
▁suspensión	-10.6392
▁ambientales	-10.6393
▁viva	-10.6395
▁ep	-10.64
▁extremadamente	-10.6402
tipo	-10.6405
▁gráfica	-10.6407
▁descubre	-10.6407
▁futura	-10.6415
▁tocar	-10.6415
▁ligera	-10.6417
▁hel	-10.642
▁famosa	-10.6435
▁ventilador	-10.6441
▁pasta	-10.645
▁pp	-10.6453
▁win	-10.6454
▁uñas	-10.6454
▁aclara	-10.6459
▁orgánico	-10.6462
▁peligroso	-10.6464
▁exclusivo	-10.6468
▁protagonista	-10.647
▁ligeramente	-10.6471
▁práctico	-10.6472
▁tumor	-10.6472
▁abstracto	-10.6473
▁religiosa	-10.6484
igno	-10.6486
▁condado	-10.6488
▁originales	-10.6495
▁fina	-10.6495
gel	-10.6499
▁decide	-10.6501
▁ronda	-10.6507
▁alimento	-10.651
▁identificado	-10.6511
▁oriental	-10.6511
▁vínculo	-10.6515
flexion	-10.6515
ware	-10.6517
▁preocupación	-10.6523
ificó	-10.6524
▁arroz	-10.6524
▁entrenador	-10.653
▁financia	-10.6534
iones	-10.6535
▁tomado	-10.6537
▁especializado	-10.6538
▁tarda	-10.654
▁decidir	-10.6547
▁liderazgo	-10.6549
▁útiles	-10.6549
▁electricidad	-10.6549
río	-10.655
▁correr	-10.6559
▁contenedor	-10.6561
▁pura	-10.6562
▁sorpresa	-10.6566
▁científico	-10.6567
▁entiende	-10.6569
▁alcalde	-10.6569
▁aislamiento	-10.6576
▁dama	-10.6579
bili	-10.6581
tsu	-10.6582
▁igualdad	-10.6583
▁desliza	-10.6584
▁pluma	-10.6588
▁llegue	-10.6589
▁detectar	-10.659
▁dif	-10.6592
▁visualiza	-10.6594
▁oración	-10.6599
▁respectivamente	-10.6601
▁excepción	-10.6603
▁pobla	-10.6603
▁equipado	-10.6608
fue	-10.661
traves	-10.6611
▁precisamente	-10.6613
▁diciendo	-10.6614
▁flo	-10.6614
▁realice	-10.6619
▁protesta	-10.662
▁colgante	-10.6622
cionado	-10.6626
metría	-10.6629
vision	-10.6635
▁tinta	-10.6636
▁perfora	-10.6638
▁ceremonia	-10.6645
coordina	-10.6651
▁adolescente	-10.6653
▁cuánto	-10.6655
▁dirigi	-10.6655
▁destinado	-10.6656
▁mama	-10.6656
iento	-10.6659
▁grabación	-10.666
▁tubería	-10.6661
▁tratando	-10.6666
▁sierra	-10.6667
▁caro	-10.667
▁profesores	-10.6672
▁débil	-10.6674
▁cobre	-10.668
▁excepto	-10.6684
▁salsa	-10.669
▁champ	-10.669
pira	-10.669
▁asocia	-10.669
▁contamina	-10.6691
▁labios	-10.6697
▁wifi	-10.6697
▁banca	-10.6701
▁salvaje	-10.6703
▁difíciles	-10.6705
▁cortar	-10.6705
▁compone	-10.6715
▁matar	-10.6718
▁liberación	-10.6719
▁detallada	-10.672
string	-10.6724
▁tranquilo	-10.6725
▁irre	-10.6725
burgo	-10.6727
▁halloween	-10.6748
▁sostiene	-10.6752
uch	-10.6756
▁acontecimiento	-10.6756
▁izquierdo	-10.6761
▁abarca	-10.6768
ómica	-10.677
▁definido	-10.6772
▁aprobación	-10.6773
▁manten	-10.6778
▁ayuntamiento	-10.6779
▁navegación	-10.6779
proba	-10.6781
▁creencia	-10.6789
▁personalizada	-10.679
▁conjunta	-10.6791
dito	-10.6793
▁sofá	-10.6799
cola	-10.6807
pita	-10.6808
▁elevada	-10.6809
▁químicos	-10.6809
▁revisar	-10.682
▁láser	-10.6821
▁hip	-10.6825
▁neumático	-10.6827
▁olvida	-10.6827
▁aislada	-10.6828
▁regreso	-10.6831
prime	-10.6838
lateral	-10.6841
▁crónica	-10.6847
▁personalizacion	-10.6856
ming	-10.6857
▁lópez	-10.6858
wood	-10.6861
▁conformidad	-10.6864
▁torneo	-10.6874
▁equipada	-10.6876
▁creer	-10.6876
rizo	-10.6877
▁jurídica	-10.6879
▁vuelva	-10.6879
▁galería	-10.6892
▁novedad	-10.6901
▁radical	-10.6902
▁ruso	-10.6904
▁francesa	-10.6904
▁consultar	-10.691
ach	-10.6911
ﬁ	-10.6912
▁venga	-10.6913
▁colectivo	-10.6916
▁gimnasio	-10.6919
wer	-10.6919
▁nació	-10.6923
▁productividad	-10.6932
▁zapatillas	-10.6935
▁dada	-10.6935
▁compro	-10.6938
▁advertencia	-10.694
face	-10.6947
▁muro	-10.6952
▁pese	-10.6953
▁dije	-10.6955
▁raíces	-10.6956
▁fijo	-10.6957
▁riqueza	-10.6957
▁propaga	-10.6959
▁existente	-10.696
▁cuchara	-10.6962
lización	-10.6963
▁mora	-10.6966
▁covid	-10.6968
▁aprovechar	-10.697
▁opcional	-10.6974
▁afectada	-10.6975
▁regresa	-10.6975
▁suite	-10.6976
ísima	-10.6977
volver	-10.6977
▁electoral	-10.698
▁rara	-10.6983
▁aprende	-10.6986
▁peces	-10.6988
▁absoluto	-10.6991
ulación	-10.6997
▁flash	-10.7
▁regresar	-10.7001
▁gasto	-10.7002
▁desplazamiento	-10.7003
▁pasajeros	-10.7015
light	-10.7017
▁comunicado	-10.7019
▁pregunt	-10.7019
▁climático	-10.7035
▁verificar	-10.7049
▁ilegal	-10.7052
▁bill	-10.7052
▁emociones	-10.7055
▁biblia	-10.7064
▁movi	-10.7066
▁jamás	-10.7066
▁establecida	-10.7072
▁rota	-10.7077
zer	-10.7092
▁permitido	-10.7101
▁coincide	-10.7103
▁organizar	-10.7107
▁pájaro	-10.7113
▁temprano	-10.7113
▁west	-10.7117
▁disposiciones	-10.7118
ienta	-10.7121
▁judío	-10.7125
▁bluetooth	-10.7128
▁reducido	-10.713
▁jugo	-10.713
▁planifica	-10.7134
▁directorio	-10.7134
▁emisiones	-10.7138
▁pose	-10.7139
▁noticia	-10.7141
▁contribuir	-10.7149
▁gota	-10.7151
uk	-10.7154
▁víctima	-10.7157
▁preserva	-10.7158
▁automatiza	-10.7163
▁motocicleta	-10.7169
pdf	-10.7174
▁cuadra	-10.7176
▁interiores	-10.7177
▁hp	-10.7186
▁agregó	-10.7187
▁pasión	-10.7188
▁partículas	-10.7189
▁inserta	-10.719
▁washington	-10.719
▁británico	-10.7194
equilibra	-10.7197
ástica	-10.72
▁proteína	-10.72
▁manzana	-10.7202
▁imperio	-10.7202
▁específicamente	-10.7204
▁bala	-10.721
▁recipiente	-10.721
▁bay	-10.7213
▁ascenso	-10.7217
▁trato	-10.7222
minó	-10.7228
▁varía	-10.7229
pasa	-10.723
cci	-10.7232
▁colorido	-10.7233
bot	-10.7233
▁extraña	-10.7234
▁verduras	-10.7239
cencia	-10.724
tización	-10.724
órica	-10.7242
▁daniel	-10.7242
▁aguja	-10.7243
▁resort	-10.7245
▁facial	-10.7246
▁morir	-10.7251
emia	-10.7255
▁tecnológico	-10.7255
▁desierto	-10.726
▁diabetes	-10.7262
▁constantemente	-10.7263
▁hábito	-10.7268
▁twitter	-10.7272
▁esperando	-10.7272
▁murió	-10.7274
▁desactiva	-10.7274
▁vigilancia	-10.7276
▁termi	-10.7277
▁artística	-10.7279
▁aprobado	-10.7279
▁sexuales	-10.728
▁lineal	-10.7282
▁afuera	-10.7284
▁buscan	-10.7286
▁roto	-10.7291
hidr	-10.7296
▁abuso	-10.7297
▁apropiada	-10.7303
▁dorado	-10.7312
▁mostrado	-10.7319
▁héroe	-10.7322
▁ecuador	-10.733
▁circulación	-10.733
▁comentario	-10.7331
▁golpea	-10.7333
▁linda	-10.7333
▁constituyen	-10.7335
▁regulación	-10.7336
▁mexicana	-10.7338
▁oscuridad	-10.7338
▁exclusiva	-10.7338
vó	-10.734
▁circular	-10.7342
▁surge	-10.7346
▁impar	-10.7347
▁fro	-10.735
▁viendo	-10.7352
▁impone	-10.7353
▁sm	-10.7354
▁traer	-10.7354
▁sensibilidad	-10.7358
▁calma	-10.736
▁samsung	-10.7362
▁brindar	-10.7362
vista	-10.7369
▁vectoriales	-10.7369
▁instagram	-10.7372
ium	-10.7375
▁amistad	-10.7379
clasifica	-10.7379
▁puro	-10.738
▁anticipa	-10.7382
▁asociado	-10.7384
▁expand	-10.7385
▁costumbre	-10.7387
erg	-10.7387
view	-10.7389
▁aborda	-10.74
▁free	-10.7403
▁salió	-10.7406
ímetro	-10.7407
▁necesitamos	-10.7407
▁metodología	-10.7412
▁ajustable	-10.7413
▁transición	-10.7417
mana	-10.7418
▁aloja	-10.7426
▁considerable	-10.7427
varia	-10.7431
▁compleja	-10.7434
constru	-10.7438
▁navega	-10.7441
▁elija	-10.7444
ien	-10.7445
▁experimento	-10.7448
▁impuesto	-10.7452
▁pensando	-10.7453
▁disparo	-10.7455
▁relativo	-10.7456
▁cilindro	-10.7463
▁jorge	-10.7463
▁voltaje	-10.7468
▁espuma	-10.7469
tp	-10.7471
▁interacción	-10.7485
▁oriente	-10.7488
cher	-10.7492
▁voluntario	-10.7492
▁oxígeno	-10.7493
▁campeonato	-10.7495
▁visualización	-10.7501
▁certificación	-10.7502
▁maria	-10.751
▁contraste	-10.7515
▁fluido	-10.7515
▁numerosas	-10.752
▁armario	-10.7522
▁administrativo	-10.7525
▁admite	-10.7532
�	-10.7541
▁dirige	-10.7545
▁pestaña	-10.7546
▁medicamento	-10.7552
▁nace	-10.7554
▁felicita	-10.756
▁cuota	-10.7561
ónimo	-10.7561
▁humor	-10.7565
▁gobernador	-10.7576
▁enfermo	-10.758
▁regalías	-10.7584
▁implementa	-10.7586
▁dental	-10.7587
tencia	-10.7601
▁dejando	-10.7603
▁obligado	-10.7603
▁mercancía	-10.761
▁danza	-10.761
▁vega	-10.7612
▁navegador	-10.7612
▁gubernamental	-10.7618
mbro	-10.7626
▁pulsera	-10.7629
▁lima	-10.7632
house	-10.7633
▁world	-10.7634
▁extrema	-10.764
▁atrapa	-10.7641
▁tablero	-10.7642
▁academia	-10.7642
▁delantero	-10.7646
▁imper	-10.7646
direct	-10.7648
▁coli	-10.765
▁monumento	-10.7653
▁párrafo	-10.7661
tuvimos	-10.7662
▁maravilloso	-10.7665
▁chris	-10.7668
▁obligaciones	-10.7668
lones	-10.7673
métrico	-10.7682
▁rodilla	-10.7694
▁penetra	-10.77
▁sociedades	-10.77
▁recrea	-10.7704
▁supervisión	-10.7705
▁universitario	-10.7706
▁domicilio	-10.771
▁orto	-10.771
▁human	-10.7711
▁destacar	-10.7715
▁integrada	-10.7718
▁oscura	-10.7722
preci	-10.7727
▁nuclear	-10.7736
▁flecha	-10.7738
▁bebida	-10.7743
▁actriz	-10.7746
▁japonés	-10.7748
▁hormona	-10.7749
tine	-10.775
▁descansa	-10.7754
▁city	-10.7755
▁indicado	-10.7759
▁regionales	-10.776
ducir	-10.7765
▁infecciones	-10.7767
▁separación	-10.7767
zada	-10.7773
▁reciben	-10.7779
▁logrado	-10.7781
▁particulares	-10.7786
▁conmigo	-10.7788
▁romano	-10.779
▁jugando	-10.7791
▁reflexión	-10.7794
▁permanecer	-10.7796
▁cerrada	-10.7797
▁prefiere	-10.7799
▁típico	-10.7801
▁conquista	-10.7805
▁actualizar	-10.7806
▁extracto	-10.7811
▁comprador	-10.782
▁ganó	-10.7825
▁marido	-10.7829
▁pesado	-10.7832
▁explorar	-10.7835
▁portada	-10.7836
▁corri	-10.7838
▁catedral	-10.7839
▁rival	-10.7848
▁hardware	-10.7848
▁democracia	-10.7852
▁residentes	-10.7853
▁jose	-10.7855
▁adquisición	-10.7855
exist	-10.7857
▁eri	-10.7865
▁anunció	-10.7866
▁compañero	-10.7867
▁compartido	-10.7868
▁administrativa	-10.7869
▁virgen	-10.7869
ólica	-10.787
▁llevaba	-10.7872
▁totalidad	-10.7873
well	-10.7875
▁cerámica	-10.788
▁ingles	-10.7883
jera	-10.7886
▁estarán	-10.7888
▁esperamos	-10.7891
▁pintado	-10.7892
ence	-10.7895
±	-10.7897
gón	-10.7899
▁actua	-10.7902
▁posiciona	-10.7907
▁dependencia	-10.7917
▁termo	-10.7921
▁basura	-10.7923
▁monto	-10.7924
▁disminuir	-10.7931
▁embarazada	-10.7938
▁autorización	-10.7939
▁trump	-10.794
▁entretenimiento	-10.7942
▁escrita	-10.7942
▁divide	-10.7944
izador	-10.7946
jada	-10.7947
▁silvestre	-10.7947
xico	-10.7951
▁falda	-10.7954
▁asesina	-10.7959
▁discusión	-10.796
rich	-10.796
▁codifica	-10.7967
▁relacionada	-10.7971
▁agradece	-10.7976
▁vigente	-10.7978
▁toro	-10.798
▁finalidad	-10.7989
▁anexo	-10.7992
▁esfera	-10.8002
▁encargado	-10.8002
▁relato	-10.8007
▁bolivia	-10.801
▁infancia	-10.801
▁toneladas	-10.8013
▁pronuncia	-10.8015
queta	-10.8016
▁reside	-10.8019
▁distribuidor	-10.803
▁desastre	-10.804
trans	-10.8044
▁obstáculo	-10.8047
▁princesa	-10.8047
▁indicó	-10.8053
▁atmósfera	-10.8058
▁inscripción	-10.8059
cuando	-10.806
▁conversación	-10.8063
▁bá	-10.8064
▁miel	-10.807
misión	-10.807
▁martin	-10.807
cket	-10.8073
poniendo	-10.8075
▁disfrute	-10.8081
▁huella	-10.8082
▁rayos	-10.8083
▁acciona	-10.8088
▁polar	-10.8091
▁comuni	-10.8096
terapia	-10.8103
▁botas	-10.8107
▁hogares	-10.8109
▁observación	-10.8109
▁espada	-10.8115
▁sorprendente	-10.8123
▁agenda	-10.813
▁suplemento	-10.813
▁cartera	-10.8131
▁síndrome	-10.8134
▁flexibilidad	-10.8141
▁diversión	-10.8144
▁religioso	-10.8147
ich	-10.8147
▁invi	-10.8149
▁model	-10.815
{	-10.815
▁marcado	-10.8163
ómico	-10.8163
▁atender	-10.8165
▁describir	-10.8167
pho	-10.8168
▁malla	-10.817
▁granja	-10.817
▁obligación	-10.8172
▁decreto	-10.8173
▁diga	-10.8179
▁aroma	-10.8182
▁bacterias	-10.8182
▁definitiva	-10.8183
▁kilo	-10.8186
kh	-10.8188
▁margen	-10.8188
▁muestre	-10.8188
▁alfombra	-10.8194
▁poderoso	-10.8194
▁agita	-10.8196
▁auriculares	-10.8197
▁sólida	-10.8197
▁femenina	-10.8199
▁póster	-10.8209
▁cuidar	-10.8213
clav	-10.8213
quina	-10.8219
▁petición	-10.8225
▁masculino	-10.8232
▁complemento	-10.8236
▁enseñar	-10.8238
▁papá	-10.824
▁há	-10.8243
ábamos	-10.8244
▁pleno	-10.8247
▁orgánica	-10.8249
▁asegurarse	-10.8249
▁proporción	-10.8249
▁distingui	-10.8251
▁mochila	-10.8258
▁diagrama	-10.8261
▁logró	-10.8266
▁traza	-10.827
▁arreglo	-10.8272
▁accesible	-10.8276
ástico	-10.828
▁floral	-10.8285
▁infra	-10.8285
tiles	-10.8286
▁tuve	-10.8289
scopio	-10.8296
▁bienvenida	-10.8298
▁consumidor	-10.8301
nés	-10.8303
▁tecnológica	-10.8304
▁madura	-10.8305
▁capacita	-10.8307
▁rodríguez	-10.8308
▁paneles	-10.8311
▁administrar	-10.8314
▁autoriza	-10.8316
tech	-10.8317
▁indio	-10.832
ísimo	-10.8321
▁inaugura	-10.8326
▁anota	-10.8333
▁postura	-10.8334
▁nutri	-10.8335
▁destacado	-10.8337
carga	-10.8346
▁dvd	-10.8347
ttle	-10.8348
▁lesión	-10.835
▁inalámbrico	-10.835
▁tranquila	-10.835
▁sorprendi	-10.835
point	-10.8351
▁vulnera	-10.8354
▁lento	-10.8356
▁silicona	-10.8363
dónde	-10.8363
▁reacciones	-10.8366
▁llora	-10.8369
▁recoger	-10.837
▁jean	-10.8373
▁millas	-10.8375
lló	-10.8382
▁hembra	-10.8384
▁necesite	-10.8387
▁inmediata	-10.8387
▁florida	-10.8393
▁sugerencia	-10.8395
▁detenido	-10.8395
acredita	-10.8399
▁adaptación	-10.8405
▁normativa	-10.8407
▁gonzález	-10.8408
▁buque	-10.8411
▁bahía	-10.8421
▁funcionalidad	-10.8427
ball	-10.843
▁probado	-10.843
▁revestimiento	-10.8434
▁movilidad	-10.8434
▁implementar	-10.8436
▁llegaron	-10.8437
▁modalidad	-10.8438
▁deseado	-10.8442
▁estatua	-10.8447
▁petro	-10.8451
▁satélite	-10.8454
▁calefacción	-10.8456
▁falso	-10.8457
▁youtube	-10.8458
▁opta	-10.8463
▁retirar	-10.8467
▁procedente	-10.8469
▁fármaco	-10.8471
▁veo	-10.8476
▁extiende	-10.8477
▁financiación	-10.8479
▁yoga	-10.8485
▁billete	-10.8485
▁embalaje	-10.8486
life	-10.8487
▁almuerzo	-10.8492
▁salto	-10.8499
gica	-10.8505
▁pertinente	-10.8507
▁catálogo	-10.8509
▁determinación	-10.851
▁argentino	-10.8512
bell	-10.8513
#	-10.8529
▁inspección	-10.8531
▁maravillosa	-10.8535
▁dijeron	-10.8536
▁autorizado	-10.8549
▁estratégica	-10.8558
▁salvar	-10.8559
▁delantera	-10.8564
icidad	-10.8567
▁humo	-10.8568
traído	-10.8575
▁fuga	-10.8578
▁restricciones	-10.8579
▁multitud	-10.8579
▁incidente	-10.8581
▁exclusivamente	-10.8584
▁you	-10.8586
▁cuchillo	-10.8586
▁constitucional	-10.859
▁procura	-10.8591
▁recibirá	-10.8604
▁ansiedad	-10.8605
▁requerimiento	-10.8609
▁favorece	-10.861
▁inyección	-10.8613
lisis	-10.8624
▁explotación	-10.8625
▁testimonio	-10.863
▁tableta	-10.8631
▁caballero	-10.8632
lencia	-10.8635
▁relleno	-10.8636
▁apret	-10.8636
▁proviene	-10.8639
▁esperaba	-10.8645
▁criminal	-10.8647
▁diseñar	-10.8652
▁intercambia	-10.8653
▁matriz	-10.8653
▁estaría	-10.8661
▁transmitir	-10.8662
▁editorial	-10.8663
▁mecánico	-10.8668
articula	-10.8674
▁contesta	-10.8676
▁sacerdote	-10.8676
cosa	-10.8676
▁sustenta	-10.8681
▁intenso	-10.8681
▁temprana	-10.8681
▁bailar	-10.8684
▁disputa	-10.8691
▁consiguiente	-10.8695
▁jurídico	-10.8697
▁membrana	-10.8699
▁llevará	-10.8707
▁resalta	-10.8708
▁estuviera	-10.8708
▁pidió	-10.8708
▁inmuno	-10.8712
▁encaje	-10.8713
▁dimensión	-10.8718
▁regulador	-10.8719
▁ponerse	-10.8719
▁terminó	-10.8721
▁ocurrir	-10.8728
▁conversión	-10.873
▁acompañado	-10.8733
▁alegre	-10.8733
▁verificación	-10.874
▁descubrimiento	-10.8741
▁súper	-10.8743
▁dirigir	-10.8744
▁james	-10.8745
▁asesinato	-10.8754
▁registrar	-10.8761
vertido	-10.8762
▁aparcamiento	-10.8764
▁pistola	-10.8764
▁leyenda	-10.8765
▁maíz	-10.8768
▁servidores	-10.8769
▁escultura	-10.877
▁arranque	-10.8776
▁genética	-10.8781
▁pelota	-10.8788
▁instante	-10.879
▁aniversario	-10.8793
▁admira	-10.8799
▁definitivamente	-10.8809
▁gracia	-10.881
▁abraza	-10.881
▁trayectoria	-10.8811
▁explicación	-10.8813
▁difusión	-10.8817
ógeno	-10.8822
▁michael	-10.8824
▁abordar	-10.8825
▁aporte	-10.8827
▁desaparece	-10.8828
patía	-10.883
▁adquirida	-10.8832
▁automóviles	-10.8833
▁amarilla	-10.8834
▁capitán	-10.8842
▁jardines	-10.8842
▁nariz	-10.8843
▁declaraciones	-10.8845
▁dobla	-10.8846
▁vestir	-10.885
▁veinte	-10.8859
▁beber	-10.8861
▁minerales	-10.8868
▁fortaleza	-10.8869
▁falsa	-10.8872
▁inversor	-10.8875
▁fortalecer	-10.8886
▁afirmó	-10.8886
▁incidencia	-10.8889
▁william	-10.8892
▁guerrero	-10.8896
▁influye	-10.8896
▁posteriores	-10.8896
▁talleres	-10.8897
▁colina	-10.8899
bú	-10.8899
▁turistas	-10.8901
▁mango	-10.8905
▁atributo	-10.8905
▁juventud	-10.8912
especificaciones	-10.8912
▁cortina	-10.8916
▁vih	-10.8916
▁conclusiones	-10.8918
▁cosplay	-10.8925
▁divertida	-10.8932
▁cerebral	-10.8939
▁ampliamente	-10.8942
▁pasaje	-10.8945
▁agota	-10.8951
field	-10.8958
▁realista	-10.8959
▁camión	-10.8959
▁coronavirus	-10.8967
▁pintor	-10.8968
shop	-10.8975
▁gasta	-10.8987
à	-10.8988
▁defender	-10.8991
▁peter	-10.8992
▁mostró	-10.8993
▁aconseja	-10.9002
ponía	-10.9005
▁sentía	-10.9005
lítica	-10.9006
hacer	-10.9006
▁monstruo	-10.9006
▁macho	-10.9008
▁conoci	-10.901
▁enamora	-10.901
▁spi	-10.9011
▁invitados	-10.9012
▁añadido	-10.9014
▁magia	-10.9014
▁expuesto	-10.9024
▁absorbe	-10.9029
▁ecosistema	-10.903
ette	-10.9033
▁intensa	-10.9034
▁referente	-10.9037
▁river	-10.9039
▁disney	-10.904
▁aquello	-10.9041
▁toalla	-10.9048
▁fabricado	-10.905
▁molécula	-10.9056
▁simultánea	-10.9058
▁recto	-10.9063
▁explota	-10.9071
▁inunda	-10.9074
▁cuida	-10.9077
▁especializada	-10.9083
ö	-10.9094
▁xix	-10.9095
hab	-10.9096
decora	-10.9097
▁tenis	-10.9103
▁urban	-10.9111
sincroniza	-10.9115
▁creatividad	-10.9115
▁prisión	-10.9116
▁escapar	-10.9116
▁criterio	-10.9117
▁sufrir	-10.9118
▁absolutamente	-10.912
▁poste	-10.9121
▁extracción	-10.9122
▁creativa	-10.9131
▁griego	-10.9136
▁temor	-10.9137
▁ratón	-10.9144
utiliza	-10.9148
▁defensor	-10.915
ung	-10.9151
▁huevo	-10.9152
▁patente	-10.9158
fit	-10.9159
▁estética	-10.9163
▁limitaciones	-10.9172
▁caracteres	-10.9176
▁digo	-10.918
▁sanitaria	-10.9182
▁contactar	-10.9184
▁redondo	-10.9185
▁game	-10.9195
▁fernando	-10.9198
▁órdenes	-10.9208
▁center	-10.9212
▁forestal	-10.9214
▁horizonte	-10.9214
▁proyecta	-10.9216
▁cargador	-10.9217
biliza	-10.9221
▁experto	-10.9222
▁street	-10.9224
▁exportación	-10.9233
▁criatura	-10.925
contra	-10.9255
▁metálico	-10.9256
▁blue	-10.9264
cuánto	-10.9266
▁estratégico	-10.9267
▁ocurrió	-10.9267
roll	-10.9269
▁príncipe	-10.9273
▁despleg	-10.9275
rick	-10.9277
▁persiste	-10.9278
▁dedicada	-10.929
▁continente	-10.9292
plante	-10.9299
▁luci	-10.9302
▁lienzo	-10.9307
▁publicar	-10.931
cicl	-10.9312
▁diego	-10.9313
è	-10.9313
▁abrió	-10.9336
▁tomate	-10.9337
▁atractiva	-10.934
▁creó	-10.9342
▁favorable	-10.9346
tenga	-10.9348
▁pozo	-10.9351
▁poblaciones	-10.9351
▁cuarta	-10.9359
▁olvidar	-10.9361
▁auxiliar	-10.9369
▁gravedad	-10.9377
▁mario	-10.9377
▁anciano	-10.9381
▁recta	-10.9386
▁inventario	-10.9387
▁percepción	-10.9389
▁inhibi	-10.939
▁renuncia	-10.9391
▁vuelto	-10.9395
▁músico	-10.9397
▁colectiva	-10.9397
auto	-10.9403
▁cup	-10.9403
▁sport	-10.9405
▁cintura	-10.9408
▁mariposa	-10.9414
▁editar	-10.9416
terior	-10.9419
▁mural	-10.942
▁premium	-10.9428
▁egipto	-10.9434
▁restante	-10.9437
▁irrita	-10.9441
▁disfraz	-10.9447
▁procesador	-10.9449
▁bronce	-10.9451
▁creada	-10.9456
▁micrófono	-10.9459
▁intel	-10.9463
▁auditoría	-10.9463
▁alumno	-10.9464
▁requerido	-10.9465
prueba	-10.9468
brica	-10.9468
▁chip	-10.947
▁respaldo	-10.9474
▁parlamento	-10.9474
▁roba	-10.9476
▁recompensa	-10.948
▁justa	-10.9482
▁considerada	-10.9483
▁parecido	-10.9493
tona	-10.9493
▁taxi	-10.9496
▁vigor	-10.9499
▁capta	-10.9503
▁equivoca	-10.9504
▁corrupción	-10.9505
▁tormenta	-10.9507
▁produjo	-10.9507
▁maquinaria	-10.9511
▁seguidores	-10.9514
calentamiento	-10.9515
▁debida	-10.9517
▁contigo	-10.9519
▁pacífico	-10.9521
▁elaborado	-10.9527
▁george	-10.9536
▁minimiza	-10.9537
▁tercio	-10.9541
▁hice	-10.9546
fila	-10.9553
▁recoge	-10.9554
▁actualizaciones	-10.956
▁panamá	-10.9561
▁basta	-10.9562
▁treinta	-10.9563
ruga	-10.9566
▁traslado	-10.9567
ándola	-10.9569
camp	-10.9572
osamente	-10.9572
▁hambre	-10.9572
▁gala	-10.9573
▁ranura	-10.9578
▁gestionar	-10.958
board	-10.9588
▁valida	-10.9588
▁arquitecto	-10.959
▁avenida	-10.9602
cerra	-10.9613
▁mandato	-10.9615
▁ladrillo	-10.9616
▁seguramente	-10.9616
▁cepillo	-10.962
▁fé	-10.9621
▁alimentaria	-10.9625
▁romper	-10.9632
▁escape	-10.9638
▁retorno	-10.9639
▁faro	-10.9639
áis	-10.9646
▁cubo	-10.9649
></	-10.9651
▁imita	-10.9651
▁ahorrar	-10.9652
▁alambre	-10.9653
▁percibi	-10.9656
▁flora	-10.9657
▁protegido	-10.9669
hibi	-10.9673
cribir	-10.9676
▁promesa	-10.9679
▁fundador	-10.9679
▁quinta	-10.968
▁transparencia	-10.9683
▁asociaciones	-10.9691
▁permitió	-10.9691
▁encantador	-10.9693
▁trimestre	-10.9698
▁declaró	-10.9698
ciã	-10.9701
normal	-10.9701
▁creando	-10.9706
▁invertir	-10.9706
▁energética	-10.9711
▁obtuvo	-10.9711
▁cabina	-10.9711
pondrá	-10.9713
▁tránsito	-10.9719
▁pensado	-10.9723
▁pierna	-10.9723
▁lápiz	-10.9723
cru	-10.9724
▁sevilla	-10.9724
▁espectro	-10.9726
▁ejerci	-10.9728
▁considere	-10.9728
prende	-10.9728
▁resina	-10.9732
▁abundante	-10.9736
ánica	-10.9742
▁barro	-10.9742
▁extranjera	-10.9742
▁lidera	-10.9744
▁nutrición	-10.9745
▁emisión	-10.9749
▁reproductor	-10.9752
▁futbol	-10.9753
▁acopla	-10.9757
▁separada	-10.976
▁photo	-10.976
▁uruguay	-10.9762
ç	-10.977
▁implanta	-10.977
▁aseguró	-10.9772
▁costura	-10.9773
▁maxim	-10.9773
▁impermeable	-10.9779
▁fol	-10.9782
▁lleve	-10.9784
▁multiplica	-10.9785
dillo	-10.9786
▁fantasía	-10.9794
▁encanto	-10.9801
▁fomentar	-10.9803
▁confiable	-10.9808
▁parámetro	-10.9817
▁coordinador	-10.9821
▁calificación	-10.9822
▁complica	-10.9822
titul	-10.9824
▁vistazo	-10.9825
vuelve	-10.9828
iii	-10.9834
control	-10.9842
▁sentimiento	-10.9844
▁preguntó	-10.9846
▁encontraron	-10.9848
▁lcd	-10.9858
▁modificación	-10.986
▁thi	-10.9861
▁oxida	-10.9862
▁sendero	-10.9863
▁soldadura	-10.9871
dista	-10.9871
▁generador	-10.9887
▁inició	-10.9891
▁inclusión	-10.9891
▁ánimo	-10.9893
▁envase	-10.9894
▁irregular	-10.9899
▁estacionamiento	-10.9906
▁sanitario	-10.9906
▁pérez	-10.9908
▁gold	-10.991
▁fachada	-10.9919
▁gloria	-10.9921
▁doméstico	-10.9925
pha	-10.9926
▁lentamente	-10.9934
▁descubierto	-10.9936
▁somete	-10.9939
▁arranca	-10.9941
▁esposo	-10.9942
beta	-10.9952
▁supervivencia	-10.9953
▁felices	-10.9953
▁quita	-10.9954
▁aldea	-10.9958
▁intermedia	-10.996
stone	-10.996
drive	-10.9961
word	-10.9966
▁residencial	-10.9971
▁martínez	-10.9978
▁decidido	-10.9988
▁green	-10.9998
▁alberga	-10.9999
▁turno	-11.0011
▁embarca	-11.0014
▁cuidadosamente	-11.0019
product	-11.0026
elec	-11.0028
sagra	-11.003
gestión	-11.0044
▁smart	-11.0049
▁marcador	-11.0054
▁cueva	-11.0056
▁variar	-11.0064
regi	-11.0065
▁volante	-11.0067
▁lanzado	-11.0071
▁amplifica	-11.0071
lizar	-11.0073
▁necesariamente	-11.0076
▁tumba	-11.0076
▁fundamento	-11.0078
▁sánchez	-11.008
▁apela	-11.008
▁martín	-11.008
▁integridad	-11.0082
▁destrucción	-11.0083
▁corredor	-11.0084
▁derivados	-11.0086
▁católica	-11.0087
▁estabiliza	-11.0091
▁textil	-11.0096
▁experimentado	-11.0099
▁encabeza	-11.01
▁federación	-11.01
▁óptica	-11.0104
▁existir	-11.0105
▁reacciona	-11.0105
▁comunitario	-11.0109
▁transacciones	-11.0115
▁folla	-11.0122
▁asumir	-11.0123
▁modificaciones	-11.0127
▁verifica	-11.0129
▁posa	-11.013
▁cristiana	-11.0131
▁terrestre	-11.0133
▁compuesta	-11.0138
▁estricta	-11.014
▁carbón	-11.0141
▁hincha	-11.0142
▁comenzaron	-11.0144
▁robo	-11.0149
▁portugal	-11.0155
▁muchacho	-11.0162
▁traducido	-11.0164
▁realizará	-11.0171
▁desgaste	-11.0171
▁fauna	-11.0171
▁óptima	-11.0173
▁hallazgo	-11.0177
▁importe	-11.018
▁colorear	-11.018
interrumpi	-11.0183
▁prestigio	-11.0184
▁campamento	-11.0189
▁carcasa	-11.0191
▁postal	-11.0198
▁grecia	-11.0198
ºc	-11.0198
▁llamó	-11.0199
▁stand	-11.0209
▁guantes	-11.0218
▁favorita	-11.0219
▁recogida	-11.022
▁cinturón	-11.0222
count	-11.0223
▁racional	-11.0227
▁convención	-11.0231
▁orilla	-11.0231
▁glu	-11.0235
▁peligrosa	-11.0236
▁guatemala	-11.0238
▁desconocido	-11.024
▁complicado	-11.0242
▁arbitr	-11.0246
▁burbuja	-11.0247
▁coloque	-11.0252
▁valoración	-11.0253
▁condensa	-11.0254
stein	-11.0256
▁repetir	-11.0258
▁foco	-11.0258
▁aéreo	-11.0262
▁veía	-11.0266
▁telefónica	-11.0274
▁doctrina	-11.028
▁balcón	-11.0281
modern	-11.0289
▁frank	-11.0293
▁busque	-11.0293
▁cálido	-11.0294
▁armada	-11.0296
▁asiático	-11.0306
contact	-11.0313
▁terrible	-11.0314
▁exitosa	-11.0314
▁alemana	-11.0314
▁escudo	-11.0316
▁instrucción	-11.0323
▁helado	-11.033
▁arterial	-11.033
▁recomendado	-11.0332
corta	-11.0334
▁observaciones	-11.0335
▁fragmento	-11.0341
▁discriminación	-11.0344
▁solucionar	-11.035
▁combatir	-11.0351
▁viajeros	-11.0354
soft	-11.0355
▁celda	-11.0363
▁juvenil	-11.0366
▁efectuar	-11.0371
▁empo	-11.0372
▁muchacha	-11.0372
▁adelanta	-11.0375
▁complicaciones	-11.0379
▁disminu	-11.0379
▁delicioso	-11.0381
▁táctil	-11.0382
▁impreso	-11.0386
▁apareció	-11.0387
▁texas	-11.039
▁nervioso	-11.0397
▁concepción	-11.0399
▁pvc	-11.0403
▁turística	-11.0403
▁cumpla	-11.0405
▁—¿	-11.0406
▁publicó	-11.0408
exi	-11.0412
▁espectador	-11.0421
▁contemporáneo	-11.043
▁pru	-11.0434
▁oliva	-11.0438
▁compromete	-11.0444
▁inalámbrica	-11.045
▁repuesto	-11.0458
▁voluntaria	-11.0462
posicion	-11.0465
▁creemos	-11.0469
post	-11.0475
▁provincial	-11.0485
▁primario	-11.0486
▁construida	-11.0487
libera	-11.0496
▁nutrientes	-11.0499
opera	-11.0501
▁añadió	-11.0503
▁pienso	-11.0504
insta	-11.0508
▁policial	-11.0515
▁cariño	-11.0517
▁ventilación	-11.053
▁finanzas	-11.0531
▁exploración	-11.0532
▁recarga	-11.0533
▁básicamente	-11.0542
▁acogedor	-11.0543
▁infecta	-11.0544
▁seleccionada	-11.0544
▁periódica	-11.0549
▁escriba	-11.055
▁grueso	-11.056
▁comunitaria	-11.0561
▁notificación	-11.0565
▁propuesto	-11.0566
huma	-11.0567
químico	-11.0573
▁poderosa	-11.0578
▁arregla	-11.0579
▁controlado	-11.0584
▁bene	-11.0585
▁púrpura	-11.0586
▁seguirá	-11.059
▁necesito	-11.059
▁emergente	-11.0593
▁seguida	-11.0593
movil	-11.0599
▁millón	-11.0611
▁sorprende	-11.0612
▁equipamiento	-11.0614
▁investigador	-11.0618
▁beach	-11.0619
▁aviones	-11.0633
▁tambien	-11.0642
▁superficial	-11.0642
▁aparecerá	-11.0645
desarroll	-11.0648
▁simplifica	-11.0651
▁promueve	-11.0651
▁litros	-11.0662
▁excelencia	-11.0663
▁sospecha	-11.067
satisf	-11.0683
patri	-11.0683
▁abrigo	-11.0687
▁crimen	-11.069
▁sindicato	-11.0698
▁goza	-11.0702
▁empuja	-11.0719
▁oreja	-11.0719
▁asesoramiento	-11.0727
▁estira	-11.0728
▁supervisa	-11.0729
▁limón	-11.0729
▁apareci	-11.0729
▁lanzó	-11.0731
▁tuviera	-11.0731
▁dinámico	-11.0733
▁selva	-11.0739
▁diputado	-11.0742
▁variante	-11.0747
▁fortaleci	-11.0747
▁extraordinaria	-11.0749
▁manifiesta	-11.0752
ridge	-11.0755
▁cruce	-11.0756
▁autónoma	-11.0763
▁cuenca	-11.0768
▁clasificado	-11.0769
▁recomendamos	-11.0773
▁térmica	-11.0773
▁restauración	-11.0775
▁rotación	-11.0779
▁bits	-11.0782
▁precipita	-11.0782
extrem	-11.0785
▁seminario	-11.0786
▁quince	-11.0793
▁master	-11.0796
▁rodillo	-11.0798
▁académica	-11.0806
▁requerir	-11.0806
▁reemplazo	-11.0808
lítico	-11.0809
▁franco	-11.0819
▁competente	-11.0827
▁serpiente	-11.0832
©	-11.0834
▁cabal	-11.0836
▁tesoro	-11.0838
▁prove	-11.0839
▁pizza	-11.0844
▁charla	-11.085
▁maestra	-11.0851
▁trigo	-11.0851
▁ipad	-11.0853
▁acuarela	-11.0856
▁turquía	-11.0856
burg	-11.0857
▁protegida	-11.0858
▁geográfica	-11.086
▁capit	-11.0863
▁ocurrido	-11.0866
▁alquila	-11.0871
▁regístrate	-11.0872
▁calcio	-11.0878
▁cartucho	-11.0882
▁consentimiento	-11.0882
▁videojuego	-11.0889
▁absoluta	-11.0901
▁espesor	-11.0901
ugh	-11.0902
▁irán	-11.0904
▁gestiona	-11.0904
▁island	-11.0908
▁vendido	-11.0909
▁drama	-11.0911
▁financiamiento	-11.0911
corpora	-11.0912
▁corazones	-11.0913
▁japonesa	-11.0918
flor	-11.0918
▁excesiva	-11.092
▁ficción	-11.0924
▁satisfecho	-11.0925
▁documenta	-11.094
▁acostumbra	-11.0944
▁service	-11.0947
cár	-11.0948
▁césped	-11.0956
▁radiación	-11.0961
▁mostrando	-11.0961
▁respalda	-11.0975
▁milagro	-11.0975
▁conseguido	-11.0978
▁parche	-11.0981
▁cárcel	-11.0983
▁paralelo	-11.0989
▁divulga	-11.0992
precio	-11.1016
▁archi	-11.1019
▁arrastra	-11.1024
nacional	-11.1028
▁herido	-11.1029
▁vuestro	-11.1031
▁bull	-11.1039
▁hipótesis	-11.1043
▁refugio	-11.1043
▁resultó	-11.1043
▁reproducir	-11.1045
▁enfermera	-11.1046
▁evangelio	-11.1047
▁artístico	-11.105
▁estampado	-11.1054
▁muere	-11.1057
▁perdió	-11.1083
▁duplica	-11.1086
▁evoluciona	-11.1095
▁rubia	-11.1095
▁decorativo	-11.1097
▁ayude	-11.1101
▁sudadera	-11.1105
▁autonomía	-11.111
▁cierra	-11.1114
scribe	-11.1117
▁italiana	-11.1123
▁monitoreo	-11.1129
▁harry	-11.1134
▁cookies	-11.1136
subsidi	-11.1143
▁reflejo	-11.1148
▁aficionado	-11.1148
▁distinto	-11.1152
▁reconocida	-11.1155
▁visite	-11.1156
comercialización	-11.1158
▁fru	-11.1159
▁británica	-11.1163
▁muelle	-11.1168
también	-11.117
▁secador	-11.1172
▁panorama	-11.1175
▁documental	-11.1179
▁célula	-11.118
▁adopción	-11.1182
▁gps	-11.1183
▁inmueble	-11.1187
▁oscila	-11.1188
▁mineral	-11.1189
▁fresa	-11.1191
▁maravilla	-11.1197
▁sonriente	-11.1198
▁cotidiana	-11.1204
▁reúne	-11.1204
▁fracaso	-11.1204
▁moviliza	-11.1206
▁compacto	-11.1212
▁complejidad	-11.1214
▁claridad	-11.1214
tienda	-11.1215
▁cambie	-11.1217
▁plasma	-11.1219
▁semejante	-11.1222
▁olvide	-11.1222
▁vigila	-11.1222
▁higiene	-11.1227
▁duradero	-11.1227
▁definida	-11.1255
▁promete	-11.1257
▁patria	-11.1257
pár	-11.1262
▁resultante	-11.1277
▁ahorra	-11.1279
▁atleta	-11.129
▁compruebe	-11.1302
▁contento	-11.131
▁alterna	-11.131
▁contamos	-11.1311
▁araña	-11.1311
▁ensalada	-11.1312
▁puntuación	-11.1318
▁concluye	-11.1318
▁sodio	-11.1322
▁estómago	-11.1328
▁proporcione	-11.1329
▁merca	-11.1333
meteor	-11.1338
▁absorción	-11.1343
▁plancha	-11.1348
▁camiones	-11.1351
▁singular	-11.1354
▁impide	-11.1354
▁redonda	-11.1355
▁supermercado	-11.1356
oacute	-11.1356
▁comercializa	-11.1368
▁certifica	-11.1369
▁compresión	-11.137
▁mágico	-11.1376
accion	-11.1378
▁adentro	-11.1379
▁crucero	-11.1379
▁empaque	-11.1382
▁promociona	-11.1383
▁destinada	-11.1386
▁comerciante	-11.1393
▁siguió	-11.1393
▁consume	-11.14
▁molesta	-11.1402
|	-11.1404
▁miami	-11.1407
▁laguna	-11.1414
▁high	-11.1415
▁recuerde	-11.1416
minu	-11.1423
descubri	-11.1435
giendo	-11.1444
▁húmedo	-11.1446
▁metálica	-11.1446
▁auténtico	-11.1451
▁vuestra	-11.1451
▁pierda	-11.1452
ptico	-11.1454
▁brilla	-11.1455
polímero	-11.1456
▁mortal	-11.1459
▁partici	-11.1462
▁inflamación	-11.1468
america	-11.1469
▁remedio	-11.1469
▁exacta	-11.147
▁ejemplar	-11.1471
▁diagnostica	-11.1472
▁extender	-11.1473
▁récord	-11.1476
▁territorial	-11.1476
▁habido	-11.1478
▁competitivo	-11.1479
imagin	-11.148
▁eeuu	-11.1481
▁eventual	-11.1482
▁recomendable	-11.1482
forme	-11.1486
▁diccionario	-11.1494
▁galaxy	-11.1494
▁destacó	-11.1495
▁pascua	-11.1498
▁comentó	-11.15
▁studio	-11.1517
▁baila	-11.1518
▁aceptable	-11.1519
▁postre	-11.1522
▁conceptual	-11.1532
▁javier	-11.1545
▁music	-11.1546
▁productivo	-11.1549
▁volar	-11.155
▁contribución	-11.1553
▁ucrania	-11.1555
▁obispo	-11.1555
▁natal	-11.1559
▁bordado	-11.157
▁carece	-11.1571
▁retiro	-11.1572
▁parrilla	-11.1573
▁smartphone	-11.1576
▁fiebre	-11.1578
▁fumar	-11.158
▁american	-11.1583
▁retención	-11.1587
▁despertar	-11.1591
▁insectos	-11.1591
▁poema	-11.1595
▁especialidad	-11.1596
▁choque	-11.1597
▁recibieron	-11.1598
▁variación	-11.16
▁droga	-11.1604
▁wh	-11.1606
▁efectua	-11.1608
▁gabinete	-11.1614
▁respondió	-11.1624
▁campeón	-11.1624
▁excede	-11.1626
▁aplique	-11.1627
▁adición	-11.1631
▁variaciones	-11.1633
corre	-11.1635
▁vivía	-11.1637
▁intervenciones	-11.1642
▁carril	-11.1657
▁circula	-11.1657
▁requisito	-11.1664
▁consistente	-11.167
▁hígado	-11.1671
▁creciendo	-11.1674
▁oficio	-11.1679
▁hormigón	-11.1681
▁energético	-11.1686
▁cuaderno	-11.1689
▁grita	-11.1692
propia	-11.1695
▁triple	-11.1697
▁residual	-11.1697
▁televisor	-11.17
▁util	-11.1706
▁fernández	-11.1707
▁quisiera	-11.1711
▁recomendación	-11.1725
▁deposita	-11.1729
▁producida	-11.173
▁international	-11.173
▁adhesivo	-11.173
▁fantasma	-11.173
▁llame	-11.1737
▁delgada	-11.1738
▁cayó	-11.174
▁emoción	-11.1742
▁requerida	-11.1743
▁pensaba	-11.1747
▁sostenibilidad	-11.1748
▁argumenta	-11.1748
▁biológica	-11.1749
▁puntual	-11.1751
▁retraso	-11.1752
▁transversal	-11.1754
▁royalties	-11.1756
ambula	-11.1764
▁joyas	-11.1765
▁migración	-11.1768
▁seguía	-11.178
▁exportaciones	-11.1784
▁abuelo	-11.1789
▁bancaria	-11.179
▁enzima	-11.1792
▁prevista	-11.1793
▁tranquilidad	-11.1795
▁mortalidad	-11.1795
________________	-11.1799
▁pasillo	-11.1799
▁fiable	-11.1801
▁amanecer	-11.1803
▁reivindica	-11.1811
▁rompe	-11.1814
▁gasolina	-11.1822
pusieron	-11.1826
▁imprescindible	-11.1827
▁triunfo	-11.1827
▁respectivo	-11.183
▁rafael	-11.183
▁directivo	-11.1831
▁poeta	-11.1837
integr	-11.1841
▁ecológico	-11.1845
▁sometido	-11.185
range	-11.1854
▁chimenea	-11.1858
grafi	-11.1859
▁comandante	-11.1861
▁corregir	-11.1864
▁homenaje	-11.1869
▁anticuerpo	-11.1871
▁austria	-11.1871
▁aguda	-11.1892
▁aliado	-11.1895
▁dragón	-11.1906
▁rellena	-11.1909
▁afro	-11.1911
▁calorías	-11.1911
▁sabiduría	-11.1914
▁tailandia	-11.1916
▁sufrimiento	-11.1919
▁profesión	-11.1935
▁fotógrafo	-11.1938
▁sellado	-11.1946
cardi	-11.195
▁garaje	-11.1952
▁fractura	-11.1953
▁enumera	-11.196
▁interroga	-11.1962
▁deficiencia	-11.1962
▁magnitud	-11.1967
▁purifica	-11.1968
▁sanguíneo	-11.1972
▁critica	-11.1974
▁rapidez	-11.1975
▁debut	-11.1981
▁gabriel	-11.1988
▁cómic	-11.1994
férico	-11.2004
▁imperial	-11.2005
▁destruir	-11.201
▁válido	-11.2012
▁parroquia	-11.2012
▁exámenes	-11.2015
▁sacrificio	-11.2017
▁econom	-11.2024
▁neutral	-11.2027
▁balón	-11.2032
▁hubiese	-11.2041
▁frustra	-11.2043
▁desgracia	-11.2044
▁system	-11.2044
▁reciba	-11.2056
▁conejo	-11.206
▁from	-11.2064
▁obtenga	-11.2066
▁logística	-11.2068
▁caudal	-11.2072
▁dependiente	-11.2074
▁tabaco	-11.2077
▁psicología	-11.2083
▁orificio	-11.2087
▁actuaciones	-11.2089
▁quinto	-11.2092
▁irlanda	-11.2098
▁calzado	-11.2098
circ	-11.2105
▁situa	-11.2106
▁africano	-11.2107
▁maduro	-11.2109
▁expresó	-11.2117
volucion	-11.2119
▁túnel	-11.2121
jardin	-11.2122
▁renovación	-11.2122
▁liberal	-11.2131
▁truco	-11.2134
estructura	-11.2136
▁ancha	-11.2138
▁adquirido	-11.2138
ásico	-11.2143
▁distinta	-11.2147
▁ancla	-11.2148
▁rescate	-11.2149
▁jesucristo	-11.2157
▁óptimo	-11.2163
▁palanca	-11.2174
▁cebolla	-11.2176
▁reducida	-11.2187
▁nominal	-11.2187
▁perdida	-11.2189
▁pudieron	-11.219
▁fantástico	-11.2198
▁ciudadanía	-11.2204
▁continuidad	-11.2206
provech	-11.2214
▁rasgos	-11.2224
▁royal	-11.2224
▁almohada	-11.2228
▁bienvenido	-11.2234
▁almacén	-11.2239
▁introduce	-11.2241
▁bañera	-11.2242
▁bobina	-11.2255
▁refrigeración	-11.2261
▁poesía	-11.2261
alimenta	-11.2262
▁pintar	-11.2271
▁cápsula	-11.228
▁capucha	-11.228
▁trozo	-11.2282
▁dañar	-11.2293
▁experimental	-11.2294
▁manguera	-11.2296
▁corporativo	-11.2297
▁urgencia	-11.2298
▁informática	-11.2299
▁emisor	-11.2314
▁folleto	-11.2316
▁dirigente	-11.2321
▁alejandro	-11.2327
▁descenso	-11.2327
▁mediterráneo	-11.2338
▁mutua	-11.234
▁obviamente	-11.2341
▁síntesis	-11.2341
▁antigüedad	-11.2343
▁gancho	-11.2344
▁proveniente	-11.2346
actividad	-11.235
▁amortigua	-11.2354
▁urgente	-11.2355
▁contador	-11.2358
férica	-11.236
▁atenta	-11.2367
▁predeterminado	-11.2368
▁cambió	-11.2371
▁biológico	-11.2375
▁personalizar	-11.2379
▁enchufe	-11.2388
town	-11.239
▁triángulo	-11.2399
▁deterioro	-11.24
▁berlín	-11.2405
▁utilizó	-11.2407
▁anula	-11.2409
▁excava	-11.241
▁despert	-11.2412
▁jersey	-11.2413
▁impedir	-11.2413
▁molecular	-11.2415
▁esclavo	-11.2422
▁precedente	-11.2429
▁ritual	-11.243
▁habló	-11.2431
eira	-11.2435
▁atento	-11.2445
▁dominante	-11.2445
▁dragon	-11.2448
▁hollywood	-11.2452
▁nocturna	-11.2454
▁estableció	-11.2456
▁alternativo	-11.246
▁culto	-11.2461
▁numero	-11.2462
▁mármol	-11.2468
▁pandemia	-11.2468
▁medieval	-11.2485
²	-11.2499
▁fasci	-11.2503
▁prendas	-11.2503
▁recorte	-11.2505
▁campana	-11.2507
▁mantenido	-11.2513
▁sobrevivir	-11.2524
▁tolerancia	-11.2533
▁alberto	-11.2539
▁aleación	-11.254
▁nombrado	-11.2541
▁bodega	-11.2556
▁intimida	-11.2562
watch	-11.2569
▁vosotros	-11.2569
▁contorno	-11.2571
▁sufrido	-11.2576
▁atraer	-11.2578
▁productiva	-11.2579
▁hill	-11.2581
▁ofreciendo	-11.2584
▁hueco	-11.2598
.............	-11.2599
▁medidor	-11.2603
iéndole	-11.2606
▁cartón	-11.2608
▁siglas	-11.2609
▁cualidades	-11.2611
▁istock	-11.2629
▁morena	-11.2635
▁sagrado	-11.2636
▁corriendo	-11.2637
▁farmacia	-11.264
dilu	-11.2643
▁arroja	-11.2645
▁funcione	-11.2649
▁rehabilitación	-11.2655
ferente	-11.2657
▁volcán	-11.2657
ensambla	-11.2664
▁baloncesto	-11.2674
▁exposiciones	-11.2674
▁reforzar	-11.268
instrument	-11.2689
▁existía	-11.2691
▁crucial	-11.2698
▁integrantes	-11.2699
▁podamos	-11.2701
▁manteniendo	-11.2705
▁atracciones	-11.2709
▁tropas	-11.271
▁voces	-11.271
▁espiral	-11.2711
▁cremallera	-11.2712
▁organi	-11.272
▁continuó	-11.2723
▁garganta	-11.2723
▁viviendo	-11.2726
▁dólar	-11.2728
▁alivio	-11.2732
bacteria	-11.2735
▁diablo	-11.2736
primir	-11.2737
▁algoritmo	-11.274
▁patrocina	-11.2743
▁énfasis	-11.2743
▁cumbre	-11.2745
▁mantuvo	-11.2746
▁artesanía	-11.2746
▁repente	-11.2754
▁desafi	-11.2759
▁materna	-11.2764
▁drenaje	-11.2778
▁predomina	-11.2778
riedad	-11.278
▁discutir	-11.2781
▁recomendar	-11.2789
▁auténtica	-11.2792
▁compatibilidad	-11.2792
▁magnético	-11.2792
▁directrices	-11.2795
▁facil	-11.28
▁pensé	-11.2809
▁proyección	-11.2809
▁polonia	-11.2809
▁impacta	-11.2813
▁cemento	-11.2824
seguridad	-11.2835
▁jabón	-11.2844
▁leído	-11.285
▁consejero	-11.2853
▁coopera	-11.2854
▁descarta	-11.2855
▁consumir	-11.2861
▁brown	-11.2864
▁tradiciones	-11.2865
▁nocturno	-11.287
▁resta	-11.2874
▁corporativa	-11.2876
▁tronco	-11.2877
▁vocal	-11.2881
▁ofrecido	-11.2882
▁leyendo	-11.2892
▁aterriza	-11.2894
▁prevé	-11.2895
▁ferrocarril	-11.2897
nueva	-11.2898
▁teórico	-11.29
▁explosión	-11.29
▁perteneciente	-11.2908
▁office	-11.2908
▁revisiones	-11.2909
▁válida	-11.2911
▁riego	-11.2917
▁expediente	-11.2917
▁refuerzo	-11.292
▁reputación	-11.2923
▁envíe	-11.2924
▁histo	-11.2927
→	-11.2932
tiempo	-11.2933
▁incertidumbre	-11.294
frut	-11.2945
head	-11.2949
▁indispensable	-11.2955
▁artesanal	-11.2964
▁respiratoria	-11.297
▁armonía	-11.2985
▁hipoteca	-11.2988
▁delegación	-11.2991
_____	-11.2998
▁legend	-11.3
▁conecte	-11.3005
▁expresiones	-11.3005
▁exitoso	-11.3005
▁obligatorio	-11.3014
▁privilegio	-11.3017
▁adorno	-11.3019
▁medalla	-11.3029
▁estímulo	-11.3032
▁intermedio	-11.3032
▁corrección	-11.3039
▁emperador	-11.3041
▁podremos	-11.305
▁sosteniendo	-11.3052
▁cooperativa	-11.3054
▁emocionante	-11.307
▁conocía	-11.3073
▁recomiendo	-11.3076
▁prometi	-11.3079
▁estrecho	-11.3083
▁mascarilla	-11.3085
▁oculto	-11.3089
▁alibaba	-11.3097
▁padece	-11.3097
▁apasiona	-11.31
▁mamífero	-11.3106
▁conozca	-11.3113
▁sitúa	-11.3113
▁confundi	-11.3117
▁smith	-11.3118
▁cincuenta	-11.3124
feno	-11.3137
▁concede	-11.314
consult	-11.3145
▁cotiza	-11.3147
▁aliviar	-11.3151
wiki	-11.3154
▁mercedes	-11.3154
▁edifica	-11.3158
▁desconecta	-11.3163
fuerza	-11.3164
▁veinti	-11.3166
▁andrés	-11.3169
▁comience	-11.3173
▁deliciosa	-11.3175
mejor	-11.3186
▁democrática	-11.3187
▁moscú	-11.3188
print	-11.3191
▁suecia	-11.3197
▁isabel	-11.3199
millo	-11.3205
▁autobuses	-11.3205
▁emprendi	-11.3211
▁manager	-11.3214
▁átomo	-11.3215
▁universitaria	-11.322
▁glucosa	-11.3226
▁recluta	-11.3227
▁acosta	-11.323
▁térmico	-11.3232
▁permitiendo	-11.3233
▁valioso	-11.3238
▁canaria	-11.3239
▁severa	-11.3244
natural	-11.3254
▁delegado	-11.3254
▁trabajó	-11.3259
▁desarrolló	-11.3262
▁liquida	-11.3265
▁ltd	-11.3272
▁estábamos	-11.3272
▁cachorro	-11.3277
▁confes	-11.3279
▁recubrimiento	-11.3301
▁renovable	-11.3302
▁sustituir	-11.3305
▁competición	-11.3311
▁preferido	-11.3311
▁obstru	-11.3313
▁engranaje	-11.3317
▁progresiva	-11.3323
−	-11.3323
▁vicepresidente	-11.3323
▁escoger	-11.3326
quieres	-11.3332
▁jubila	-11.3336
▁semilla	-11.3338
▁obtenida	-11.3339
▁altavoz	-11.3344
▁solidaridad	-11.3347
▁dominicana	-11.3348
▁conlleva	-11.3349
▁microondas	-11.3353
▁banner	-11.3354
▁eficaces	-11.3365
existe	-11.3372
▁encender	-11.3373
▁hernández	-11.3375
▁conversaciones	-11.3381
▁eduardo	-11.339
▁exhibición	-11.3393
▁asesino	-11.3399
▁pedal	-11.3403
▁pulmonar	-11.3405
▁abeja	-11.3411
▁conmemora	-11.3415
lecomunicaciones	-11.3418
▁richard	-11.3418
▁abuela	-11.3418
▁peinado	-11.3422
▁comporta	-11.3431
▁direc	-11.3431
▁ecológica	-11.3438
▁dorada	-11.3441
▁multa	-11.3449
▁oír	-11.3454
▁school	-11.3458
▁pedazo	-11.3458
▁umbral	-11.3461
▁gómez	-11.3464
▁tortuga	-11.347
solid	-11.3481
▁reparar	-11.3486
▁multimedia	-11.3488
▁recinto	-11.3489
search	-11.349
▁cascada	-11.3499
▁plegable	-11.3501
▁compartida	-11.3504
▁vaquero	-11.3505
˜	-11.351
▁insignia	-11.351
▁barata	-11.3511
▁steve	-11.3516
▁adquiere	-11.3517
▁thomas	-11.3526
▁encaja	-11.3527
▁reveló	-11.3551
craft	-11.3551
▁mentira	-11.3554
▁variado	-11.3554
▁suprema	-11.3561
▁transferir	-11.3561
▁autopista	-11.3563
▁relieve	-11.3569
shirt	-11.3573
dimensional	-11.3576
️	-11.3576
▁predeterminada	-11.3579
▁asume	-11.3585
▁paralela	-11.359
ä	-11.3597
▁desigualdad	-11.3601
▁incentivo	-11.3601
▁instantánea	-11.3606
▁estatuto	-11.3612
▁cigarrillo	-11.3613
▁ecuación	-11.362
▁detector	-11.3635
▁sustitución	-11.3636
▁dividir	-11.3637
×	-11.3638
▁paraguay	-11.3643
▁maniobra	-11.3645
sistema	-11.3646
▁pronóstico	-11.3667
▁tendremos	-11.3676
▁nutricional	-11.368
▁respectiva	-11.368
▁desventaja	-11.3686
▁gruesa	-11.3689
▁vietnam	-11.3695
▁déficit	-11.3695
▁envejecimiento	-11.3695
▁inevitable	-11.3695
▁infante	-11.3698
▁caído	-11.3701
▁tambor	-11.3701
▁antioxidante	-11.3708
▁inmigrantes	-11.3708
▁mágica	-11.3711
▁convocatoria	-11.3717
▁bombilla	-11.372
▁bretaña	-11.3723
▁vivido	-11.3734
▁honra	-11.3742
▁business	-11.3742
▁jurado	-11.3744
▁equipaje	-11.3749
▁orquesta	-11.3749
▁poliéster	-11.3752
hard	-11.3756
▁mantequilla	-11.3762
▁introduzca	-11.3765
▁problemática	-11.3768
▁tóxico	-11.3768
▁supremo	-11.377
▁olímpico	-11.3771
▁informático	-11.3777
▁inconveniente	-11.3781
▁canadiense	-11.3787
▁rosca	-11.3791
▁comprimido	-11.3797
▁póngase	-11.3806
aunque	-11.3808
▁cafetería	-11.3809
▁cementerio	-11.3816
▁educado	-11.3817
▁hacienda	-11.382
ógrafo	-11.3825
▁armadura	-11.383
▁inflación	-11.3835
▁visibilidad	-11.3839
▁contemporánea	-11.3841
▁sucedió	-11.3842
▁competir	-11.3845
▁ayudó	-11.3845
▁alcanzó	-11.3848
▁hábitat	-11.3854
▁recolección	-11.3854
▁jueces	-11.3854
▁pensó	-11.3869
▁rechazo	-11.387
▁estandar	-11.3878
▁córdoba	-11.388
▁cometido	-11.3883
▁nevera	-11.389
tecnolog	-11.389
▁estrat	-11.389
ahora	-11.3891
▁produzca	-11.3896
▁preliminar	-11.3896
▁observó	-11.3899
▁panorámica	-11.3899
▁trámite	-11.3903
▁fatiga	-11.3903
▁psicológico	-11.3904
▁aeronave	-11.3909
▁posesión	-11.3926
▁perfección	-11.3928
▁fichero	-11.3929
▁exacto	-11.3929
▁efectividad	-11.3935
▁galletas	-11.3954
▁vegetación	-11.3958
▁venecia	-11.3958
▁acuático	-11.3961
▁refugiados	-11.3961
▁manifiesto	-11.397
▁recorrer	-11.3973
▁hidrógeno	-11.3977
nomía	-11.3977
▁asequible	-11.3984
▁subraya	-11.3994
▁store	-11.3998
▁esconde	-11.3999
ividad	-11.4003
▁abertura	-11.4007
▁noruega	-11.401
▁colesterol	-11.4019
▁consigo	-11.4027
▁tío	-11.4037
▁marítimo	-11.4039
▁reembolso	-11.4039
▁gerencia	-11.404
▁volúmenes	-11.4052
▁portador	-11.406
▁obligatoria	-11.4064
▁centenar	-11.4067
▁engaña	-11.4071
▁enfermería	-11.4078
▁abdominal	-11.4082
▁transacción	-11.4082
▁cráneo	-11.4098
▁curiosidad	-11.4098
▁vulnerabilidad	-11.41
▁emprendedor	-11.4101
▁rentabilidad	-11.4112
▁hidráulico	-11.4114
▁parcela	-11.4115
▁peluche	-11.4118
▁implante	-11.412
▁insuficiencia	-11.4121
▁elefante	-11.4131
▁colegas	-11.4132
▁fortuna	-11.4144
▁dignidad	-11.4147
▁indirecta	-11.4164
▁múltiple	-11.4172
▁reclamo	-11.4172
▁doméstica	-11.4174
▁muerta	-11.4181
▁zoom	-11.4195
▁extraordinario	-11.4197
▁bogotá	-11.4201
▁south	-11.4202
▁cuchilla	-11.4211
▁requiera	-11.4221
▁sentada	-11.4235
▁sistemática	-11.4237
▁fitness	-11.424
▁profundiza	-11.4241
▁desaparecido	-11.4254
▁emitir	-11.4255
ándonos	-11.4259
▁perjuicio	-11.4284
▁louis	-11.4292
▁óptico	-11.4295
▁atardecer	-11.4301
▁guarde	-11.4306
▁rescata	-11.4309
▁compresor	-11.4316
▁devolución	-11.4324
▁presupues	-11.4325
▁castigo	-11.4328
▁pareció	-11.4331
▁sostener	-11.4349
▁active	-11.4349
▁carolina	-11.435
▁aprobada	-11.4351
▁cuarenta	-11.4358
▁regala	-11.4364
▁expulsa	-11.4372
▁oveja	-11.4384
▁concluir	-11.4385
▁obrero	-11.4394
▁plomo	-11.4403
▁aprobar	-11.4405
▁recomendada	-11.4409
▁despacho	-11.4412
▁helicóptero	-11.4416
▁seguimos	-11.4427
▁contabilidad	-11.443
▁bélgica	-11.4436
▁continental	-11.4439
▁campesino	-11.4443
▁perfume	-11.4443
▁boleto	-11.4448
▁refrigerador	-11.4448
▁vivimos	-11.4461
▁comenzado	-11.4463
▁michel	-11.4471
▁repetida	-11.4477
▁felipe	-11.4477
▁buceo	-11.4484
▁cosmético	-11.4487
▁inyecta	-11.4491
▁aumentó	-11.4504
▁descrita	-11.4515
▁aborto	-11.4517
▁excesivo	-11.4521
▁consiguió	-11.4525
conozco	-11.4528
▁caracter	-11.4529
▁hiciera	-11.4539
funciona	-11.4542
▁aparezca	-11.4549
▁fraude	-11.4549
▁excel	-11.4557
▁brasileño	-11.4561
▁photography	-11.4563
▁franquicia	-11.4573
▁descubrió	-11.4577
▁paraíso	-11.4579
▁repite	-11.4579
xxx	-11.4581
▁desnudo	-11.4586
▁asusta	-11.4589
▁almohadilla	-11.4611
▁quirúrgica	-11.4611
▁manifestó	-11.4614
▁moderada	-11.4618
▁linux	-11.4622
▁carnaval	-11.4632
▁romántico	-11.4635
▁grosor	-11.4639
▁distingue	-11.4642
sexual	-11.4652
grupo	-11.4653
▁intestino	-11.4656
▁secretaria	-11.4656
▁orígenes	-11.467
▁invisible	-11.467
érgica	-11.4675
▁dañado	-11.4675
▁ilusión	-11.4684
▁comunista	-11.4689
▁acoge	-11.469
▁masculina	-11.4691
organiza	-11.4693
▁presidenta	-11.4698
▁alemanes	-11.4701
▁moderado	-11.4702
▁articulación	-11.4702
▁distribuye	-11.4705
▁cardíaca	-11.4705
▁clipart	-11.4717
▁sudáfrica	-11.4719
▁fantástica	-11.4726
▁disfraces	-11.4733
▁genético	-11.4746
▁adjunto	-11.475
▁cadáver	-11.4754
▁lágrimas	-11.4754
▁debilita	-11.476
▁agarre	-11.4765
▁equivale	-11.477
▁protagoniza	-11.4775
▁península	-11.4782
▁tecn	-11.4795
▁ricardo	-11.4804
▁reseña	-11.4814
▁niebla	-11.4821
▁confirmó	-11.4825
▁ruptura	-11.4825
respondi	-11.484
▁competitiva	-11.4842
▁chaleco	-11.485
▁valentín	-11.4856
▁alarga	-11.4868
▁contribuciones	-11.4875
▁consenso	-11.4882
▁inusual	-11.4892
▁testamento	-11.4892
▁obesidad	-11.4892
▁jerusalén	-11.4896
▁desbloquea	-11.4903
▁molestia	-11.4903
▁diploma	-11.4903
▁pincel	-11.4903
▁pirata	-11.4904
▁infierno	-11.4906
▁privilegia	-11.4906
▁desechos	-11.4907
▁muchísimo	-11.491
▁agregue	-11.491
▁embajador	-11.4913
▁griega	-11.4914
▁clasificar	-11.493
iéramos	-11.4945
▁sufrió	-11.4946
▁celebridad	-11.4953
▁tutorial	-11.4963
▁whatsapp	-11.4963
▁desempleo	-11.4967
▁invernadero	-11.4974
▁católico	-11.4985
▁decorado	-11.5004
▁ocean	-11.501
▁mouse	-11.5014
▁respecta	-11.5018
cuántas	-11.5025
▁absorb	-11.5027
▁retire	-11.5027
▁sindical	-11.5029
▁evite	-11.5037
▁bomberos	-11.5039
▁agarra	-11.5043
▁revolucionario	-11.505
▁invento	-11.5061
equip	-11.507
▁sintético	-11.5075
▁bestia	-11.5076
▁altavoces	-11.5079
▁béisbol	-11.5086
▁oportuna	-11.5086
▁accionistas	-11.5086
morfo	-11.5086
▁averiguar	-11.5097
▁intestinal	-11.5101
▁inserción	-11.5105
▁insuficiente	-11.5108
▁curioso	-11.5112
▁rastrea	-11.5118
▁emociona	-11.5119
▁luminoso	-11.5123
▁consideró	-11.5126
▁minorista	-11.513
▁entusiasmo	-11.5137
▁interacciones	-11.5141
▁aduana	-11.5141
▁tuerca	-11.5145
▁discípulo	-11.5152
▁asiática	-11.5161
▁cóctel	-11.5163
▁aminoácido	-11.5166
▁miniatura	-11.5185
▁marcel	-11.5188
▁barbacoa	-11.5188
▁adulta	-11.5189
▁terremoto	-11.5192
▁coeficiente	-11.5199
▁suciedad	-11.521
africa	-11.5221
▁apellido	-11.5221
▁inmigración	-11.5225
▁concesión	-11.5226
▁afiliado	-11.5236
▁antropo	-11.524
▁distinción	-11.5255
▁disolvente	-11.5262
ø	-11.5266
génesis	-11.5266
▁ultima	-11.5275
▁exigir	-11.5275
▁conectividad	-11.5277
▁autónomo	-11.5281
▁bitcoin	-11.5281
▁aprox	-11.5281
▁atlántico	-11.5284
▁magnífico	-11.5284
▁fanáticos	-11.5284
▁pizarra	-11.5292
▁honduras	-11.5299
▁santuario	-11.5303
▁magnífica	-11.5307
▁migrantes	-11.5307
▁cabaña	-11.5314
▁cavidad	-11.5316
―	-11.5336
«	-11.5435
•	-11.5839
●	-11.586
·	-11.6684
‘	-12.3182
	-14.0996
