<unk>	0
<s>	0
</s>	0
<0x00>	0
<0x01>	0
<0x02>	0
<0x03>	0
<0x04>	0
<0x05>	0
<0x06>	0
<0x07>	0
<0x08>	0
<0x09>	0
<0x0A>	0
<0x0B>	0
<0x0C>	0
<0x0D>	0
<0x0E>	0
<0x0F>	0
<0x10>	0
<0x11>	0
<0x12>	0
<0x13>	0
<0x14>	0
<0x15>	0
<0x16>	0
<0x17>	0
<0x18>	0
<0x19>	0
<0x1A>	0
<0x1B>	0
<0x1C>	0
<0x1D>	0
<0x1E>	0
<0x1F>	0
<0x20>	0
<0x21>	0
<0x22>	0
<0x23>	0
<0x24>	0
<0x25>	0
<0x26>	0
<0x27>	0
<0x28>	0
<0x29>	0
<0x2A>	0
<0x2B>	0
<0x2C>	0
<0x2D>	0
<0x2E>	0
<0x2F>	0
<0x30>	0
<0x31>	0
<0x32>	0
<0x33>	0
<0x34>	0
<0x35>	0
<0x36>	0
<0x37>	0
<0x38>	0
<0x39>	0
<0x3A>	0
<0x3B>	0
<0x3C>	0
<0x3D>	0
<0x3E>	0
<0x3F>	0
<0x40>	0
<0x41>	0
<0x42>	0
<0x43>	0
<0x44>	0
<0x45>	0
<0x46>	0
<0x47>	0
<0x48>	0
<0x49>	0
<0x4A>	0
<0x4B>	0
<0x4C>	0
<0x4D>	0
<0x4E>	0
<0x4F>	0
<0x50>	0
<0x51>	0
<0x52>	0
<0x53>	0
<0x54>	0
<0x55>	0
<0x56>	0
<0x57>	0
<0x58>	0
<0x59>	0
<0x5A>	0
<0x5B>	0
<0x5C>	0
<0x5D>	0
<0x5E>	0
<0x5F>	0
<0x60>	0
<0x61>	0
<0x62>	0
<0x63>	0
<0x64>	0
<0x65>	0
<0x66>	0
<0x67>	0
<0x68>	0
<0x69>	0
<0x6A>	0
<0x6B>	0
<0x6C>	0
<0x6D>	0
<0x6E>	0
<0x6F>	0
<0x70>	0
<0x71>	0
<0x72>	0
<0x73>	0
<0x74>	0
<0x75>	0
<0x76>	0
<0x77>	0
<0x78>	0
<0x79>	0
<0x7A>	0
<0x7B>	0
<0x7C>	0
<0x7D>	0
<0x7E>	0
<0x7F>	0
<0x80>	0
<0x81>	0
<0x82>	0
<0x83>	0
<0x84>	0
<0x85>	0
<0x86>	0
<0x87>	0
<0x88>	0
<0x89>	0
<0x8A>	0
<0x8B>	0
<0x8C>	0
<0x8D>	0
<0x8E>	0
<0x8F>	0
<0x90>	0
<0x91>	0
<0x92>	0
<0x93>	0
<0x94>	0
<0x95>	0
<0x96>	0
<0x97>	0
<0x98>	0
<0x99>	0
<0x9A>	0
<0x9B>	0
<0x9C>	0
<0x9D>	0
<0x9E>	0
<0x9F>	0
<0xA0>	0
<0xA1>	0
<0xA2>	0
<0xA3>	0
<0xA4>	0
<0xA5>	0
<0xA6>	0
<0xA7>	0
<0xA8>	0
<0xA9>	0
<0xAA>	0
<0xAB>	0
<0xAC>	0
<0xAD>	0
<0xAE>	0
<0xAF>	0
<0xB0>	0
<0xB1>	0
<0xB2>	0
<0xB3>	0
<0xB4>	0
<0xB5>	0
<0xB6>	0
<0xB7>	0
<0xB8>	0
<0xB9>	0
<0xBA>	0
<0xBB>	0
<0xBC>	0
<0xBD>	0
<0xBE>	0
<0xBF>	0
<0xC0>	0
<0xC1>	0
<0xC2>	0
<0xC3>	0
<0xC4>	0
<0xC5>	0
<0xC6>	0
<0xC7>	0
<0xC8>	0
<0xC9>	0
<0xCA>	0
<0xCB>	0
<0xCC>	0
<0xCD>	0
<0xCE>	0
<0xCF>	0
<0xD0>	0
<0xD1>	0
<0xD2>	0
<0xD3>	0
<0xD4>	0
<0xD5>	0
<0xD6>	0
<0xD7>	0
<0xD8>	0
<0xD9>	0
<0xDA>	0
<0xDB>	0
<0xDC>	0
<0xDD>	0
<0xDE>	0
<0xDF>	0
<0xE0>	0
<0xE1>	0
<0xE2>	0
<0xE3>	0
<0xE4>	0
<0xE5>	0
<0xE6>	0
<0xE7>	0
<0xE8>	0
<0xE9>	0
<0xEA>	0
<0xEB>	0
<0xEC>	0
<0xED>	0
<0xEE>	0
<0xEF>	0
<0xF0>	0
<0xF1>	0
<0xF2>	0
<0xF3>	0
<0xF4>	0
<0xF5>	0
<0xF6>	0
<0xF7>	0
<0xF8>	0
<0xF9>	0
<0xFA>	0
<0xFB>	0
<0xFC>	0
<0xFD>	0
<0xFE>	0
<0xFF>	0
▁the	-3.31206
s	-3.35101
,	-3.39114
.	-3.40735
▁	-3.69739
▁of	-3.92353
▁and	-4.04195
▁to	-4.13684
▁a	-4.35165
▁in	-4.397
▁is	-4.79016
0	-4.84628
1	-4.90048
▁that	-5.01382
▁for	-5.09985
ing	-5.13009
-	-5.13264
2	-5.16928
▁with	-5.22748
ed	-5.31053
▁The	-5.36328
'	-5.46622
d	-5.48314
▁on	-5.51701
▁it	-5.54633
▁be	-5.58623
▁you	-5.603
▁are	-5.60695
:	-5.64521
t	-5.66949
▁(	-5.69918
3	-5.72792
5	-5.74756
▁I	-5.75975
▁or	-5.81732
▁as	-5.84216
▁by	-5.87563
4	-5.89561
9	-5.92461
▁from	-5.92616
er	-5.95828
▁this	-5.95955
▁not	-5.96961
▁was	-5.97155
ly	-5.97897
y	-5.98558
▁have	-5.99269
)	-5.99605
6	-6.07795
▁will	-6.09371
8	-6.11101
▁at	-6.13595
▁can	-6.14745
▁A	-6.15642
e	-6.17809
n	-6.17979
▁an	-6.18259
7	-6.19697
al	-6.1985
▁your	-6.22455
▁In	-6.3232
▁has	-6.32651
▁-	-6.40586
▁we	-6.41027
▁which	-6.42178
▁he	-6.50565
▁"	-6.51073
▁all	-6.54698
▁S	-6.54835
a	-6.55643
▁one	-6.5766
▁they	-6.57668
es	-6.58941
r	-6.59208
m	-6.60209
▁his	-6.6085
o	-6.63774
/	-6.64597
or	-6.65418
▁It	-6.65754
S	-6.66748
▁their	-6.67384
in	-6.67471
?	-6.67967
▁more	-6.70179
▁but	-6.72876
re	-6.78344
▁who	-6.80194
▁also	-6.82613
▁This	-6.86342
▁C	-6.88001
▁de	-6.88162
;	-6.89267
▁time	-6.89306
▁other	-6.89701
▁so	-6.93968
▁do	-6.95164
▁out	-6.95364
▁re	-6.96471
▁were	-6.97535
▁been	-6.98248
▁its	-7.00379
ation	-7.00457
"	-7.00474
th	-7.02058
▁up	-7.02902
▁our	-7.03601
▁when	-7.07593
▁had	-7.0824
▁“	-7.0848
▁there	-7.09807
▁about	-7.10972
▁her	-7.11856
▁P	-7.13773
▁them	-7.14722
i	-7.14853
▁me	-7.15334
▁B	-7.15613
▁if	-7.16789
▁E	-7.17429
▁new	-7.17464
p	-7.18156
▁what	-7.19626
▁F	-7.19775
▁We	-7.20085
▁very	-7.21417
l	-7.21606
▁like	-7.21992
A	-7.22062
▁no	-7.22337
c	-7.22653
▁than	-7.23866
ion	-7.24464
g	-7.25019
!	-7.25036
ic	-7.2513
).	-7.25364
▁only	-7.25861
on	-7.26001
▁G	-7.26257
▁my	-7.27238
▁use	-7.27349
▁people	-7.28474
▁work	-7.29102
able	-7.29324
▁first	-7.31382
le	-7.31643
▁most	-7.32461
li	-7.32707
u	-7.32767
▁would	-7.32915
▁any	-7.3383
▁two	-7.3445
ar	-7.34653
▁into	-7.34864
▁these	-7.35288
▁For	-7.36598
b	-7.37364
▁some	-7.39475
▁He	-7.40048
ity	-7.40211
B	-7.40237
C	-7.4034
▁D	-7.408
en	-7.40878
an	-7.41028
D	-7.41353
ers	-7.4561
▁where	-7.46565
▁Re	-7.46677
▁us	-7.46773
▁through	-7.46983
▁If	-7.47056
▁p	-7.4779
el	-7.48052
▁M	-7.48471
▁such	-7.48574
▁And	-7.48791
M	-7.49735
▁may	-7.4988
▁make	-7.49918
ment	-7.50299
to	-7.50755
at	-7.51115
ro	-7.51183
us	-7.51384
▁over	-7.51398
▁You	-7.51621
f	-7.51682
ive	-7.51721
%	-7.51726
F	-7.52896
▁between	-7.53262
▁well	-7.53934
▁used	-7.54081
il	-7.55265
ll	-7.5553
▁must	-7.55898
h	-7.5638
T	-7.56592
▁T	-7.56622
x	-7.57015
ve	-7.57212
P	-7.57813
k	-7.57893
▁W	-7.5813
▁To	-7.58856
▁years	-7.58935
et	-7.59486
▁way	-7.59684
▁him	-7.60007
G	-7.6008
▁she	-7.60301
▁after	-7.60337
L	-7.61395
▁good	-7.61462
st	-7.62106
ra	-7.62395
co	-7.63949
▁made	-7.64159
it	-7.6434
ia	-7.65185
ate	-7.65373
▁get	-7.65612
▁many	-7.65959
▁different	-7.65983
de	-7.66185
ter	-7.66433
▁because	-7.66456
▁how	-7.66572
I	-7.66619
ur	-7.6669
▁R	-7.67543
ta	-7.67729
▁same	-7.67883
▁those	-7.68524
▁L	-7.68597
te	-7.68634
▁see	-7.68873
▁each	-7.691
as	-7.6943
ne	-7.69706
▁know	-7.69865
▁just	-7.70921
V	-7.71187
▁life	-7.71203
com	-7.7151
▁said	-7.73097
H	-7.73275
▁should	-7.73581
N	-7.74132
▁system	-7.74217
▁water	-7.74548
▁H	-7.75171
▁need	-7.75429
▁un	-7.76031
”	-7.7679
▁information	-7.76886
▁day	-7.7702
age	-7.77171
▁even	-7.77411
▁world	-7.77624
▁take	-7.78442
),	-7.79742
...	-7.80155
▁N	-7.80328
ma	-7.80332
ri	-7.80548
ent	-7.80632
ch	-7.80758
O	-7.80985
▁could	-7.81339
▁being	-7.8144
lo	-7.81464
ce	-7.81475
▁year	-7.82395
▁part	-7.82449
▁con	-7.82713
▁high	-7.8292
est	-7.832
ary	-7.83811
▁without	-7.84275
▁want	-7.84441
id	-7.84732
▁They	-7.84821
▁place	-7.85303
’	-7.85337
z	-7.85537
▁go	-7.85808
▁O	-7.8602
▁K	-7.86309
▁V	-7.86467
ry	-7.86893
▁La	-7.87272
ine	-7.87464
▁–	-7.87744
▁But	-7.88214
na	-7.88325
E	-7.89
is	-7.8929
▁end	-7.89727
ist	-7.89743
▁De	-7.89943
up	-7.9005
▁great	-7.90614
la	-7.9129
v	-7.91657
▁order	-7.92097
▁before	-7.92266
▁under	-7.92489
w	-7.9255
um	-7.9296
▁car	-7.93766
W	-7.93845
▁does	-7.94025
▁best	-7.9554
R	-7.95654
ant	-7.96103
▁back	-7.96611
▁There	-7.96687
▁help	-7.96876
▁co	-7.97593
ance	-7.98002
▁dis	-7.98769
me	-7.9961
▁process	-7.99722
▁long	-8.00488
▁set	-8.00734
▁number	-8.01106
ck	-8.01145
man	-8.01151
▁now	-8.01385
▁both	-8.01433
ge	-8.01843
ty	-8.01958
▁much	-8.02792
▁As	-8.03438
Y	-8.04088
▁during	-8.04286
▁don	-8.04385
▁&	-8.04405
▁important	-8.04469
se	-8.04598
▁case	-8.04754
▁support	-8.04869
ca	-8.05029
▁right	-8.05109
▁three	-8.05405
▁since	-8.06135
▁#	-8.06293
▁What	-8.06527
▁data	-8.06621
▁then	-8.06841
▁pre	-8.0736
ad	-8.07396
▁design	-8.076
▁home	-8.08396
ian	-8.09579
▁man	-8.09939
▁area	-8.10247
▁last	-8.10286
▁hand	-8.10345
▁free	-8.10671
▁find	-8.10791
ol	-8.10846
ir	-8.11147
▁control	-8.11397
mo	-8.11414
be	-8.11812
▁power	-8.12166
no	-8.12404
▁love	-8.12477
▁So	-8.12635
▁When	-8.12915
ul	-8.1315
▁own	-8.1401
▁light	-8.14057
K	-8.14272
ness	-8.14879
im	-8.15075
▁while	-8.15785
▁did	-8.16782
▁b	-8.16797
▁At	-8.17258
▁An	-8.17308
▁No	-8.1737
▁Al	-8.17767
ie	-8.18478
▁On	-8.18489
the	-8.19164
pe	-8.19335
▁always	-8.19889
▁c	-8.19973
ated	-8.20151
▁children	-8.20262
▁per	-8.20344
▁With	-8.20688
go	-8.21082
▁social	-8.21338
am	-8.21756
▁Co	-8.21851
▁J	-8.22169
▁using	-8.22517
and	-8.22716
▁service	-8.22871
do	-8.22886
▁company	-8.23055
ting	-8.23299
▁found	-8.23313
▁down	-8.23343
U	-8.23708
▁against	-8.23773
sh	-8.23882
ial	-8.23999
▁Stock	-8.24034
▁another	-8.24185
tic	-8.24274
▁example	-8.24389
▁New	-8.24969
ga	-8.25132
ous	-8.25296
▁business	-8.26016
▁following	-8.26188
▁country	-8.26213
▁Do	-8.26315
ism	-8.26527
▁body	-8.266
▁e	-8.26665
▁already	-8.27393
▁group	-8.27525
▁quality	-8.27683
▁possible	-8.28309
▁second	-8.28401
▁development	-8.28519
▁going	-8.28683
▁little	-8.28727
▁off	-8.28777
ac	-8.2878
va	-8.28902
▁Po	-8.29162
▁white	-8.29656
."	-8.29717
ure	-8.2997
▁level	-8.30275
▁public	-8.30313
▁around	-8.3038
ized	-8.30408
▁family	-8.30785
▁person	-8.31283
▁All	-8.31378
▁small	-8.31515
▁every	-8.32106
ating	-8.32262
▁head	-8.32427
▁change	-8.32449
▁Ma	-8.32518
▁pro	-8.32711
ies	-8.32722
▁food	-8.32742
ke	-8.3311
▁Be	-8.33315
▁give	-8.33545
▁come	-8.33742
que	-8.33888
▁here	-8.34668
▁think	-8.34671
ut	-8.34907
▁available	-8.34964
▁health	-8.3519
▁still	-8.35201
▁team	-8.3529
]	-8.35679
▁However	-8.36062
▁point	-8.3614
▁Mo	-8.36273
tro	-8.36454
▁within	-8.36499
der	-8.37013
▁am	-8.37047
▁These	-8.37258
▁human	-8.37388
ization	-8.37462
▁women	-8.37714
os	-8.3776
▁la	-8.37779
▁Con	-8.37814
▁start	-8.37905
▁access	-8.38014
ted	-8.38041
▁room	-8.38595
▁due	-8.38781
▁products	-8.38929
▁city	-8.39019
▁/	-8.39369
ti	-8.39404
▁old	-8.39464
▁project	-8.40128
ite	-8.40213
he	-8.40635
▁type	-8.40684
▁few	-8.40765
▁present	-8.41081
▁God	-8.41602
▁U	-8.41646
▁name	-8.41833
ho	-8.42564
nd	-8.42693
▁days	-8.42843
▁main	-8.42864
▁•	-8.42879
▁large	-8.43078
▁How	-8.43389
ci	-8.43414
▁background	-8.43704
ha	-8.43835
▁until	-8.44387
mon	-8.45004
tra	-8.45197
vi	-8.4524
▁open	-8.45327
▁services	-8.45767
ence	-8.45912
▁better	-8.46159
▁Le	-8.46344
X	-8.46537
▁view	-8.4661
▁value	-8.46703
▁line	-8.46809
pa	-8.46939
▁f	-8.4696
▁Ra	-8.47443
ig	-8.47467
▁experience	-8.47525
▁face	-8.47683
▁left	-8.47968
one	-8.48766
less	-8.48804
▁color	-8.49078
▁according	-8.49284
▁product	-8.49862
▁THE	-8.49989
▁Car	-8.50003
▁Mar	-8.50015
ton	-8.50021
mb	-8.50121
▁form	-8.50144
The	-8.50449
▁[	-8.50618
▁account	-8.50694
ide	-8.50914
▁something	-8.5097
▁She	-8.5113
▁necessary	-8.51237
▁Sa	-8.51448
▁close	-8.51531
▁side	-8.5155
ba	-8.51582
ling	-8.51681
ni	-8.51711
▁$	-8.51752
▁X	-8.51927
▁fact	-8.52039
per	-8.52062
▁Me	-8.52086
▁Ro	-8.52162
▁able	-8.52397
▁based	-8.52527
▁sub	-8.52546
▁ex	-8.52645
▁w	-8.52815
▁d	-8.529
▁look	-8.52995
▁next	-8.53247
▁young	-8.53305
un	-8.53319
AL	-8.53422
line	-8.53472
▁say	-8.53731
▁market	-8.53912
▁'	-8.54025
▁Photo	-8.54519
ill	-8.54519
op	-8.54595
▁That	-8.54622
▁art	-8.54682
▁full	-8.5483
▁play	-8.55325
▁special	-8.55623
▁game	-8.55715
▁real	-8.56048
▁including	-8.56149
▁show	-8.56387
rs	-8.56489
son	-8.56561
▁position	-8.56575
▁less	-8.56575
…	-8.56671
▁provide	-8.56753
▁>	-8.5709
▁called	-8.57226
con	-8.57438
▁air	-8.57481
ot	-8.57537
▁care	-8.57725
▁study	-8.57765
▁things	-8.57952
▁lot	-8.58083
▁school	-8.58255
▁never	-8.58536
▁addition	-8.58559
▁put	-8.58983
tion	-8.59039
▁house	-8.59301
▁low	-8.59332
ner	-8.59437
ish	-8.59812
▁period	-8.5995
▁several	-8.60001
▁local	-8.60405
é	-8.60422
min	-8.60636
▁short	-8.60662
,"	-8.61001
▁image	-8.61029
▁Pro	-8.61243
▁state	-8.61252
▁Ta	-8.61379
▁among	-8.6141
▁Bo	-8.61415
▁turn	-8.61446
▁risk	-8.61446
J	-8.61582
▁countries	-8.61704
ally	-8.61751
▁Ba	-8.61784
▁again	-8.61794
▁keep	-8.61934
di	-8.62236
▁One	-8.62333
▁Ca	-8.62638
▁located	-8.6305
▁means	-8.64041
▁Z	-8.64088
▁Free	-8.64469
▁After	-8.64484
▁feel	-8.64533
▁black	-8.64589
▁treatment	-8.64705
▁known	-8.6478
▁personal	-8.6494
da	-8.65017
▁course	-8.65083
▁natural	-8.65129
▁current	-8.65132
▁di	-8.65202
▁live	-8.65231
▁i	-8.65495
▁program	-8.65527
▁million	-8.65589
po	-8.65739
king	-8.65887
▁m	-8.65965
▁production	-8.66365
▁El	-8.66471
▁size	-8.66499
vo	-8.66718
tu	-8.66781
sa	-8.67323
▁night	-8.67797
▁visit	-8.68121
ize	-8.68153
▁en	-8.68161
▁having	-8.68306
▁too	-8.68309
▁men	-8.68316
▁government	-8.6833
▁key	-8.68342
▁space	-8.6836
br	-8.68478
▁g	-8.68504
▁OF	-8.68648
▁everything	-8.68794
▁result	-8.68975
▁St	-8.68986
ow	-8.69201
mm	-8.69347
▁four	-8.69389
▁woman	-8.69995
▁together	-8.70218
ities	-8.70333
ex	-8.70582
land	-8.70651
▁Or	-8.70672
▁contact	-8.70983
▁United	-8.71191
▁results	-8.71322
▁st	-8.71373
▁From	-8.71399
▁become	-8.71636
▁Na	-8.71661
▁—	-8.71699
▁heart	-8.71972
▁San	-8.72116
▁problem	-8.72249
▁tell	-8.72602
▁Pa	-8.72606
▁create	-8.72796
ven	-8.73141
▁Can	-8.73144
▁non	-8.73166
▁national	-8.73514
ph	-8.73563
▁Vi	-8.73614
▁easy	-8.73663
▁general	-8.73714
ja	-8.73808
way	-8.73839
mi	-8.73865
▁center	-8.7393
lu	-8.73961
▁today	-8.74005
▁above	-8.74259
▁conditions	-8.74482
ver	-8.74623
▁offer	-8.74625
▁activities	-8.74647
les	-8.74704
▁model	-8.74711
io	-8.74809
ap	-8.74873
▁times	-8.75016
▁material	-8.75175
▁common	-8.75527
▁enjoy	-8.75719
▁hours	-8.76056
bi	-8.76227
▁others	-8.76286
▁hard	-8.76308
▁top	-8.76442
▁ma	-8.76451
▁why	-8.76524
pi	-8.76783
cent	-8.76867
ative	-8.76962
▁students	-8.77046
▁post	-8.77106
▁management	-8.77119
out	-8.77157
ki	-8.77205
▁really	-8.77225
▁comp	-8.77351
▁international	-8.77883
ring	-8.77921
▁Ne	-8.77966
▁red	-8.78028
▁given	-8.78291
lic	-8.78295
ice	-8.78318
▁call	-8.78509
tain	-8.7857
ful	-8.78728
▁away	-8.7886
▁environment	-8.789
▁working	-8.7892
ep	-8.79804
▁let	-8.79847
▁later	-8.79918
▁various	-8.79981
▁increase	-8.80372
▁areas	-8.80388
▁book	-8.8039
ible	-8.8054
▁check	-8.8055
▁subject	-8.80585
ning	-8.80752
▁beautiful	-8.80885
▁making	-8.80938
side	-8.81128
▁Vector	-8.8116
▁Dr	-8.81502
▁economic	-8.81529
tor	-8.81644
▁run	-8.81768
▁amount	-8.8209
▁ba	-8.8216
ny	-8.82262
ship	-8.82349
▁certain	-8.82377
▁law	-8.82484
▁Art	-8.82493
▁vi	-8.82601
▁include	-8.82662
▁hotel	-8.82806
▁energy	-8.82825
▁specific	-8.82992
▁States	-8.83089
(	-8.83145
▁Di	-8.83307
ka	-8.83322
ster	-8.83464
▁return	-8.83534
ang	-8.83581
▁bar	-8.83851
▁National	-8.83955
▁done	-8.83968
▁app	-8.83984
ak	-8.84042
▁US	-8.84139
▁moment	-8.84232
ER	-8.84447
use	-8.84472
▁land	-8.8467
▁child	-8.8484
▁Li	-8.84947
▁companies	-8.85011
▁table	-8.85072
▁sure	-8.85159
▁needs	-8.85169
▁price	-8.85203
_	-8.85307
ub	-8.85526
▁performance	-8.85834
▁thing	-8.85876
▁cases	-8.85899
AN	-8.85942
bo	-8.85979
▁rest	-8.8605
em	-8.86131
▁clear	-8.86159
>	-8.8653
▁American	-8.86598
▁Ar	-8.86715
▁test	-8.86732
▁hair	-8.86807
▁video	-8.86838
▁machine	-8.86844
▁charge	-8.87037
▁date	-8.87249
oc	-8.87293
▁strong	-8.87337
▁oil	-8.87392
▁content	-8.87438
ue	-8.87541
▁add	-8.87631
▁list	-8.87681
▁cover	-8.87781
▁text	-8.88068
▁least	-8.88157
▁Ha	-8.88485
▁field	-8.88542
▁range	-8.88558
▁research	-8.88607
▁stay	-8.88643
▁skin	-8.8873
fa	-8.88807
ger	-8.88864
▁imp	-8.889
▁front	-8.88976
che	-8.89004
▁past	-8.89052
▁stop	-8.89123
ING	-8.89222
▁style	-8.89223
ile	-8.89271
▁bring	-8.89412
▁concept	-8.8943
▁minutes	-8.89596
▁problems	-8.89681
▁training	-8.89723
▁Lo	-8.89826
▁travel	-8.89842
ions	-8.89873
om	-8.89905
▁reason	-8.90035
▁required	-8.90403
qu	-8.90662
row	-8.90685
://	-8.90706
▁structure	-8.90797
▁prevent	-8.90815
ten	-8.90883
▁pay	-8.9096
▁se	-8.90967
▁single	-8.90978
▁sp	-8.91144
▁age	-8.9116
▁allow	-8.91349
▁carried	-8.91568
▁Our	-8.91653
▁report	-8.91655
▁future	-8.9172
▁continue	-8.91853
▁seen	-8.91863
▁screen	-8.91871
ber	-8.91895
á	-8.91992
mp	-8.92135
▁Y	-8.92209
mer	-8.9246
▁situation	-8.92521
▁makes	-8.92692
ft	-8.92727
▁Spanish	-8.92738
▁action	-8.92773
▁community	-8.92874
▁total	-8.93377
tal	-8.93581
ator	-8.93634
▁often	-8.93658
ru	-8.93783
▁months	-8.94107
▁etc	-8.94254
▁State	-8.94316
ES	-8.94376
▁taken	-8.94378
▁bi	-8.94426
▁share	-8.94427
▁receive	-8.9445
▁file	-8.94549
▁related	-8.94764
▁Wi	-8.94805
▁understand	-8.94805
▁thought	-8.94987
ology	-8.95146
▁inter	-8.95215
▁Te	-8.95308
▁knowledge	-8.95386
▁application	-8.95424
▁h	-8.95455
▁money	-8.95528
▁Fa	-8.95585
▁event	-8.95653
▁job	-8.95662
▁By	-8.95767
▁allows	-8.95844
▁offers	-8.9593
▁film	-8.95942
za	-8.95989
▁considered	-8.96055
ium	-8.9608
▁series	-8.962
▁cannot	-8.96334
▁looking	-8.96412
▁history	-8.9645
▁gl	-8.96501
▁My	-8.96636
▁took	-8.96648
▁May	-8.96781
val	-8.96796
▁Ex	-8.96809
LE	-8.96838
ability	-8.96976
▁page	-8.97004
▁cause	-8.97302
▁far	-8.97683
for	-8.97696
dy	-8.97795
▁im	-8.97838
▁language	-8.97853
EN	-8.97972
▁blood	-8.98098
▁plan	-8.98216
▁card	-8.98248
▁temperature	-8.9829
▁death	-8.98334
▁simple	-8.98354
▁network	-8.98369
—	-8.98432
▁works	-8.98516
▁Man	-8.9856
▁function	-8.98753
▁especially	-8.98839
▁nature	-8.98839
act	-8.98969
▁stock	-8.98993
ding	-8.99016
ud	-8.99018
▁security	-8.99052
▁building	-8.99059
▁activity	-8.99105
▁cost	-8.9922
ification	-8.99292
ier	-8.9938
▁plant	-8.99476
ell	-8.99535
ab	-8.99551
▁technology	-8.99662
▁po	-8.99695
▁war	-8.99715
tle	-8.998
▁Pi	-8.99871
qui	-9.0005
ving	-9.00152
▁His	-9.00156
▁Some	-9.00188
▁fire	-9.00235
▁matter	-9.00244
▁Se	-9.00357
ina	-9.0037
ip	-9.0051
▁almost	-9.00671
▁v	-9.00722
▁Mi	-9.00737
ever	-9.00809
▁lower	-9.0083
j	-9.00902
gen	-9.00978
▁Gu	-9.01024
pro	-9.01137
ard	-9.01265
ual	-9.01386
▁condition	-9.01476
▁phone	-9.01602
▁address	-9.01635
▁Spain	-9.01649
▁members	-9.01678
▁provided	-9.01777
▁week	-9.01852
▁IN	-9.01903
▁political	-9.01947
▁anti	-9.02125
▁Pre	-9.02183
▁section	-9.02193
cu	-9.02195
▁High	-9.02364
▁similar	-9.02414
end	-9.02482
fe	-9.02715
▁once	-9.02734
▁enter	-9.02787
▁read	-9.02798
▁version	-9.02931
www	-9.02964
hi	-9.02998
▁third	-9.02999
▁*	-9.03001
▁x	-9.0308
men	-9.03179
▁music	-9.03242
ef	-9.03277
▁although	-9.03296
▁blue	-9.033
▁clean	-9.03453
▁Cor	-9.03455
ón	-9.03463
▁along	-9.03503
▁pressure	-9.03641
ran	-9.03752
ED	-9.03975
ron	-9.03985
▁Your	-9.04017
red	-9.04059
▁sound	-9.04086
▁World	-9.04102
▁taking	-9.04181
▁says	-9.04185
▁try	-9.04202
▁added	-9.04226
.”	-9.04246
▁Black	-9.04285
▁Ja	-9.04314
▁comes	-9.0432
▁Ti	-9.04443
▁pa	-9.04501
▁five	-9.04506
▁fall	-9.04652
▁individual	-9.04686
od	-9.04705
▁green	-9.04728
▁Of	-9.04751
▁question	-9.0483
▁population	-9.04848
▁came	-9.05195
".	-9.05211
▁changes	-9.0528
▁role	-9.0537
▁article	-9.05484
▁effect	-9.05487
▁enough	-9.05527
▁perfect	-9.05562
▁device	-9.05581
ging	-9.05606
Z	-9.05774
ana	-9.05883
▁European	-9.05932
▁complete	-9.05932
our	-9.05978
ight	-9.06093
AR	-9.06094
▁professional	-9.06164
▁girl	-9.0617
▁answer	-9.0617
▁legal	-9.0628
▁act	-9.06282
▁option	-9.06284
▁below	-9.06284
form	-9.06382
▁sea	-9.06436
set	-9.065
▁near	-9.06511
▁mind	-9.06531
▁big	-9.06543
▁unit	-9.06608
▁entire	-9.06616
▁base	-9.06641
▁Fe	-9.06712
▁Now	-9.0679
▁user	-9.06817
▁illustration	-9.06863
▁Go	-9.06939
▁|	-9.07095
▁General	-9.07095
▁speed	-9.07138
▁mother	-9.07138
sis	-9.07427
▁original	-9.07495
▁rate	-9.07578
▁meeting	-9.07624
▁En	-9.07753
ec	-9.07756
gi	-9.07772
▁consider	-9.07839
▁private	-9.07929
▁features	-9.08005
▁pass	-9.08042
▁buy	-9.08086
▁computer	-9.08255
ious	-9.08415
wa	-9.08491
▁leave	-9.0852
▁damage	-9.08534
▁meet	-9.08548
we	-9.08643
fi	-9.08723
▁patients	-9.08759
▁Mexico	-9.08783
gu	-9.08959
▁multi	-9.08993
▁kind	-9.0901
▁systems	-9.09144
▁education	-9.09174
▁official	-9.0929
▁surface	-9.09291
▁half	-9.09313
▁button	-9.09329
▁weight	-9.09347
▁move	-9.09373
▁Ho	-9.09821
AS	-9.09911
▁believe	-9.09942
▁organization	-9.10018
▁demand	-9.10034
▁America	-9.1009
▁AND	-9.10287
▁l	-9.10385
ric	-9.10426
RE	-9.10474
▁town	-9.10485
ach	-9.1063
▁physical	-9.10632
▁search	-9.11065
ens	-9.11112
▁Home	-9.11183
▁stage	-9.11197
▁created	-9.11199
ral	-9.11206
ino	-9.11276
wi	-9.1131
▁protection	-9.11345
▁store	-9.11351
ical	-9.11415
▁higher	-9.11491
▁office	-9.11512
▁equipment	-9.11563
▁develop	-9.11689
▁request	-9.11807
▁growth	-9.11843
▁follow	-9.11863
▁mode	-9.11904
▁Ju	-9.11938
▁More	-9.12239
▁select	-9.12282
sion	-9.12349
au	-9.12414
▁drive	-9.12434
▁got	-9.12461
let	-9.12498
▁+	-9.1258
▁groups	-9.12596
old	-9.1272
▁improve	-9.12892
▁media	-9.12991
▁location	-9.13094
▁whole	-9.13246
▁avoid	-9.13251
▁true	-9.13289
▁self	-9.13333
▁resources	-9.13518
▁received	-9.13635
=	-9.13674
▁method	-9.13747
ble	-9.13852
▁contract	-9.14
▁t	-9.14021
▁Men	-9.1404
tur	-9.14083
▁floor	-9.14112
tan	-9.14152
▁Th	-9.14194
▁ensure	-9.14255
▁Ga	-9.14374
▁cut	-9.14404
ON	-9.14499
▁went	-9.14542
▁inside	-9.14619
ze	-9.1482
▁respect	-9.1483
▁sign	-9.14989
▁lo	-9.15027
▁photo	-9.15047
ng	-9.15132
▁itself	-9.15215
▁relationship	-9.15252
▁season	-9.15325
▁mo	-9.15352
▁ask	-9.15491
▁financial	-9.15527
▁press	-9.15533
▁included	-9.15631
",	-9.15668
▁words	-9.15787
▁living	-9.15863
ez	-9.15951
of	-9.16129
▁affect	-9.16177
ified	-9.16211
▁vector	-9.16225
▁idea	-9.16311
▁icon	-9.16449
▁University	-9.16464
ple	-9.16557
ee	-9.16608
▁path	-9.16658
▁movement	-9.16739
▁modern	-9.16917
▁region	-9.16925
▁War	-9.16935
▁interest	-9.1698
▁k	-9.17004
▁character	-9.17073
IC	-9.17115
▁brand	-9.17117
▁[...]	-9.17212
▁friends	-9.17241
▁told	-9.1753
▁solution	-9.17569
▁class	-9.1771
▁began	-9.17721
▁might	-9.17795
▁port	-9.17844
▁party	-9.17873
▁paper	-9.17895
IN	-9.17952
▁Use	-9.17954
▁points	-9.17986
▁bit	-9.18032
▁communication	-9.18041
ea	-9.18058
art	-9.18172
ction	-9.18183
▁construction	-9.18194
▁sense	-9.1826
▁walk	-9.18266
ations	-9.18345
AT	-9.18353
▁Jo	-9.1837
▁types	-9.18383
izing	-9.18384
▁six	-9.1846
ah	-9.18577
▁sector	-9.18649
▁designed	-9.18758
▁shows	-9.18885
▁capital	-9.18914
▁step	-9.18926
▁attack	-9.18943
▁choose	-9.18979
▁rights	-9.19013
OS	-9.19065
▁display	-9.19113
▁story	-9.19145
▁online	-9.19159
▁break	-9.19254
▁fun	-9.1928
▁wall	-9.1929
RO	-9.19333
▁talk	-9.19337
▁cross	-9.19506
▁culture	-9.19507
▁box	-9.19512
mor	-9.19633
▁Women	-9.19808
▁Su	-9.19827
nce	-9.19861
▁road	-9.19914
ler	-9.20093
▁levels	-9.20155
▁o	-9.2023
cul	-9.20397
ag	-9.20517
▁website	-9.20556
▁Hu	-9.2057
▁site	-9.20659
ition	-9.20752
▁City	-9.20781
▁practice	-9.20897
ries	-9.20903
▁bad	-9.20906
▁cl	-9.20971
▁connection	-9.21094
https	-9.21137
ct	-9.21223
▁greater	-9.21329
▁usually	-9.21344
▁includes	-9.21396
▁wide	-9.21405
▁established	-9.21433
▁disease	-9.21466
ise	-9.21543
▁White	-9.2156
▁learn	-9.21575
▁gas	-9.21619
▁eyes	-9.21659
▁analysis	-9.21813
▁fa	-9.21859
▁del	-9.2188
▁terms	-9.21942
so	-9.22031
lan	-9.22052
▁claim	-9.22139
EL	-9.22159
fo	-9.22288
▁English	-9.22407
lin	-9.22494
▁deal	-9.22641
▁ca	-9.22861
lar	-9.22947
jo	-9.22957
int	-9.23114
▁didn	-9.23144
▁please	-9.2315
▁outside	-9.23169
▁hold	-9.23203
▁early	-9.23211
▁deep	-9.23263
ix	-9.23355
▁link	-9.23378
▁impact	-9.23412
tri	-9.23507
▁elements	-9.2354
▁held	-9.23561
▁difficult	-9.23749
▁final	-9.23807
▁further	-9.23965
▁hope	-9.23975
▁Product	-9.24017
cal	-9.2407
▁operation	-9.24149
▁According	-9.24189
▁nothing	-9.24253
▁essential	-9.24273
▁safe	-9.24569
if	-9.24637
▁Per	-9.24642
▁Dis	-9.24649
▁ground	-9.24712
pt	-9.24735
low	-9.24742
▁Qu	-9.24747
í	-9.24764
IT	-9.24825
yl	-9.25025
▁whose	-9.25039
▁previous	-9.25106
ug	-9.25145
▁Ch	-9.2515
port	-9.25291
istic	-9.25329
▁Design	-9.25351
▁dress	-9.25361
▁App	-9.25416
▁direct	-9.25453
▁Set	-9.25749
▁provides	-9.25878
▁himself	-9.25943
ai	-9.25991
▁Un	-9.26006
▁Center	-9.2603
▁cat	-9.26269
cre	-9.2629
▁industry	-9.26418
▁send	-9.26435
iv	-9.26509
▁Also	-9.26704
▁Not	-9.26768
▁developed	-9.26796
by	-9.26837
,”	-9.27024
rt	-9.27026
▁started	-9.27062
▁hands	-9.27074
▁apply	-9.2721
▁block	-9.27265
▁reduce	-9.27283
OR	-9.27315
time	-9.27321
ther	-9.27434
▁da	-9.27448
▁longer	-9.27486
nes	-9.27538
▁century	-9.27575
▁throughout	-9.27608
ient	-9.27661
IS	-9.27811
ris	-9.27937
ound	-9.27941
board	-9.28015
ped	-9.28043
▁standard	-9.28063
▁window	-9.2819
▁complex	-9.28313
gg	-9.28363
nt	-9.28429
▁Gra	-9.28435
▁sun	-9.28485
▁Pe	-9.28635
▁protect	-9.28704
▁month	-9.28775
▁pain	-9.28807
▁ti	-9.28997
ick	-9.28998
▁focus	-9.29032
fin	-9.29095
▁advantage	-9.2915
▁particular	-9.29182
▁users	-9.29216
ration	-9.29316
ff	-9.29319
▁Other	-9.29348
▁fast	-9.29384
▁exercise	-9.29432
ments	-9.29539
▁guarantee	-9.29562
▁mu	-9.2978
vent	-9.29916
▁Ni	-9.29989
▁however	-9.30072
▁Don	-9.30088
▁global	-9.30187
▁materials	-9.30213
▁society	-9.30242
EC	-9.30298
▁Her	-9.30305
▁=	-9.30372
gar	-9.30456
▁popular	-9.30461
mit	-9.3058
▁maintain	-9.30758
▁ago	-9.30833
ological	-9.30849
▁traditional	-9.30885
▁built	-9.30892
▁attention	-9.30933
▁directly	-9.3094
▁review	-9.31051
▁stand	-9.31137
▁effective	-9.31161
▁Com	-9.31346
▁parts	-9.31361
▁potential	-9.3142
▁metal	-9.31451
▁<	-9.31589
▁doing	-9.31796
▁property	-9.31802
▁trade	-9.31912
▁correct	-9.31999
▁capacity	-9.32025
▁bus	-9.32107
▁International	-9.32194
ath	-9.32224
▁beginning	-9.32256
tter	-9.32273
▁pattern	-9.32288
nic	-9.32339
ory	-9.32365
▁bank	-9.32426
▁term	-9.32449
▁guide	-9.32467
alamy	-9.32471
▁events	-9.32555
▁Europe	-9.32652
UR	-9.32688
sco	-9.32716
hol	-9.32797
part	-9.3285
▁whether	-9.32873
▁promote	-9.3288
▁success	-9.32946
In	-9.33024
+	-9.33056
▁Image	-9.33124
▁director	-9.33251
▁gr	-9.33296
▁carry	-9.33308
▁lead	-9.33329
ya	-9.33337
▁remember	-9.33348
cy	-9.33379
ica	-9.3345
▁lack	-9.33477
▁heat	-9.33566
▁studies	-9.33598
▁won	-9.33679
▁appear	-9.33704
ero	-9.33741
tar	-9.33746
gra	-9.33751
work	-9.33879
NA	-9.33911
▁effects	-9.33979
RA	-9.34008
▁du	-9.34014
▁touch	-9.34074
▁Bu	-9.34159
▁Law	-9.3422
▁code	-9.3426
tin	-9.34285
▁click	-9.34449
▁either	-9.34509
▁cap	-9.34691
▁Mon	-9.34748
▁normal	-9.34808
▁cell	-9.34809
▁towards	-9.34945
▁doesn	-9.34968
▁Sp	-9.34979
▁serious	-9.34979
▁dog	-9.34988
▁document	-9.35034
▁Cha	-9.35048
▁word	-9.35064
▁separate	-9.35085
ey	-9.35152
van	-9.35273
▁fight	-9.35282
▁ever	-9.35364
▁themselves	-9.35522
▁force	-9.3556
ake	-9.35822
▁shown	-9.35832
▁download	-9.35847
ert	-9.35882
▁Hotel	-9.35965
▁father	-9.35983
▁Ka	-9.35989
serv	-9.36064
▁anything	-9.36072
▁yet	-9.36225
iz	-9.36257
▁reach	-9.36416
eg	-9.36425
▁Group	-9.36505
▁author	-9.36519
▁station	-9.36525
▁suggest	-9.3655
▁South	-9.36559
▁fit	-9.36563
▁flow	-9.36631
▁yourself	-9.3675
ET	-9.36776
nk	-9.36776
▁couple	-9.36808
▁active	-9.36899
▁Work	-9.36926
Q	-9.3694
▁Bi	-9.36951
▁Du	-9.37181
▁member	-9.37226
▁everyone	-9.37265
light	-9.37296
▁ha	-9.37326
▁accept	-9.37347
▁approach	-9.37393
▁ob	-9.3743
▁medical	-9.37482
▁doctor	-9.37547
▁Ri	-9.37558
▁fl	-9.37566
▁sa	-9.37601
▁therefore	-9.37607
▁RE	-9.37615
▁technical	-9.37638
des	-9.37657
▁staff	-9.37659
▁soon	-9.37688
▁positive	-9.37726
▁takes	-9.37732
led	-9.37764
▁door	-9.37867
illa	-9.37938
▁hot	-9.37948
▁dry	-9.37976
▁collection	-9.38009
▁r	-9.3802
▁perform	-9.38023
press	-9.38039
cer	-9.38129
▁projects	-9.38149
log	-9.38164
▁ten	-9.38171
▁someone	-9.38297
▁degree	-9.38317
▁produce	-9.38318
▁issue	-9.38353
▁exist	-9.38563
▁Red	-9.38606
▁agreement	-9.38608
▁print	-9.38633
▁fruit	-9.38689
ear	-9.38694
▁software	-9.38712
cra	-9.38713
▁unique	-9.38787
den	-9.38842
▁ac	-9.38948
▁Health	-9.39045
▁questions	-9.39057
▁su	-9.39212
▁decision	-9.39336
▁beach	-9.39342
▁behavior	-9.39345
▁asked	-9.39398
▁watch	-9.39436
▁purpose	-9.39509
▁build	-9.39561
▁China	-9.39593
▁learning	-9.39605
rit	-9.39651
We	-9.39702
▁System	-9.39731
▁Ad	-9.39815
▁response	-9.39876
cha	-9.39911
▁TV	-9.39947
▁measures	-9.40048
▁letter	-9.40083
ps	-9.40084
▁sc	-9.401
ay	-9.40155
▁trans	-9.40191
▁...	-9.40375
▁mean	-9.40411
▁patient	-9.4047
▁basic	-9.40536
▁camera	-9.40605
▁president	-9.40654
▁explain	-9.40672
meter	-9.40732
▁values	-9.40735
▁Although	-9.40775
▁achieve	-9.40816
▁acid	-9.40916
▁wanted	-9.4101
▁Tri	-9.41204
ident	-9.41377
▁investment	-9.41631
▁needed	-9.41713
▁behind	-9.41731
▁happy	-9.4175
▁TO	-9.41784
▁source	-9.41796
▁safety	-9.41847
amp	-9.41956
▁daily	-9.42007
han	-9.42183
▁processes	-9.42191
vel	-9.4226
can	-9.42295
▁maximum	-9.42326
▁load	-9.42385
▁lost	-9.42442
▁issues	-9.42457
ong	-9.4249
▁President	-9.42499
▁pool	-9.42571
▁Hi	-9.42598
▁additional	-9.42612
–	-9.4278
ase	-9.42938
▁goal	-9.42946
▁Here	-9.43027
▁Air	-9.4305
▁Bar	-9.43086
▁pe	-9.43095
................	-9.43099
car	-9.43146
▁refer	-9.4318
▁j	-9.43253
▁presented	-9.43271
▁payment	-9.43282
▁leg	-9.43347
▁presence	-9.43358
▁feeling	-9.43501
▁commercial	-9.43567
ATION	-9.43621
▁Comp	-9.43628
▁bag	-9.4366
▁super	-9.43674
▁Inter	-9.43688
▁responsible	-9.43708
▁connect	-9.43755
▁cur	-9.43761
▁fo	-9.43772
ctor	-9.43791
▁Mu	-9.43819
▁match	-9.43821
▁ho	-9.43822
chi	-9.43883
▁web	-9.43933
▁Park	-9.43936
cho	-9.44021
▁glass	-9.44024
RI	-9.44051
▁policy	-9.44067
bu	-9.44091
mar	-9.44193
TA	-9.44214
▁significant	-9.44262
▁During	-9.44305
vers	-9.4433
”.	-9.44366
hu	-9.44445
▁cool	-9.44455
▁mar	-9.44578
▁engine	-9.44632
°	-9.44648
án	-9.44706
▁trip	-9.44825
rate	-9.44839
▁appropriate	-9.44857
mal	-9.44944
▁gave	-9.44993
▁symbol	-9.45035
▁message	-9.45037
▁Q	-9.45105
ify	-9.45139
▁associated	-9.45208
ency	-9.45245
▁shape	-9.4528
nch	-9.4531
▁Jesus	-9.45431
▁origin	-9.45432
▁sell	-9.4551
▁across	-9.45578
▁serve	-9.45604
▁eye	-9.45613
pose	-9.45689
▁Light	-9.4578
▁customers	-9.45906
▁track	-9.45969
▁See	-9.45986
▁board	-9.45993
▁ball	-9.46042
▁Please	-9.46136
▁average	-9.46162
▁arm	-9.46261
cle	-9.46274
▁morning	-9.46371
▁requirements	-9.46389
LO	-9.46399
▁tool	-9.4641
▁images	-9.46424
▁gift	-9.4644
▁options	-9.46562
▁increased	-9.46931
▁balance	-9.4697
▁dream	-9.46974
ute	-9.46981
▁digital	-9.4703
▁mountain	-9.47059
res	-9.47094
lay	-9.47305
▁Latin	-9.47343
ular	-9.47413
▁reported	-9.47429
▁rooms	-9.47436
▁double	-9.47608
▁internal	-9.47894
▁wood	-9.47949
▁French	-9.48026
▁bo	-9.48119
▁details	-9.48143
ib	-9.48161
▁Color	-9.48201
▁Council	-9.48366
▁transfer	-9.48383
▁host	-9.48393
ches	-9.48466
uck	-9.48494
▁via	-9.48496
sp	-9.48578
▁influence	-9.4858
▁shall	-9.48588
tract	-9.48635
▁easily	-9.48697
▁caused	-9.48699
▁species	-9.48839
▁recent	-9.48914
▁programs	-9.48923
par	-9.4893
▁parents	-9.48951
▁seems	-9.48963
ole	-9.48971
▁ship	-9.48985
▁Play	-9.48988
▁First	-9.49059
ists	-9.49124
▁feature	-9.49243
▁bed	-9.49247
▁garden	-9.49249
ants	-9.49259
mark	-9.49375
▁supply	-9.49382
▁owner	-9.49396
▁School	-9.49409
ulation	-9.49428
▁student	-9.4945
struct	-9.49587
▁Chi	-9.49659
▁court	-9.49757
▁baby	-9.49885
ature	-9.49901
▁getting	-9.49945
▁costs	-9.50088
*	-9.50141
ably	-9.50226
▁Part	-9.50447
▁summer	-9.5053
ung	-9.50545
fu	-9.5056
▁central	-9.5058
▁Mr	-9.50606
unt	-9.50611
▁Lu	-9.50708
▁workers	-9.50713
▁volume	-9.50756
▁star	-9.50786
PS	-9.51234
▁became	-9.51252
rd	-9.51294
▁tend	-9.51295
▁sent	-9.51343
▁mark	-9.51359
▁completely	-9.51441
▁saw	-9.51518
sk	-9.5155
▁Hand	-9.51608
▁Then	-9.5165
▁major	-9.51709
▁Si	-9.51717
mic	-9.51802
▁transport	-9.51868
▁obtained	-9.51887
▁object	-9.51906
▁fat	-9.51956
▁applied	-9.51986
▁Since	-9.52007
▁Cal	-9.52041
▁benefits	-9.52101
▁reference	-9.52136
▁happen	-9.52137
▁ideal	-9.52192
▁isolated	-9.52197
▁thus	-9.52246
pon	-9.52288
▁reality	-9.52321
▁son	-9.52326
▁voice	-9.52387
▁loss	-9.52484
▁sex	-9.52557
her	-9.52559
▁mobile	-9.52622
▁quite	-9.5267
▁tools	-9.5268
▁Ver	-9.52729
▁movie	-9.52731
▁credit	-9.52748
▁currently	-9.52808
ose	-9.52817
▁Power	-9.52846
▁Office	-9.52885
▁gives	-9.52908
▁kitchen	-9.53039
▁thanks	-9.53053
all	-9.53082
▁sold	-9.53129
▁ra	-9.53153
OL	-9.53156
ture	-9.53163
mun	-9.53182
▁reflect	-9.53195
gue	-9.53249
▁fish	-9.53263
▁direction	-9.5333
▁though	-9.53381
▁sample	-9.53434
▁fe	-9.53494
ping	-9.53657
ano	-9.53658
▁actions	-9.53659
▁reading	-9.53665
▁adapt	-9.53688
▁Let	-9.53697
pl	-9.53725
▁tri	-9.53878
▁fine	-9.53879
TH	-9.53891
▁foot	-9.53916
▁goes	-9.53999
▁Ac	-9.54008
▁vehicle	-9.54016
tre	-9.54209
▁cha	-9.54218
▁games	-9.54309
▁Day	-9.54326
▁title	-9.54327
▁distance	-9.54424
”,	-9.54468
▁hit	-9.54617
▁variety	-9.54659
▁dark	-9.54682
▁Che	-9.5469
air	-9.54804
▁Note	-9.54818
▁pen	-9.54833
▁Ru	-9.54836
day	-9.54861
▁switch	-9.54891
▁photos	-9.54937
ore	-9.55054
ray	-9.55215
▁meters	-9.5522
▁boy	-9.55373
▁record	-9.55447
▁Commission	-9.55464
▁born	-9.55516
▁led	-9.55522
▁save	-9.5553
ov	-9.55614
uff	-9.55722
ld	-9.55763
▁frame	-9.55828
▁ability	-9.55863
▁command	-9.55877
▁cells	-9.55901
▁Bra	-9.55919
bit	-9.55921
▁opportunity	-9.55943
▁determine	-9.55971
ko	-9.55999
▁custom	-9.56
IA	-9.56015
▁statement	-9.56059
hop	-9.56078
▁cultural	-9.56109
▁Da	-9.56237
▁environmental	-9.56245
ham	-9.56327
▁signal	-9.56363
▁Christ	-9.56398
▁importance	-9.56421
▁suit	-9.56466
▁remove	-9.56527
▁Plan	-9.56551
▁figure	-9.56619
▁Two	-9.56694
ada	-9.56697
▁Tra	-9.56754
ned	-9.56795
bal	-9.56827
▁drop	-9.56848
▁obtain	-9.56851
▁choice	-9.56921
▁factors	-9.5698
▁count	-9.57058
▁Add	-9.57141
▁nu	-9.57188
▁former	-9.57253
▁police	-9.57267
▁cable	-9.57303
▁June	-9.57421
lies	-9.57437
▁seek	-9.57596
ob	-9.57605
oo	-9.57676
▁multiple	-9.57707
▁Each	-9.57762
▁tree	-9.5779
vis	-9.57816
▁lines	-9.57867
▁steel	-9.57894
▁lives	-9.58021
▁March	-9.58024
cus	-9.58196
▁note	-9.58229
▁Val	-9.58281
▁rather	-9.58319
pic	-9.58375
▁quickly	-9.58377
US	-9.58399
▁length	-9.58465
▁eat	-9.5853
▁wish	-9.58541
vol	-9.58565
▁Director	-9.58572
ties	-9.58574
az	-9.5858
▁decided	-9.58588
▁ready	-9.58589
uch	-9.58609
▁player	-9.58612
▁sleep	-9.58687
▁street	-9.58872
▁poor	-9.58878
▁involved	-9.58903
▁micro	-9.59064
▁Figure	-9.59154
▁fully	-9.59201
ax	-9.59268
▁target	-9.59268
▁grow	-9.593
▁establish	-9.59333
ery	-9.59361
TE	-9.59377
▁hospital	-9.59444
▁Pu	-9.59456
▁Make	-9.59486
▁friend	-9.59498
▁plate	-9.59578
▁park	-9.5959
▁nice	-9.5975
▁difference	-9.59856
aw	-9.59893
▁concern	-9.59918
▁soft	-9.59928
▁excellent	-9.59984
▁finish	-9.60002
▁favor	-9.60018
ime	-9.60024
shi	-9.60078
▁published	-9.60085
sign	-9.60161
pp	-9.6018
▁customer	-9.60219
▁North	-9.6023
TER	-9.60232
▁meaning	-9.60302
▁recommend	-9.60306
ev	-9.60381
AD	-9.60401
▁ne	-9.60406
▁Page	-9.60413
▁prior	-9.60437
▁Gi	-9.60455
▁rock	-9.60555
▁Once	-9.60561
su	-9.60595
▁platform	-9.60625
▁limited	-9.60689
▁band	-9.60726
fect	-9.60766
zo	-9.60831
gram	-9.60841
cket	-9.60869
east	-9.60938
▁email	-9.60948
▁route	-9.61007
CH	-9.61063
av	-9.61066
hy	-9.61076
▁Madrid	-9.61114
▁phase	-9.61194
ged	-9.61236
▁Royalty	-9.61284
▁memory	-9.61438
▁else	-9.61484
matic	-9.61498
▁train	-9.61526
▁running	-9.61532
▁extra	-9.61642
®	-9.61652
▁Juan	-9.6166
▁files	-9.61757
ker	-9.61763
▁allowed	-9.61804
my	-9.61822
IL	-9.61841
▁Print	-9.61856
▁menu	-9.61972
oth	-9.62033
▁installation	-9.62055
tical	-9.62124
▁devices	-9.62152
▁Internet	-9.6217
tel	-9.62245
▁round	-9.62246
▁enable	-9.62314
▁giving	-9.62345
lon	-9.62369
ENT	-9.62375
▁secret	-9.6238
ump	-9.62393
ins	-9.62411
fer	-9.62448
▁require	-9.62489
▁Sea	-9.6251
▁expected	-9.62583
▁Sta	-9.62602
▁Government	-9.62619
▁percent	-9.62626
▁parties	-9.62737
▁truth	-9.62745
HO	-9.62789
▁exchange	-9.62794
▁forest	-9.62802
▁limit	-9.62825
▁stress	-9.62833
uc	-9.62837
▁drink	-9.62892
▁described	-9.62994
▁worth	-9.63144
▁scene	-9.63211
▁items	-9.63252
▁Fu	-9.6326
▁UN	-9.63317
▁places	-9.63317
▁December	-9.6333
▁recommended	-9.63356
reg	-9.63586
▁Download	-9.6365
▁selected	-9.63824
▁map	-9.63881
▁initial	-9.63897
▁rule	-9.63964
▁fresh	-9.63976
▁Tu	-9.64054
▁sale	-9.64057
▁driver	-9.64123
▁written	-9.64178
▁error	-9.64214
▁na	-9.64302
▁purchase	-9.6431
ign	-9.64318
▁Control	-9.6434
▁setting	-9.64519
▁Therefore	-9.64541
ama	-9.64565
▁coming	-9.64568
▁Em	-9.6457
▁CO	-9.64594
▁km	-9.64631
mail	-9.64751
lt	-9.64768
▁Water	-9.64784
gro	-9.64798
wo	-9.64842
▁cold	-9.64862
▁Christmas	-9.64925
nal	-9.6494
qua	-9.65019
▁brother	-9.65037
▁equal	-9.65054
▁mm	-9.65065
▁Many	-9.65093
▁Public	-9.65104
▁benefit	-9.65104
▁animals	-9.65107
▁Cre	-9.65141
roll	-9.65154
dal	-9.65223
har	-9.65227
▁Cast	-9.65234
back	-9.65314
▁Just	-9.65345
lf	-9.65402
▁speak	-9.6544
▁mis	-9.65445
▁animal	-9.65493
▁produced	-9.65504
▁Out	-9.65556
ivity	-9.65618
▁fear	-9.65626
▁dead	-9.65633
▁seven	-9.65635
▁flat	-9.65637
▁external	-9.65689
▁generation	-9.65696
▁notice	-9.6571
▁evidence	-9.65736
▁cor	-9.65745
▁sports	-9.65778
▁Fo	-9.65791
▁bathroom	-9.65811
▁Most	-9.65847
▁steps	-9.65856
sol	-9.65928
▁element	-9.65935
ado	-9.66064
▁Cap	-9.66111
tom	-9.66113
▁Sh	-9.66126
▁strength	-9.66171
▁motor	-9.66204
▁comfortable	-9.66247
▁April	-9.66269
tim	-9.66324
▁Sha	-9.66346
▁October	-9.6636
▁church	-9.66379
▁context	-9.66395
ley	-9.66467
atch	-9.66487
ura	-9.66511
▁Even	-9.66565
▁plastic	-9.66605
▁apartment	-9.66667
▁belong	-9.66671
▁install	-9.6668
▁Sal	-9.66684
ome	-9.66702
▁Illustration	-9.66744
AM	-9.66791
It	-9.66975
cing	-9.66997
▁panel	-9.67013
ID	-9.67015
▁Port	-9.67039
▁contribute	-9.67112
year	-9.67308
▁colors	-9.67334
▁tax	-9.67338
▁Am	-9.67339
▁discover	-9.6735
kin	-9.67384
▁contains	-9.67457
over	-9.67529
▁release	-9.6758
▁hi	-9.67588
▁bra	-9.67601
▁France	-9.67677
▁July	-9.67712
▁gold	-9.67729
▁applications	-9.67821
▁para	-9.67825
ult	-9.67847
wn	-9.67977
ward	-9.67977
▁immediately	-9.68065
▁sometimes	-9.6808
ju	-9.68137
bl	-9.68144
▁September	-9.68226
▁Santa	-9.68266
▁mass	-9.68289
nc	-9.68352
▁York	-9.68353
▁begin	-9.68482
▁August	-9.68517
▁stone	-9.686
▁Char	-9.68697
▁sales	-9.68745
mate	-9.68812
▁wine	-9.68854
bar	-9.68871
rist	-9.68907
▁opinion	-9.68909
▁progress	-9.68923
▁Select	-9.68927
lia	-9.69137
▁simply	-9.69147
▁income	-9.69147
▁placed	-9.69169
▁models	-9.69204
▁healthy	-9.69246
▁late	-9.69281
ates	-9.69296
▁Up	-9.69346
ren	-9.69406
lor	-9.69464
body	-9.6952
▁fair	-9.6953
▁turned	-9.69531
▁ways	-9.69629
▁civil	-9.69699
▁sw	-9.6981
▁remain	-9.69851
▁Service	-9.6987
▁German	-9.69914
MA	-9.69969
▁write	-9.70083
▁famous	-9.70089
pre	-9.70134
IR	-9.70136
▁listen	-9.70161
▁useful	-9.70203
▁Ser	-9.7021
▁foreign	-9.70222
SO	-9.70224
▁storage	-9.70247
du	-9.70287
▁PC	-9.70335
▁Because	-9.70335
mpl	-9.70411
lock	-9.70422
▁regarding	-9.70425
▁Yes	-9.70469
▁resolution	-9.70487
Re	-9.70492
▁Card	-9.70493
▁characteristics	-9.70533
▁procedure	-9.7057
▁attend	-9.70596
▁authorities	-9.70656
▁Fi	-9.70664
▁weeks	-9.70669
▁trying	-9.70734
▁status	-9.70767
dri	-9.70809
▁warm	-9.7086
▁win	-9.70883
▁DE	-9.70885
▁Are	-9.70895
▁highly	-9.70899
▁eight	-9.70919
len	-9.70943
▁filter	-9.70951
▁Church	-9.70963
▁wash	-9.70989
▁Republic	-9.71103
▁Business	-9.71103
▁House	-9.71147
▁express	-9.71153
▁Windows	-9.71205
▁Sur	-9.71234
▁requires	-9.71271
▁Well	-9.71328
▁Super	-9.71409
▁Great	-9.71412
app	-9.71456
graph	-9.71488
▁fill	-9.7149
▁Thus	-9.71493
gent	-9.71544
▁profile	-9.71544
pri	-9.71555
▁Bel	-9.71562
▁server	-9.71617
tru	-9.71661
▁occasion	-9.71736
AC	-9.71739
▁firm	-9.71755
▁Sc	-9.71759
▁pick	-9.71834
▁cancer	-9.71934
und	-9.7194
▁II	-9.71951
▁expression	-9.71962
▁John	-9.71974
▁Bri	-9.71992
IM	-9.72016
▁seat	-9.72022
rap	-9.7204
▁met	-9.7209
cc	-9.72196
▁Court	-9.72248
zz	-9.72261
▁indicated	-9.72295
▁Christian	-9.723
▁spread	-9.72343
▁families	-9.72393
CO	-9.72412
▁Girl	-9.72422
ane	-9.72423
▁va	-9.72523
▁treat	-9.72529
ena	-9.72533
▁Another	-9.72548
▁reaction	-9.7256
▁distribution	-9.72577
▁prices	-9.72599
▁skills	-9.72628
pha	-9.72639
▁Cu	-9.72662
iff	-9.72664
ST	-9.72706
▁handle	-9.72735
▁mid	-9.72781
▁ste	-9.72781
▁solutions	-9.728
LA	-9.72851
▁poly	-9.72867
▁respond	-9.72872
▁wind	-9.73029
▁Blue	-9.73036
mission	-9.73038
ough	-9.73045
▁gain	-9.73078
▁Social	-9.7312
place	-9.73158
lig	-9.73162
grad	-9.73205
SE	-9.73254
▁Ter	-9.73287
▁consumption	-9.73334
▁wait	-9.73392
▁hour	-9.73455
▁trust	-9.735
▁Over	-9.73513
▁Fin	-9.73531
▁river	-9.73542
><	-9.73612
▁drug	-9.73634
▁chain	-9.73638
▁science	-9.73667
ware	-9.7368
▁closed	-9.73697
▁coffee	-9.73784
▁ideas	-9.7381
era	-9.73816
▁layer	-9.7387
▁Why	-9.73877
▁affected	-9.7389
▁Col	-9.73943
▁objective	-9.73959
▁appears	-9.73959
▁highest	-9.73965
▁battery	-9.73975
ban	-9.74002
cia	-9.74064
▁writing	-9.74106
▁burn	-9.74108
tes	-9.74177
▁While	-9.74178
▁restaurant	-9.74238
UN	-9.7429
spect	-9.74295
ew	-9.74327
cur	-9.7436
▁Table	-9.74393
▁wear	-9.74445
sur	-9.74464
▁defined	-9.74563
▁rules	-9.74571
▁fashion	-9.7458
▁doubt	-9.74601
ros	-9.74631
▁Education	-9.74652
▁alternative	-9.74685
▁island	-9.74792
▁session	-9.7482
▁ST	-9.74842
▁format	-9.74853
▁felt	-9.74899
▁offered	-9.74982
ade	-9.75023
▁measure	-9.75023
pet	-9.75032
cru	-9.75044
▁hundred	-9.75103
spir	-9.75199
▁military	-9.75216
put	-9.7523
▁traffic	-9.75242
▁MA	-9.75253
bb	-9.75259
▁proposal	-9.75262
▁Get	-9.75268
▁operations	-9.7536
▁January	-9.75395
▁Game	-9.75411
ans	-9.75449
▁negative	-9.75455
rm	-9.75472
▁crime	-9.75497
▁covered	-9.75625
ved	-9.75628
▁starting	-9.75631
▁lock	-9.75679
▁sexual	-9.75686
▁reasons	-9.75742
ía	-9.75748
ria	-9.75911
▁cm	-9.75931
▁representative	-9.75937
▁educational	-9.75954
▁plants	-9.75983
▁bio	-9.76013
▁explained	-9.76013
TION	-9.76022
▁organizations	-9.76041
▁Program	-9.76071
▁happened	-9.76119
q	-9.76124
SA	-9.76267
gan	-9.76333
▁Cla	-9.76368
▁ta	-9.7639
▁maintenance	-9.76405
right	-9.76541
▁forms	-9.76547
▁powerful	-9.76601
▁chance	-9.76714
▁piece	-9.76727
ita	-9.76731
▁square	-9.76736
▁female	-9.76741
▁Party	-9.76745
▁item	-9.76752
▁forward	-9.76798
lation	-9.76821
▁liquid	-9.76822
ses	-9.76864
▁tour	-9.76921
NO	-9.76931
▁instead	-9.77005
▁leading	-9.77026
▁sta	-9.77033
▁players	-9.7705
▁creation	-9.77073
▁leaves	-9.77086
▁farm	-9.77229
not	-9.77238
AP	-9.77247
▁output	-9.77259
▁mi	-9.77286
▁rise	-9.77287
▁Under	-9.7729
▁nor	-9.77309
▁industrial	-9.77377
▁occur	-9.77411
var	-9.77467
▁changed	-9.77487
▁bear	-9.77595
▁economy	-9.77622
▁middle	-9.77651
▁Je	-9.77661
▁remains	-9.77674
▁playing	-9.77768
▁advance	-9.7784
▁functions	-9.77882
▁Sub	-9.77907
rry	-9.77943
▁operating	-9.77977
▁reached	-9.77996
▁improvement	-9.78035
DA	-9.78115
▁conflict	-9.78209
▁opening	-9.78236
▁sky	-9.78244
MP	-9.78273
▁Min	-9.78345
phone	-9.78462
▁represent	-9.78501
CE	-9.78527
▁José	-9.78532
▁participation	-9.78545
top	-9.78588
▁methods	-9.78619
ject	-9.78668
▁November	-9.78682
tation	-9.78694
▁Ge	-9.78776
▁classic	-9.78913
▁compared	-9.78945
▁auto	-9.7898
▁muscle	-9.79
▁manage	-9.79055
▁followed	-9.79096
▁roll	-9.79122
▁resistance	-9.7915
▁urban	-9.79152
▁pet	-9.79162
▁Lord	-9.7919
▁Ben	-9.79209
▁girls	-9.79215
▁View	-9.79238
▁valid	-9.79299
▁components	-9.79315
▁--	-9.79319
own	-9.79348
▁identify	-9.79383
▁Pri	-9.79431
▁combination	-9.79435
▁campaign	-9.7958
ida	-9.79597
▁manager	-9.79613
▁Today	-9.79729
▁yellow	-9.79879
si	-9.79894
▁Chinese	-9.79914
▁wheel	-9.79922
▁breath	-9.79928
▁minimum	-9.79955
▁radio	-9.79999
▁anyone	-9.80006
▁mix	-9.8005
▁draw	-9.80054
▁Mexican	-9.80095
▁suitable	-9.80105
▁connected	-9.80136
ette	-9.80183
▁join	-9.80194
▁Good	-9.80211
▁dance	-9.80253
▁Every	-9.8027
▁bedroom	-9.80325
rk	-9.80396
▁drawing	-9.80428
▁em	-9.80435
▁height	-9.80438
▁Roman	-9.80449
▁infection	-9.80532
▁Ki	-9.80547
ó	-9.80552
▁aspects	-9.80578
lex	-9.8062
▁input	-9.8067
ense	-9.80713
▁Germany	-9.80716
▁causes	-9.80725
▁mission	-9.80763
▁generate	-9.80858
▁sha	-9.80874
▁shop	-9.80924
LI	-9.80997
▁facilities	-9.8102
▁Press	-9.81039
▁PRO	-9.81147
▁rep	-9.81207
▁possibility	-9.81245
ene	-9.81286
ox	-9.8135
▁cycle	-9.81362
▁purposes	-9.81455
▁Only	-9.81543
▁interesting	-9.81564
▁labor	-9.8168
▁collect	-9.81744
▁defend	-9.81837
▁participate	-9.8185
▁kill	-9.81925
▁Wall	-9.81936
box	-9.81976
▁selection	-9.82066
▁properties	-9.82107
▁actually	-9.82143
lect	-9.82224
▁Time	-9.82243
bra	-9.82244
▁finally	-9.82251
▁mechanism	-9.82259
▁contain	-9.82313
▁released	-9.82413
▁spa	-9.82438
cept	-9.82485
▁corresponding	-9.82555
▁largest	-9.82575
▁rain	-9.82596
▁Har	-9.82625
▁electronic	-9.82632
▁paid	-9.8265
▁lose	-9.82658
▁Alamy	-9.82689
▁competition	-9.82738
▁installed	-9.82755
▁alone	-9.82761
▁delivery	-9.82763
▁Los	-9.82856
free	-9.82863
▁practical	-9.82875
▁gene	-9.82936
MI	-9.8297
▁rich	-9.82974
▁flower	-9.8307
▁regard	-9.83097
▁el	-9.83134
aging	-9.83193
▁thousand	-9.83232
ility	-9.83324
▁Check	-9.83389
EM	-9.83408
ik	-9.83411
▁consumer	-9.83454
▁whom	-9.83468
▁brought	-9.83485
▁Open	-9.83492
ji	-9.83569
▁bottom	-9.83594
▁operate	-9.83714
▁understanding	-9.83721
▁Mal	-9.83743
▁shot	-9.83764
▁manual	-9.8381
▁dedicated	-9.83811
▁teaching	-9.83857
tant	-9.83857
▁export	-9.83891
▁symptoms	-9.83894
MS	-9.83939
▁wave	-9.84046
▁update	-9.8407
▁appearance	-9.84099
▁effort	-9.841
▁People	-9.84122
▁basis	-9.84152
▁CA	-9.84162
▁upon	-9.84181
▁Ph	-9.84204
▁chemical	-9.84316
▁independent	-9.84421
▁variable	-9.84443
▁tried	-9.84445
▁pan	-9.84452
▁award	-9.84467
▁comfort	-9.84506
▁played	-9.84529
▁institutions	-9.84534
▁Tru	-9.84553
▁teacher	-9.84562
▁vote	-9.84571
▁Green	-9.84641
▁responsibility	-9.8469
▁FOR	-9.8472
▁protein	-9.84727
▁brain	-9.84732
▁interested	-9.84764
▁zone	-9.84823
hood	-9.84832
▁ring	-9.84857
▁Head	-9.84922
xi	-9.84947
▁daughter	-9.84976
▁Real	-9.8498
▁scale	-9.84988
▁Mor	-9.85001
▁feed	-9.85101
▁club	-9.85189
oid	-9.85217
eva	-9.85226
▁existing	-9.85257
▁attempt	-9.85264
▁prepared	-9.85297
▁strategy	-9.85423
▁Ministry	-9.85438
ash	-9.85475
▁LED	-9.85512
ibility	-9.85519
▁relax	-9.85519
▁peace	-9.8562
▁providing	-9.85666
ili	-9.85682
▁Central	-9.85703
▁copy	-9.85719
gy	-9.85727
teen	-9.8579
▁mentioned	-9.85822
▁painting	-9.85832
phe	-9.8589
tric	-9.85894
&	-9.85937
▁al	-9.85993
▁Sign	-9.86049
▁units	-9.86055
▁license	-9.861
▁diet	-9.86237
lip	-9.86264
▁knew	-9.863
▁ear	-9.86321
▁historical	-9.86333
▁fundamental	-9.8634
aries	-9.86356
▁joint	-9.86484
bel	-9.86499
▁trend	-9.86509
▁determined	-9.86509
▁feet	-9.86681
▁administration	-9.86704
▁Any	-9.86767
CA	-9.86784
▁worked	-9.86797
▁border	-9.86881
▁career	-9.86891
are	-9.86913
▁settings	-9.86916
▁score	-9.86949
▁plans	-9.86953
▁sensor	-9.86974
house	-9.86976
▁landscape	-9.86986
pping	-9.87118
see	-9.87129
▁likely	-9.87153
▁latest	-9.87217
▁pack	-9.8725
▁decrease	-9.87257
like	-9.87281
▁package	-9.87338
▁CON	-9.87359
▁seem	-9.87387
▁Mat	-9.87404
▁master	-9.87414
bs	-9.87448
▁depending	-9.87491
▁Exp	-9.87513
▁chi	-9.87568
html	-9.87587
▁measurement	-9.87651
rus	-9.87672
▁interview	-9.87689
▁achieved	-9.87725
▁Sun	-9.87739
▁favorite	-9.87828
dle	-9.8784
ook	-9.87858
▁relevant	-9.88031
DI	-9.88052
pricing	-9.88054
▁freedom	-9.88101
▁task	-9.88276
▁looks	-9.88311
ok	-9.88319
▁commitment	-9.88342
▁pump	-9.88393
vid	-9.88437
▁Management	-9.88448
▁encourage	-9.88493
ek	-9.88497
▁medium	-9.88502
▁despite	-9.88524
▁race	-9.88568
▁Auto	-9.88612
▁tu	-9.88665
▁Special	-9.88687
▁Top	-9.8873
acy	-9.88802
cess	-9.88805
▁solid	-9.8882
ella	-9.88849
▁Island	-9.88887
▁hat	-9.8892
▁thinking	-9.88939
cor	-9.88944
bur	-9.88959
▁performed	-9.89002
▁adjust	-9.89017
▁policies	-9.89018
▁particularly	-9.89059
yo	-9.89068
IG	-9.89197
▁Information	-9.89217
ography	-9.89286
tern	-9.89375
▁partner	-9.89407
Ma	-9.89429
▁managed	-9.89495
▁Uni	-9.89621
ming	-9.89632
▁recognized	-9.89677
PE	-9.89686
▁vision	-9.89698
ú	-9.89714
cro	-9.89834
▁Who	-9.8989
▁holding	-9.89996
▁Trans	-9.90157
▁helps	-9.90167
▁Board	-9.90229
bin	-9.90235
atory	-9.90244
$	-9.90268
▁outdoor	-9.90285
ons	-9.90307
▁planning	-9.90372
▁procedures	-9.90406
oma	-9.90406
▁Human	-9.90476
▁spring	-9.90538
▁reduced	-9.90602
▁Key	-9.90672
bor	-9.90675
▁primary	-9.90679
ack	-9.90709
▁Villa	-9.90712
▁scientific	-9.90717
ese	-9.90734
▁violence	-9.90748
wear	-9.90838
▁client	-9.9084
▁HD	-9.90873
lam	-9.90906
arm	-9.90951
▁Find	-9.90966
▁Ab	-9.9099
▁standards	-9.91012
▁becomes	-9.91103
duc	-9.91193
▁characters	-9.91233
▁Back	-9.91263
▁picture	-9.91265
based	-9.9128
otic	-9.91299
CI	-9.9132
▁Development	-9.91357
▁bottle	-9.91387
▁investigation	-9.91434
▁interior	-9.91446
af	-9.91482
▁spirit	-9.91485
▁waste	-9.91486
night	-9.91497
▁evaluation	-9.9159
▁Take	-9.91601
▁Barcelona	-9.91699
▁February	-9.91707
MENT	-9.91741
▁topic	-9.91745
dic	-9.91758
▁Nu	-9.91761
▁fabric	-9.91786
▁Right	-9.91791
▁Mac	-9.91829
▁factor	-9.91878
▁comment	-9.9191
pel	-9.91915
▁efficient	-9.91919
▁photograph	-9.92038
▁aim	-9.92118
lk	-9.9212
ect	-9.92269
▁finger	-9.92308
▁coast	-9.92319
uk	-9.92347
▁expand	-9.924
▁creating	-9.92425
▁growing	-9.92449
▁ju	-9.92504
▁graphic	-9.92506
▁Ste	-9.92515
);	-9.92522
▁Bank	-9.92528
▁developing	-9.92539
▁budget	-9.92557
▁generally	-9.92558
▁si	-9.92659
iti	-9.92777
je	-9.92786
una	-9.92813
rin	-9.92933
▁wife	-9.92938
▁clients	-9.92998
▁cities	-9.9301
▁Member	-9.93072
▁flowers	-9.93086
▁accident	-9.93112
▁Code	-9.9313
▁deliver	-9.93151
▁root	-9.93197
ara	-9.93201
▁Union	-9.93214
▁died	-9.93241
▁networks	-9.93292
proof	-9.93297
▁Committee	-9.93358
▁Anti	-9.93497
▁taste	-9.9359
▁fuel	-9.93664
▁channel	-9.9367
▁Amazon	-9.93685
rag	-9.93751
▁corner	-9.93763
▁sand	-9.93767
▁expect	-9.93778
cycl	-9.93832
▁automatically	-9.93945
▁log	-9.93945
▁leaving	-9.93965
▁beyond	-9.93981
vin	-9.93996
▁paint	-9.94106
arch	-9.94119
UL	-9.94149
ña	-9.94153
▁Images	-9.94164
▁Article	-9.94214
▁Department	-9.9423
▁Long	-9.9426
▁regional	-9.94262
▁goals	-9.943
cular	-9.94319
▁communities	-9.94334
▁sources	-9.94336
▁pur	-9.94379
▁bright	-9.94459
▁announced	-9.9448
▁Sol	-9.94506
▁detail	-9.94517
▁probably	-9.94552
rupt	-9.94552
▁govern	-9.94607
▁happens	-9.94614
▁crisis	-9.94632
▁earth	-9.94648
▁River	-9.94664
▁arrived	-9.94744
verse	-9.94812
▁initiative	-9.94858
▁@	-9.94861
terior	-9.94873
▁decide	-9.94873
▁cloud	-9.94875
ators	-9.94876
▁profit	-9.94918
▁spot	-9.94946
▁kids	-9.94949
▁bird	-9.94971
clo	-9.95003
▁slow	-9.95005
GO	-9.9502
▁pieces	-9.95033
▁challenge	-9.95059
▁contribution	-9.95082
▁books	-9.9515
▁Ber	-9.95264
▁hum	-9.95364
off	-9.95368
ky	-9.95422
▁annual	-9.9543
ney	-9.9545
IP	-9.95475
▁sheet	-9.9556
licenses	-9.95561
▁wrong	-9.95572
nish	-9.95615
rated	-9.95618
▁beauty	-9.95638
▁employees	-9.95658
▁fi	-9.95662
zi	-9.95674
▁formula	-9.95823
▁East	-9.95849
CC	-9.95889
▁London	-9.9589
term	-9.95907
▁Show	-9.95911
net	-9.95994
▁tourist	-9.95995
with	-9.96009
book	-9.96063
▁male	-9.96064
▁heard	-9.96111
▁electric	-9.9623
▁Nor	-9.96295
▁song	-9.96301
table	-9.96395
▁‘	-9.96443
▁arrive	-9.96449
▁substance	-9.96468
▁cup	-9.965
IF	-9.96514
mination	-9.96534
cm	-9.96542
ou	-9.96564
▁critical	-9.96601
▁logo	-9.96609
▁Google	-9.96644
▁camp	-9.96722
▁mouth	-9.96776
▁monitor	-9.96812
▁Data	-9.96829
▁invest	-9.96885
ola	-9.96933
):	-9.96956
▁die	-9.96976
▁King	-9.96994
lit	-9.97006
cel	-9.97013
▁regular	-9.97044
TO	-9.97046
fla	-9.97055
itis	-9.97091
▁consist	-9.97153
▁chair	-9.9719
▁conduct	-9.97251
▁Ed	-9.97251
▁relative	-9.97259
▁organ	-9.97408
▁Picture	-9.97421
▁Fre	-9.97432
▁strengthen	-9.97447
▁north	-9.97523
▁thr	-9.97527
▁reduction	-9.97533
▁techniques	-9.97534
wing	-9.97567
▁tip	-9.97601
▁Multi	-9.97664
▁earn	-9.97705
▁successful	-9.97712
▁Before	-9.97828
▁USB	-9.97863
burg	-9.97925
▁spoke	-9.97934
▁Institute	-9.9802
dent	-9.98098
▁CH	-9.98182
▁ver	-9.98189
▁remote	-9.98221
▁mainly	-9.98223
▁birth	-9.98331
ona	-9.98345
din	-9.98371
ential	-9.98382
▁str	-9.98407
▁Paris	-9.98417
med	-9.98444
▁prison	-9.98447
▁saying	-9.98453
▁forces	-9.98462
▁proposed	-9.98527
ora	-9.98573
view	-9.98575
▁presentation	-9.98604
cip	-9.98628
▁sweet	-9.98649
▁implementation	-9.98666
▁miss	-9.98672
fra	-9.98687
▁desire	-9.98689
▁counter	-9.98731
▁edge	-9.98772
▁accordance	-9.98774
▁Ana	-9.98819
▁module	-9.98877
cin	-9.98881
▁consult	-9.98891
▁wooden	-9.98901
▁involve	-9.98942
▁pull	-9.98971
▁Ob	-9.98972
▁teachers	-9.98979
▁objects	-9.98984
▁minor	-9.99025
Ch	-9.99026
illo	-9.99093
▁Security	-9.9917
▁dimension	-9.99171
▁Bal	-9.99176
▁Children	-9.9919
▁Italy	-9.99238
▁shared	-9.99239
▁news	-9.99265
▁thank	-9.99281
nia	-9.99307
▁Read	-9.99404
▁inform	-9.99427
▁flight	-9.99436
▁looked	-9.99518
por	-9.99547
lea	-9.99574
▁uses	-9.99575
▁op	-9.99609
▁transform	-9.9965
▁framework	-9.99699
aff	-9.99723
▁documents	-9.99762
▁trial	-9.99777
▁flu	-9.99791
▁import	-9.99792
▁Gar	-9.99881
▁fulfill	-9.99941
dies	-9.99955
▁©	-9.99956
OD	-9.99964
▁soul	-9.99971
▁neighborhood	-9.99988
▁correspond	-10.0001
▁Israel	-10.0003
▁Finally	-10.0011
▁province	-10.0012
rous	-10.0014
▁states	-10.0017
▁visual	-10.0018
▁south	-10.002
▁Sunday	-10.0025
▁consists	-10.0026
▁define	-10.0026
ographic	-10.0031
▁Connect	-10.0034
▁leader	-10.0034
▁Leg	-10.0034
▁Reg	-10.0035
▁Name	-10.0036
▁Paul	-10.004
▁»	-10.0041
▁fan	-10.0043
▁repair	-10.0046
rn	-10.0056
▁winter	-10.006
▁nation	-10.0062
▁cream	-10.0063
▁scar	-10.0066
▁Bur	-10.007
rating	-10.0071
rea	-10.0072
▁Both	-10.0074
dia	-10.0076
▁extract	-10.008
▁Cat	-10.008
▁agree	-10.0082
▁continued	-10.0085
▁opportunities	-10.0087
point	-10.0092
▁organized	-10.0093
▁views	-10.0097
▁instrument	-10.0108
▁recently	-10.0113
▁individuals	-10.0116
▁Argentina	-10.0122
▁identified	-10.0123
▁Type	-10.0124
▁myself	-10.0126
▁label	-10.0134
▁manufacturer	-10.0137
eo	-10.0138
▁Ko	-10.0139
▁convert	-10.0141
▁continuous	-10.0146
▁fix	-10.0148
▁invention	-10.0151
▁constant	-10.0157
til	-10.0162
▁Post	-10.0166
▁failure	-10.0167
▁milk	-10.0167
TS	-10.0168
gui	-10.0172
▁pla	-10.0173
▁destroy	-10.0175
▁iron	-10.0179
vic	-10.0182
ference	-10.0183
▁television	-10.0193
ku	-10.0195
▁Italian	-10.0197
▁Click	-10.0201
OP	-10.0203
▁sentence	-10.0203
▁passed	-10.0204
▁trees	-10.0207
▁decade	-10.0208
▁habit	-10.0209
▁forget	-10.0209
▁intervention	-10.0212
▁tube	-10.0218
▁mental	-10.023
ATE	-10.0232
▁Pen	-10.0234
▁Va	-10.0235
▁concentration	-10.0239
▁tests	-10.0242
▁MO	-10.0243
duct	-10.0248
▁generated	-10.025
▁Shi	-10.025
rac	-10.025
▁Star	-10.0251
oper	-10.026
▁Bre	-10.0263
▁reports	-10.0264
tting	-10.0269
▁smooth	-10.0271
▁spend	-10.028
▁definition	-10.028
▁clearly	-10.0285
▁Where	-10.0287
▁approximately	-10.0301
▁Company	-10.0314
stock	-10.0317
▁sin	-10.0318
▁waiting	-10.032
ME	-10.0321
▁Del	-10.0329
▁previously	-10.0331
▁advanced	-10.0335
▁Support	-10.0335
ín	-10.0339
▁huge	-10.0339
▁Best	-10.0344
▁experiment	-10.0353
▁push	-10.0354
▁climate	-10.0362
test	-10.0363
▁highlight	-10.0364
logical	-10.0364
▁sum	-10.0374
ians	-10.0378
▁weapon	-10.0382
▁Brazil	-10.0386
PP	-10.0387
long	-10.0389
/?	-10.0391
ache	-10.0391
▁disc	-10.0392
▁Tre	-10.0394
▁sugar	-10.0396
▁reserve	-10.0397
PA	-10.0404
▁boat	-10.0407
suit	-10.0412
▁SA	-10.0416
▁permanent	-10.0416
OC	-10.0418
BA	-10.0419
OW	-10.0421
▁medicine	-10.0424
ender	-10.0427
▁Web	-10.043
pan	-10.0434
▁Start	-10.0436
▁observed	-10.0437
▁opened	-10.0438
▁circuit	-10.0441
▁indicator	-10.0441
▁Earth	-10.0445
▁celebrate	-10.0446
NC	-10.0447
ith	-10.0449
eb	-10.0453
▁Africa	-10.0459
Co	-10.0461
▁Size	-10.0467
▁actor	-10.0471
▁enhance	-10.0472
▁Young	-10.048
mes	-10.0485
▁flag	-10.0486
▁begins	-10.0489
piece	-10.0495
▁hole	-10.0498
gua	-10.0498
▁criminal	-10.05
▁egg	-10.0502
▁USA	-10.0505
ave	-10.051
position	-10.0512
▁pretty	-10.0513
▁village	-10.0514
▁occurs	-10.0525
▁confirm	-10.053
itation	-10.0536
inal	-10.0536
down	-10.0537
▁pair	-10.0537
▁guy	-10.0546
▁Friday	-10.0547
▁department	-10.0555
▁Carlos	-10.0555
▁fly	-10.0556
▁Pan	-10.0556
ari	-10.0558
temp	-10.0562
▁exceed	-10.0568
You	-10.0574
▁relation	-10.0575
▁Chile	-10.0577
▁fixed	-10.0577
ink	-10.058
ternal	-10.0581
▁heavy	-10.0584
ement	-10.0584
▁horse	-10.0595
pu	-10.0602
▁Like	-10.0603
▁sport	-10.0603
▁Tour	-10.0604
▁meat	-10.0606
▁weather	-10.0607
ball	-10.0613
▁quick	-10.062
hal	-10.062
hen	-10.0621
pat	-10.0621
▁cook	-10.0624
▁Project	-10.0629
head	-10.0629
▁depend	-10.063
▁composition	-10.0636
tech	-10.0638
▁offering	-10.0639
▁Video	-10.0641
▁Luis	-10.0643
▁describe	-10.065
ken	-10.065
▁threat	-10.065
UT	-10.0653
▁formed	-10.0656
▁linked	-10.0658
▁represents	-10.066
▁fiber	-10.0662
▁solve	-10.0663
wel	-10.0665
▁equipped	-10.0666
▁removed	-10.0672
▁preparation	-10.0674
▁par	-10.0681
▁tissue	-10.0683
▁Case	-10.0693
ula	-10.0695
▁moving	-10.0698
▁kept	-10.0702
lot	-10.0707
▁supported	-10.0709
▁named	-10.0712
▁compound	-10.0712
▁destination	-10.0713
▁aware	-10.0714
▁Colombia	-10.0718
even	-10.0718
▁bone	-10.0721
▁continues	-10.0721
curr	-10.0722
▁rates	-10.0724
▁promotion	-10.073
▁salt	-10.0732
▁Japanese	-10.0736
VI	-10.0737
▁Model	-10.0738
▁cleaning	-10.0744
He	-10.0747
▁increasing	-10.076
▁tank	-10.0764
▁regulations	-10.0766
▁Room	-10.0769
NE	-10.078
▁album	-10.0783
▁majority	-10.0787
▁stream	-10.0789
▁mini	-10.0793
▁marketing	-10.0794
▁shoot	-10.0806
▁judge	-10.0809
▁Venezuela	-10.0815
?"	-10.0817
well	-10.082
▁Services	-10.0822
▁hear	-10.083
▁efforts	-10.083
▁planet	-10.0833
▁category	-10.0836
▁interface	-10.0839
▁efficiency	-10.0841
▁bath	-10.0841
▁Camp	-10.0842
▁Cup	-10.0844
▁tire	-10.0852
▁container	-10.0854
▁processing	-10.0855
▁situations	-10.0855
▁practices	-10.0858
bon	-10.0867
▁assume	-10.0874
▁arch	-10.0876
▁scan	-10.0876
▁smile	-10.0877
▁bull	-10.088
▁shirt	-10.0882
onic	-10.0892
▁insurance	-10.0892
▁le	-10.0894
▁Food	-10.09
ire	-10.0905
▁tradition	-10.0906
▁Museum	-10.0907
▁Have	-10.0913
agon	-10.0916
▁existence	-10.0919
ically	-10.0925
▁finished	-10.0926
stitution	-10.093
▁wants	-10.0932
▁coll	-10.0944
▁Old	-10.0944
win	-10.0946
▁easier	-10.0947
▁Gal	-10.0947
▁EU	-10.0949
▁Year	-10.0956
▁adult	-10.096
vert	-10.0961
▁magic	-10.0964
▁Japan	-10.097
▁Among	-10.0972
▁talking	-10.098
▁promise	-10.0986
mat	-10.0989
DE	-10.0997
▁approved	-10.0997
fold	-10.0999
iness	-10.1005
▁religious	-10.1013
SI	-10.1015
▁battle	-10.1017
pper	-10.1018
▁recognize	-10.1021
▁Love	-10.1026
▁kit	-10.1029
color	-10.1035
▁recover	-10.1035
▁shoes	-10.104
▁whi	-10.1041
▁Bla	-10.1043
▁fee	-10.1046
▁Market	-10.1054
▁disappear	-10.1059
▁throw	-10.1062
▁column	-10.1073
dis	-10.1073
▁tea	-10.1073
▁Cover	-10.1077
▁faith	-10.1083
dication	-10.1087
▁Za	-10.1089
▁capture	-10.1091
▁clinical	-10.1099
▁AC	-10.1102
tory	-10.1104
▁«	-10.1104
ush	-10.111
itive	-10.1117
▁emb	-10.1118
▁Master	-10.112
vil	-10.1124
ifies	-10.1124
▁stated	-10.1125
▁clothes	-10.1125
uring	-10.113
▁Contact	-10.1131
ncy	-10.1134
▁SE	-10.1137
▁Background	-10.1139
▁lip	-10.1139
▁valve	-10.1139
tent	-10.1139
▁dynamic	-10.114
stand	-10.1141
▁chapter	-10.1144
▁schools	-10.1146
▁Book	-10.1148
▁differences	-10.115
▁pipe	-10.1154
path	-10.1165
▁completed	-10.118
▁identity	-10.118
▁capable	-10.1182
▁novel	-10.1183
▁straight	-10.1185
▁walking	-10.1186
gre	-10.1188
late	-10.119
eu	-10.1191
radi	-10.1191
tile	-10.1192
▁British	-10.1194
▁rid	-10.1197
▁description	-10.1199
▁Through	-10.12
▁typical	-10.1207
▁decoration	-10.1213
▁numbers	-10.1213
▁detect	-10.1214
ela	-10.1215
▁returned	-10.1218
▁disorder	-10.1222
▁wedding	-10.1224
avi	-10.1225
water	-10.1228
▁chosen	-10.1232
▁Er	-10.1232
room	-10.1237
tz	-10.1242
▁perspective	-10.1244
▁commu	-10.1247
▁showed	-10.125
▁sitting	-10.1253
▁treated	-10.1255
▁edition	-10.1256
▁pin	-10.1264
▁criteria	-10.1268
▁ser	-10.1269
▁signs	-10.1272
▁upper	-10.1274
%)	-10.1275
▁plus	-10.1285
▁AD	-10.1292
ace	-10.1296
las	-10.1297
▁texture	-10.13
▁reform	-10.1308
ame	-10.1315
▁ran	-10.1321
▁min	-10.1321
▁truck	-10.1324
lum	-10.1324
▁Pin	-10.1325
▁coat	-10.1328
▁secure	-10.1329
cial	-10.1329
▁prepare	-10.1334
▁West	-10.134
▁proceed	-10.1347
▁Full	-10.1349
▁cartoon	-10.1349
▁virtual	-10.1355
▁friendly	-10.1357
▁provider	-10.1362
▁constitute	-10.1364
▁IP	-10.1367
hin	-10.1367
dom	-10.1369
▁technique	-10.1369
▁Ya	-10.1373
▁cho	-10.1379
OM	-10.1383
PR	-10.1385
hor	-10.1385
▁registered	-10.1387
rant	-10.139
▁Life	-10.1391
▁Test	-10.1392
▁ME	-10.1394
▁jump	-10.1394
▁ID	-10.1397
ux	-10.1399
▁deposit	-10.14
ALL	-10.1405
▁extremely	-10.1408
▁breakfast	-10.1409
▁finding	-10.1415
▁formation	-10.1418
▁Beach	-10.142
▁Thanks	-10.1421
▁Line	-10.1422
▁recorded	-10.1424
▁Second	-10.1424
▁architecture	-10.1429
▁virus	-10.143
nel	-10.1431
▁Step	-10.1434
ologist	-10.1434
▁perhaps	-10.1439
▁Hy	-10.144
▁entered	-10.1443
▁honor	-10.1448
▁cards	-10.1451
▁ancient	-10.1451
pple	-10.1454
▁ourselves	-10.1454
▁defense	-10.1459
hr	-10.146
▁hydro	-10.1461
▁insert	-10.1461
▁district	-10.1462
▁clip	-10.1466
▁Ven	-10.1467
▁Monday	-10.147
▁fans	-10.1474
▁€	-10.1474
SC	-10.1475
OT	-10.1476
▁Op	-10.1477
▁seal	-10.1477
name	-10.1479
▁union	-10.148
▁monitoring	-10.148
▁soil	-10.148
pen	-10.1484
▁obligation	-10.1485
▁Tool	-10.1495
▁showing	-10.15
▁Gold	-10.1501
▁angle	-10.1502
rio	-10.1503
▁fr	-10.1507
USD	-10.1507
ancing	-10.1507
itch	-10.1509
▁decisions	-10.151
cade	-10.1512
▁Association	-10.1514
▁drugs	-10.1521
▁Low	-10.1521
▁intended	-10.1525
▁older	-10.1528
▁analyze	-10.1528
▁spiritual	-10.1531
▁electro	-10.1533
zar	-10.1533
▁classes	-10.1537
made	-10.1539
ional	-10.1539
▁except	-10.1541
▁increases	-10.1543
▁lived	-10.1553
▁California	-10.1556
physi	-10.1556
flow	-10.1557
▁launch	-10.1558
▁Form	-10.1564
▁carbon	-10.1564
▁pop	-10.1565
▁pink	-10.1569
▁atmosphere	-10.1572
▁ice	-10.1572
▁Those	-10.1573
chan	-10.1573
▁theory	-10.1575
▁served	-10.1577
▁wonderful	-10.158
mbo	-10.1588
▁Russian	-10.1588
▁debt	-10.159
▁strategies	-10.1591
▁Baby	-10.1592
▁IS	-10.1592
▁Saturday	-10.1596
SD	-10.1599
▁Science	-10.1603
▁Very	-10.1614
▁Bro	-10.1615
ecu	-10.1616
play	-10.162
osis	-10.1621
▁Sam	-10.1628
▁diseases	-10.1628
▁saving	-10.163
▁lift	-10.1631
▁entry	-10.1641
lli	-10.1646
▁indicate	-10.1648
▁ni	-10.1652
▁larger	-10.1653
ml	-10.1653
▁Est	-10.1661
▁Minister	-10.1665
key	-10.1667
VA	-10.1667
▁strip	-10.1672
load	-10.1677
anda	-10.1678
▁Pla	-10.1679
▁Cri	-10.1681
▁internet	-10.1682
▁euros	-10.1683
oph	-10.1685
ending	-10.1686
▁association	-10.1689
▁citizens	-10.169
char	-10.1691
▁experiences	-10.1693
▁India	-10.1694
arian	-10.1699
VER	-10.17
▁artist	-10.1709
▁pure	-10.1712
IV	-10.1716
▁instructions	-10.1716
▁airport	-10.172
▁assistance	-10.1722
▁amazing	-10.1725
▁technologies	-10.1726
▁attitude	-10.1729
▁extension	-10.1732
rum	-10.1733
▁moved	-10.1736
▁organic	-10.1741
▁objectives	-10.1745
▁stick	-10.1747
▁rose	-10.1757
▁broad	-10.1759
▁electrical	-10.1764
▁raised	-10.1765
▁database	-10.1766
▁Photos	-10.1769
tress	-10.1769
▁stories	-10.1776
▁wild	-10.1783
▁pages	-10.1785
uro	-10.1793
▁creative	-10.1797
del	-10.1803
▁fer	-10.1805
▁gray	-10.1808
TI	-10.1808
logy	-10.1811
mod	-10.1812
flu	-10.1813
▁Big	-10.1814
▁Peru	-10.1822
▁cast	-10.1823
▁plug	-10.183
▁billion	-10.1833
▁infrastructure	-10.1841
▁guard	-10.1842
▁ticket	-10.1847
▁Call	-10.1848
▁Dia	-10.1849
▁follows	-10.1851
ani	-10.1853
▁expert	-10.1853
▁professionals	-10.1858
▁severe	-10.1861
▁learned	-10.1872
▁snow	-10.1877
ESS	-10.1877
CT	-10.188
▁bodies	-10.1881
▁Fashion	-10.1883
ata	-10.1884
IO	-10.1892
▁Cam	-10.19
▁proper	-10.1903
▁UK	-10.1905
▁brown	-10.1906
▁syn	-10.1906
▁CD	-10.1908
▁conference	-10.1914
▁default	-10.1917
peak	-10.1921
▁mask	-10.1921
GE	-10.1921
▁cheap	-10.1921
▁neighbor	-10.1925
▁Music	-10.1931
▁harm	-10.1932
AB	-10.1936
▁recovery	-10.1937
ural	-10.1952
▁Medi	-10.1954
▁revolution	-10.1955
▁husband	-10.1963
▁vehicles	-10.1963
▁authority	-10.1969
SP	-10.1974
urge	-10.1975
fici	-10.1979
▁nine	-10.1986
aga	-10.1989
PER	-10.199
▁arms	-10.2005
▁fund	-10.201
eng	-10.2016
▁stars	-10.2017
▁Will	-10.2018
▁expressed	-10.202
▁changing	-10.2022
▁leaders	-10.2027
▁Guide	-10.2028
▁holiday	-10.2028
poli	-10.2029
bla	-10.2031
lio	-10.2038
ily	-10.2042
▁frequency	-10.2045
▁audio	-10.2048
▁figures	-10.2048
hua	-10.205
▁accessories	-10.205
▁emergency	-10.2051
@	-10.2052
▁understood	-10.2052
▁alter	-10.2053
ould	-10.2055
care	-10.2056
▁Sen	-10.2057
▁demonstrate	-10.2066
▁election	-10.2067
rr	-10.2068
RC	-10.2074
fusion	-10.2074
▁Ci	-10.2077
▁relationships	-10.2079
▁workshop	-10.2081
PI	-10.2084
tail	-10.2085
▁tasks	-10.2089
bre	-10.2092
Po	-10.2093
▁welcome	-10.2094
scription	-10.2096
▁bill	-10.2101
▁mention	-10.2102
rc	-10.2103
▁exactly	-10.2109
RES	-10.211
ITY	-10.2111
»	-10.2114
▁colon	-10.2114
▁producer	-10.2117
▁participants	-10.212
▁loan	-10.2123
▁Par	-10.2124
▁principle	-10.2126
▁principles	-10.2129
ister	-10.213
▁prefer	-10.2131
▁minute	-10.2132
▁Look	-10.2138
▁epi	-10.2143
▁integrated	-10.2143
under	-10.2144
▁Street	-10.2145
▁advice	-10.2146
▁focused	-10.2148
▁fluid	-10.2153
▁User	-10.2154
▁evolution	-10.2155
▁innovation	-10.2155
▁suffer	-10.2157
▁afternoon	-10.2161
▁laws	-10.2162
zy	-10.2165
▁accompanied	-10.2169
▁Indian	-10.2171
▁confirmed	-10.2175
rig	-10.2177
wise	-10.2179
▁percentage	-10.2183
rom	-10.2185
ock	-10.2186
▁markets	-10.2188
▁adults	-10.2192
▁seemed	-10.2194
ended	-10.2195
▁Plus	-10.22
La	-10.2201
▁cal	-10.2203
▁Research	-10.221
▁concrete	-10.2211
▁dose	-10.2214
▁centers	-10.2224
▁Wood	-10.2224
▁Sch	-10.2227
ECT	-10.2229
▁adopt	-10.2233
▁walls	-10.2233
▁agents	-10.2241
▁Para	-10.2247
▁rare	-10.2247
▁breast	-10.2251
▁academic	-10.2257
▁LA	-10.226
▁mono	-10.2261
EP	-10.2266
▁expense	-10.2272
▁mixture	-10.2273
▁manufacture	-10.2279
gal	-10.2279
get	-10.2281
▁territory	-10.2281
▁occurred	-10.2282
▁survey	-10.2283
col	-10.2284
▁wire	-10.2292
▁pictures	-10.2293
▁shower	-10.2297
▁yes	-10.23
NS	-10.2303
▁leads	-10.2305
▁greatest	-10.2309
▁candidate	-10.2322
▁Mini	-10.2323
▁EX	-10.2323
▁mod	-10.2324
▁signed	-10.2326
▁sal	-10.2334
▁Im	-10.2339
▁configuration	-10.2342
▁spaces	-10.2343
▁png	-10.2343
wards	-10.2344
▁renew	-10.2345
▁formal	-10.2351
▁IT	-10.2361
▁quiet	-10.2367
▁numerous	-10.2371
▁voltage	-10.2371
▁leather	-10.2371
ean	-10.2377
▁emerge	-10.2384
fit	-10.2385
▁videos	-10.2385
▁quarter	-10.2388
where	-10.2389
Com	-10.2395
▁rear	-10.2396
▁Stra	-10.2396
ii	-10.2398
▁depends	-10.2398
ulated	-10.24
▁driving	-10.241
▁boot	-10.241
ami	-10.2411
▁evaluate	-10.2412
hydr	-10.2413
IVE	-10.2414
don	-10.2418
FI	-10.2418
▁Woman	-10.2424
▁parking	-10.2428
ground	-10.2428
▁Beautiful	-10.2429
Fi	-10.2432
quar	-10.2433
some	-10.2433
▁discussion	-10.2434
▁sister	-10.2438
lle	-10.2441
▁Natural	-10.2446
▁implement	-10.246
gle	-10.2466
▁exc	-10.2472
▁houses	-10.2472
▁Australia	-10.2473
▁sites	-10.2474
▁reveal	-10.2478
Shirt	-10.2481
encies	-10.2483
▁agreed	-10.2485
▁plane	-10.2488
udi	-10.2488
vor	-10.249
▁engage	-10.2496
RS	-10.2504
▁assets	-10.2509
bus	-10.2509
▁fell	-10.2509
ening	-10.2509
▁circle	-10.251
▁reject	-10.2516
▁photography	-10.2516
cil	-10.2517
▁extend	-10.252
▁detailed	-10.252
▁Fer	-10.2521
UM	-10.2521
atic	-10.2524
nar	-10.2526
▁Gift	-10.2536
▁wrote	-10.2537
▁delay	-10.2538
▁foundation	-10.2544
tive	-10.2544
▁challenges	-10.2546
▁Hair	-10.2546
▁combined	-10.2546
▁silver	-10.2548
▁Dress	-10.255
▁incorporate	-10.2556
ico	-10.2561
ogen	-10.2561
ANT	-10.2566
▁surgery	-10.2568
~	-10.2569
▁arrest	-10.2579
▁officer	-10.258
▁María	-10.2581
direct	-10.2584
▁Russia	-10.2589
▁manner	-10.2589
No	-10.2594
▁Tele	-10.2596
▁core	-10.2599
▁football	-10.26
▁Vol	-10.2604
nu	-10.2609
▁manifest	-10.261
▁component	-10.2611
▁calls	-10.2614
▁Flor	-10.2616
▁Den	-10.2618
CR	-10.262
▁bri	-10.2623
▁passion	-10.2624
LY	-10.2626
▁god	-10.2628
read	-10.2632
▁specified	-10.2633
This	-10.2634
▁messages	-10.2636
▁pot	-10.264
▁domestic	-10.2642
▁alcohol	-10.2645
▁Cons	-10.2649
list	-10.2653
▁buildings	-10.266
▁cent	-10.2664
▁shipping	-10.2665
ories	-10.2665
▁template	-10.2667
▁Three	-10.2667
▁instance	-10.2671
ador	-10.2677
▁Mc	-10.2678
▁experienced	-10.2679
▁therapy	-10.2679
loc	-10.2679
▁thick	-10.2679
▁Report	-10.2683
▁raise	-10.2685
▁characterized	-10.2689
▁grade	-10.2691
▁Box	-10.2691
unch	-10.2692
▁becoming	-10.2692
▁obvious	-10.2694
▁facilitate	-10.2698
De	-10.2703
▁accepted	-10.2709
▁entity	-10.2711
▁attribute	-10.2712
▁university	-10.2713
▁domain	-10.2713
nut	-10.2714
▁operator	-10.272
▁Bag	-10.2722
▁Ball	-10.2723
▁committed	-10.2724
▁Arm	-10.2725
▁standing	-10.2725
▁emotional	-10.2726
▁Android	-10.2727
▁dia	-10.273
▁bridge	-10.2731
▁Son	-10.2732
mato	-10.274
▁clothing	-10.2741
▁transmission	-10.2742
▁Luc	-10.2743
▁circumstances	-10.2744
▁Fire	-10.2749
stone	-10.275
HA	-10.2752
shirt	-10.2753
\	-10.2753
▁issued	-10.2755
▁Canada	-10.2757
▁Grand	-10.2759
▁Standard	-10.2759
▁assessment	-10.276
▁terrace	-10.2767
▁bike	-10.2771
dra	-10.2776
ote	-10.2781
▁Ear	-10.2784
ART	-10.2786
▁liter	-10.2788
▁Description	-10.2789
NI	-10.2792
born	-10.2796
▁indicates	-10.2798
quest	-10.2806
▁screw	-10.2809
NG	-10.2816
vision	-10.2823
BO	-10.2827
▁Garden	-10.2828
▁rural	-10.283
▁controlled	-10.2835
▁Rome	-10.2836
▁collaboration	-10.2836
▁Organization	-10.2838
TOR	-10.2842
▁Act	-10.2845
▁justice	-10.2846
▁David	-10.2848
▁Gran	-10.285
▁sit	-10.2855
▁Close	-10.2856
▁acts	-10.2857
DR	-10.2858
▁spent	-10.2862
phy	-10.2864
mount	-10.2866
▁allowing	-10.287
▁Sticker	-10.287
cate	-10.2874
▁neck	-10.2874
▁contrast	-10.2874
duce	-10.2878
met	-10.2878
▁forced	-10.288
▁competitive	-10.2885
▁cre	-10.2887
▁Gene	-10.2888
▁Follow	-10.2893
fre	-10.2901
▁strange	-10.2905
pot	-10.2906
via	-10.2907
aya	-10.2908
▁shopping	-10.2909
photo	-10.2913
▁Despite	-10.2914
To	-10.2914
▁Off	-10.2916
▁Community	-10.2917
▁edit	-10.2918
▁Club	-10.2926
▁noise	-10.2927
▁Cur	-10.2928
▁ON	-10.293
itude	-10.2931
▁names	-10.2934
▁slightly	-10.294
▁kinds	-10.2942
ket	-10.2942
▁marked	-10.2944
▁personnel	-10.2946
▁laugh	-10.2948
▁displayed	-10.2951
▁BE	-10.2951
▁geo	-10.2953
▁intention	-10.2954
▁Police	-10.2957
print	-10.2959
corn	-10.2963
▁predict	-10.2968
▁gather	-10.2977
▁appeared	-10.2978
▁furniture	-10.2991
▁spin	-10.2994
type	-10.2995
pers	-10.2996
ulate	-10.3001
▁ski	-10.3003
▁agent	-10.3004
▁fail	-10.3004
▁Arab	-10.3011
BC	-10.3013
▁thousands	-10.3016
▁arrival	-10.3018
wl	-10.3021
▁joy	-10.3031
▁doors	-10.3033
tics	-10.3036
GB	-10.3036
▁sustainable	-10.3037
▁protected	-10.3037
ridge	-10.3039
INE	-10.3039
▁www	-10.304
▁Watch	-10.3041
word	-10.3048
card	-10.3049
▁publication	-10.3057
▁lu	-10.3058
▁gender	-10.3068
bol	-10.3077
AND	-10.308
cau	-10.3082
▁appreciate	-10.3085
▁Vo	-10.3086
▁tight	-10.3088
▁adequate	-10.3088
▁overall	-10.3092
▁desired	-10.3094
FE	-10.3095
▁replace	-10.3101
▁terminal	-10.3101
tach	-10.3102
▁wearing	-10.3112
ira	-10.3114
eth	-10.3115
▁cash	-10.3119
▁Pra	-10.312
▁couldn	-10.3124
EE	-10.3126
▁flavor	-10.3129
▁exhibition	-10.3135
▁impossible	-10.3136
▁Network	-10.3146
[	-10.3154
cri	-10.3155
▁smaller	-10.3159
▁Saint	-10.316
▁Last	-10.3165
▁stopped	-10.3169
▁pointed	-10.317
▁Mil	-10.317
▁eating	-10.3171
run	-10.3174
▁Holy	-10.3175
▁administrative	-10.3183
▁bro	-10.3183
UP	-10.3184
▁fields	-10.3185
▁institution	-10.3187
▁weak	-10.3188
▁records	-10.3188
▁Create	-10.319
▁Access	-10.3195
IST	-10.3199
▁regions	-10.3199
▁sad	-10.3203
▁regime	-10.3203
ram	-10.3209
▁Material	-10.321
yard	-10.3213
▁PA	-10.3219
▁trail	-10.3226
face	-10.3227
▁Short	-10.3228
▁employment	-10.3233
org	-10.3236
▁interests	-10.3242
▁Next	-10.3243
▁Ban	-10.3245
▁DO	-10.3245
aster	-10.3248
▁Family	-10.325
▁guests	-10.325
▁List	-10.3252
▁http	-10.3253
™	-10.3255
▁restaurants	-10.3256
▁African	-10.3261
▁gone	-10.3269
emp	-10.3269
▁loved	-10.3276
▁alarm	-10.3277
▁Direct	-10.3282
ERS	-10.3283
!!!	-10.3285
▁registration	-10.3286
▁Learn	-10.3288
▁expensive	-10.3306
▁mat	-10.3314
▁mine	-10.3315
article	-10.3316
▁England	-10.3319
▁extreme	-10.332
▁resolve	-10.3321
cio	-10.3329
lap	-10.333
▁sequence	-10.3331
▁compress	-10.3333
▁ended	-10.3334
▁meal	-10.3335
▁properly	-10.3337
▁Unit	-10.334
ius	-10.3341
▁Land	-10.3343
▁flash	-10.3343
comp	-10.3343
▁sole	-10.3345
▁Electric	-10.3347
▁aspect	-10.3347
▁grass	-10.3349
▁Fund	-10.335
▁surrounding	-10.3351
▁Puerto	-10.3353
▁establishment	-10.3355
cher	-10.3356
ened	-10.3357
PU	-10.3357
▁Kids	-10.336
▁Miss	-10.3363
▁rank	-10.3363
▁AliExpress	-10.3366
▁parent	-10.3368
▁commission	-10.3369
▁divided	-10.337
pm	-10.3372
COM	-10.3373
quir	-10.3373
friend	-10.3374
ito	-10.3385
▁Pass	-10.3386
▁sectors	-10.3387
▁Tro	-10.3388
▁applicable	-10.3388
▁provision	-10.3388
rug	-10.339
▁recording	-10.339
active	-10.3391
lateral	-10.3393
GR	-10.3394
▁teach	-10.3394
▁youth	-10.3396
▁extensive	-10.3397
▁provisions	-10.3398
▁receiving	-10.34
▁lamp	-10.3406
▁wonder	-10.3409
▁rapid	-10.3411
▁perfectly	-10.3413
▁killed	-10.3413
ific	-10.3419
▁hall	-10.342
▁exclusive	-10.3425
▁dollars	-10.3426
▁emotion	-10.343
▁calm	-10.3432
▁poet	-10.3433
▁transaction	-10.3435
▁latter	-10.3439
▁orange	-10.3442
▁surprise	-10.3453
weight	-10.3455
▁cooperation	-10.3459
▁newspaper	-10.3461
▁Spirit	-10.3461
▁integration	-10.3463
ini	-10.3464
gress	-10.3465
▁recognition	-10.3466
▁Antonio	-10.3471
▁eliminate	-10.3472
▁Suit	-10.3477
▁trouble	-10.3487
▁comments	-10.3487
▁roof	-10.349
▁requested	-10.3492
Mo	-10.3494
GA	-10.3496
▁psycho	-10.35
style	-10.35
anger	-10.3504
LU	-10.3506
▁VI	-10.351
▁carrying	-10.3519
▁depth	-10.3523
▁collected	-10.3532
▁dangerous	-10.3533
ulating	-10.3537
▁drag	-10.3541
ensive	-10.3545
▁audience	-10.3545
▁reflection	-10.3546
▁gun	-10.3548
▁Cartoon	-10.3552
igh	-10.3553
▁beat	-10.3553
▁Custom	-10.3556
▁filled	-10.3558
▁explore	-10.3558
▁journey	-10.3563
▁Francisco	-10.3564
▁Using	-10.3567
▁magazine	-10.3568
▁pad	-10.3572
▁Facebook	-10.358
▁neuro	-10.3583
▁blow	-10.3591
▁Ref	-10.3592
▁brush	-10.3592
▁strategic	-10.3595
rian	-10.3597
▁instruments	-10.3598
▁streets	-10.3608
▁limits	-10.361
▁era	-10.3617
▁testing	-10.3623
▁shock	-10.3625
▁Apple	-10.3627
▁vary	-10.3629
MO	-10.3631
▁Quality	-10.3635
▁cute	-10.3642
LD	-10.3642
▁parameters	-10.3643
▁funds	-10.365
▁SP	-10.3655
▁Qui	-10.3655
▁Kit	-10.3657
▁audit	-10.3659
nov	-10.3661
▁Clean	-10.3662
▁Live	-10.3664
▁complement	-10.3672
bilities	-10.3673
▁abuse	-10.3678
▁specifically	-10.3682
▁Cel	-10.3682
▁Zo	-10.3685
▁listed	-10.3692
▁Ren	-10.3692
▁semi	-10.3693
▁Hot	-10.3694
astic	-10.3696
▁Edit	-10.3698
▁conclusion	-10.37
▁sufficient	-10.37
▁Student	-10.3701
▁Main	-10.3703
▁About	-10.3704
PO	-10.3706
▁revealed	-10.3711
media	-10.3712
▁Costa	-10.372
▁Flower	-10.3724
▁poster	-10.3724
▁rent	-10.3726
▁schedule	-10.3726
▁Ke	-10.3727
▁chest	-10.3731
▁introduced	-10.3731
▁Hor	-10.3735
uni	-10.374
▁Microsoft	-10.3744
▁OR	-10.3746
▁speech	-10.3747
▁Metal	-10.3751
minated	-10.3756
º	-10.3763
▁communicate	-10.3766
▁Keep	-10.3782
sym	-10.3784
▁broken	-10.3788
▁FA	-10.3791
▁Sports	-10.3794
▁seeing	-10.3796
pul	-10.3796
tribute	-10.3801
▁mistake	-10.3802
EST	-10.3803
▁interaction	-10.3804
ifier	-10.3805
▁ingredients	-10.3806
▁Mag	-10.381
▁reviews	-10.3817
▁iPhone	-10.3826
▁dinner	-10.3829
▁tab	-10.3838
▁vertical	-10.3839
case	-10.3843
▁distinct	-10.3847
▁studied	-10.3849
▁Action	-10.3849
Pa	-10.3861
▁birthday	-10.3861
ament	-10.3862
▁convenient	-10.3866
▁consequences	-10.3871
▁bacteria	-10.3877
▁discovered	-10.3881
▁coach	-10.3881
▁champion	-10.3883
iro	-10.3883
lash	-10.3894
▁aid	-10.3899
▁imagine	-10.3903
▁mg	-10.3904
▁prove	-10.391
graduate	-10.3911
▁experts	-10.3912
▁coverage	-10.3912
▁partners	-10.3914
▁repeat	-10.3916
▁writer	-10.3918
▁murder	-10.392
▁WITH	-10.3922
▁adventure	-10.3924
▁Change	-10.3929
▁prop	-10.3938
ati	-10.3938
▁improved	-10.3943
▁Travel	-10.3943
oh	-10.3948
▁miles	-10.3948
toxic	-10.395
connect	-10.3953
▁gear	-10.3956
Con	-10.3956
▁king	-10.3957
▁housing	-10.396
▁Sw	-10.3961
▁Manager	-10.3965
▁boys	-10.3965
▁Digital	-10.3966
▁songs	-10.3968
▁Such	-10.3969
eries	-10.397
psych	-10.3973
▁stable	-10.3974
▁luck	-10.3984
field	-10.3987
image	-10.3989
▁interpret	-10.3998
gree	-10.4
▁represented	-10.4003
bell	-10.4009
▁automatic	-10.4012
tention	-10.4013
oz	-10.4014
▁ride	-10.4015
▁Pet	-10.4015
!!	-10.4016
▁Care	-10.4019
cover	-10.4026
▁businesses	-10.4026
▁abstract	-10.4032
▁empty	-10.4033
▁cri	-10.4037
▁organize	-10.4038
▁Without	-10.4038
ego	-10.4044
▁Body	-10.4047
▁Boy	-10.4049
▁smart	-10.4052
▁Their	-10.4053
▁complaint	-10.4054
▁knowing	-10.4055
▁accurate	-10.4056
▁specialized	-10.4062
▁expansion	-10.4063
▁crop	-10.407
▁moral	-10.4074
▁Search	-10.4075
▁exposure	-10.4075
▁specialist	-10.4076
quality	-10.4078
ital	-10.4079
wood	-10.408
▁Mont	-10.4084
▁pig	-10.4085
▁Team	-10.4086
▁lighting	-10.4086
AGE	-10.4088
▁Style	-10.4096
▁otherwise	-10.4098
▁diameter	-10.4098
cap	-10.4102
plain	-10.4106
▁onto	-10.4108
▁appeal	-10.4114
ü	-10.4115
▁earlier	-10.4115
▁stored	-10.4116
ulator	-10.4116
▁brief	-10.412
▁vitamin	-10.4121
spiration	-10.4122
▁resulting	-10.4125
▁manufacturing	-10.4125
EX	-10.4131
▁fourth	-10.4139
dicate	-10.4143
▁purchased	-10.4143
▁tablet	-10.4146
rog	-10.4147
▁register	-10.4149
▁attached	-10.415
CP	-10.4152
▁totally	-10.4153
▁Number	-10.4154
▁actual	-10.4154
▁stretch	-10.4155
berg	-10.4157
▁Gri	-10.4157
▁Congress	-10.4157
mobil	-10.416
▁drawn	-10.4162
▁entrance	-10.4163
PC	-10.4166
▁catch	-10.4167
▁relations	-10.4173
▁Father	-10.4179
crypt	-10.4181
▁referred	-10.4183
▁ratio	-10.4184
▁assess	-10.4191
▁representation	-10.4191
▁consistent	-10.4192
EA	-10.4194
▁Egypt	-10.4194
▁distinguish	-10.4199
stitu	-10.4199
▁worse	-10.4212
▁Cross	-10.4214
▁Help	-10.4215
▁net	-10.4215
▁grant	-10.4216
▁mirror	-10.4217
▁Argentine	-10.4218
▁missing	-10.4218
▁Install	-10.422
▁repeated	-10.4224
▁Sil	-10.4224
fully	-10.423
▁tourism	-10.423
chlor	-10.4233
▁Accessories	-10.4234
▁mill	-10.4254
▁Municipal	-10.4255
▁museum	-10.4257
▁faster	-10.4258
▁Due	-10.4258
▁End	-10.4262
OK	-10.4262
▁abandon	-10.4264
▁channels	-10.4265
▁subsequent	-10.4266
ancy	-10.4271
▁attract	-10.4277
▁categories	-10.4278
▁suffered	-10.4282
▁bond	-10.4282
▁argument	-10.4287
▁marriage	-10.4287
▁Gen	-10.429
▁Smart	-10.4293
▁Shoes	-10.4299
ñ	-10.43
▁smoke	-10.4301
▁ahead	-10.4308
▁vacation	-10.4314
▁segment	-10.4318
▁Non	-10.4321
▁witness	-10.4323
▁Sale	-10.4324
▁carefully	-10.4326
▁extent	-10.4327
▁opposite	-10.4328
▁hearing	-10.4329
ifying	-10.4331
▁Happy	-10.4337
▁cancel	-10.434
▁escape	-10.4342
▁Bor	-10.4345
oke	-10.4345
▁nearly	-10.4346
▁execution	-10.4349
▁blog	-10.435
▁reader	-10.4351
▁cutting	-10.4353
▁Paint	-10.4358
▁usual	-10.4359
▁proportion	-10.4363
▁supplement	-10.4365
▁functional	-10.437
▁swimming	-10.437
▁Pay	-10.4376
▁Cho	-10.4376
▁thin	-10.4377
▁compete	-10.4378
▁Prince	-10.438
IAL	-10.438
emia	-10.4384
bid	-10.4388
▁prevention	-10.4389
bed	-10.4391
UE	-10.4392
▁Does	-10.4394
▁Steel	-10.44
▁crystal	-10.4404
▁Yo	-10.4407
▁Class	-10.4408
▁collective	-10.4408
▁helped	-10.4408
▁permit	-10.4408
▁Civil	-10.4409
▁Greek	-10.4414
▁factory	-10.442
▁adjustment	-10.442
▁assigned	-10.4421
round	-10.4421
lly	-10.4422
▁Micro	-10.4423
▁married	-10.4423
▁tap	-10.4426
▁curve	-10.4427
▁Sim	-10.4432
▁Mari	-10.4433
▁shut	-10.4434
▁Which	-10.4436
▁injury	-10.4439
▁password	-10.444
▁frequently	-10.4442
▁absorb	-10.4443
▁NOT	-10.4444
▁transformation	-10.4445
▁talent	-10.4449
▁defeat	-10.4457
Pro	-10.446
▁adding	-10.4461
▁Price	-10.4465
▁agricultural	-10.4465
▁Asia	-10.4465
posit	-10.4466
▁native	-10.4466
▁thread	-10.4467
▁nutrition	-10.4469
most	-10.4471
▁react	-10.448
▁certificate	-10.4481
▁chart	-10.4482
dict	-10.4485
hand	-10.4491
▁authentic	-10.4495
▁containing	-10.4496
▁fur	-10.4498
▁Thursday	-10.4499
▁tail	-10.4499
▁restrict	-10.4501
▁musical	-10.4504
rack	-10.4505
posing	-10.4512
oxid	-10.4516
Cl	-10.4518
▁diagnosis	-10.4519
HI	-10.4522
▁rec	-10.4523
plan	-10.4525
▁Ram	-10.4525
▁worry	-10.4531
TT	-10.4531
▁conversation	-10.4532
▁Thank	-10.4534
▁speaker	-10.4535
▁danger	-10.4537
UC	-10.4538
▁Machine	-10.454
▁Max	-10.4541
▁victims	-10.4542
▁resource	-10.4553
▁festival	-10.4555
▁Pur	-10.4561
▁episode	-10.4566
last	-10.4566
▁medication	-10.4573
▁visible	-10.4578
▁mixed	-10.4583
▁Han	-10.4587
resistant	-10.4587
▁Yu	-10.4587
▁Aires	-10.459
gene	-10.4593
ique	-10.4593
stance	-10.4595
miss	-10.46
▁suffering	-10.4602
▁Ol	-10.4604
▁publish	-10.4609
▁ocean	-10.461
▁Pack	-10.4614
▁visitors	-10.4615
▁compliance	-10.4618
▁Front	-10.462
▁artists	-10.4624
▁consideration	-10.4624
▁discount	-10.4627
▁Hol	-10.4627
▁Fit	-10.4635
▁Small	-10.4643
▁innovative	-10.4647
▁secondary	-10.465
post	-10.4659
▁Series	-10.466
gun	-10.4665
▁arise	-10.4666
ched	-10.467
▁religion	-10.4675
▁III	-10.4677
▁estimated	-10.4678
▁combine	-10.468
▁intense	-10.4682
▁supplier	-10.4683
▁tele	-10.469
▁spec	-10.4695
▁stability	-10.4695
▁reinforce	-10.4698
▁wallpaper	-10.4704
dio	-10.4712
▁consume	-10.472
▁Review	-10.4722
▁hurt	-10.4723
Do	-10.4726
▁municipality	-10.4729
▁Protection	-10.473
▁Arch	-10.4735
▁entities	-10.4742
lves	-10.4744
▁facing	-10.4744
▁delivered	-10.4745
▁aimed	-10.475
IE	-10.4751
▁passenger	-10.4754
▁Global	-10.4755
▁closer	-10.4758
migrant	-10.4758
IES	-10.4761
▁weekend	-10.4763
▁maintained	-10.4768
▁folder	-10.4772
**	-10.4773
▁DHgate	-10.4783
▁leadership	-10.4784
▁transportation	-10.4785
▁Drive	-10.4787
range	-10.4788
ich	-10.4796
▁observation	-10.4803
izer	-10.4806
▁Kingdom	-10.4807
▁Buenos	-10.4809
rator	-10.481
▁comprehensive	-10.4812
ago	-10.4813
▁bread	-10.4817
▁preserve	-10.4817
▁Example	-10.4821
<	-10.4824
▁attractive	-10.4824
UD	-10.4826
▁aluminum	-10.4827
▁tape	-10.4833
▁studio	-10.4834
▁mechanical	-10.4835
▁absence	-10.4837
▁Likewise	-10.484
▁Secretary	-10.4846
fall	-10.4848
▁remind	-10.4852
bul	-10.4853
URE	-10.4854
▁Chapter	-10.4855
▁indigenous	-10.4856
▁League	-10.4856
cid	-10.4857
▁hypo	-10.4857
▁municipal	-10.4859
▁partial	-10.4864
▁delete	-10.4867
▁Furthermore	-10.487
▁Airport	-10.487
▁Force	-10.487
▁observe	-10.487
▁Nations	-10.4874
▁shift	-10.4875
▁Personal	-10.4876
▁celebration	-10.4877
▁advertising	-10.4882
▁Pat	-10.4882
MB	-10.4884
how	-10.4887
▁climb	-10.4892
▁fri	-10.4896
▁Order	-10.49
▁equivalent	-10.4903
▁declared	-10.4906
eau	-10.4906
▁restore	-10.4909
star	-10.491
▁teeth	-10.4913
war	-10.4913
▁tower	-10.4917
ILL	-10.4918
▁shoulder	-10.4921
▁Jose	-10.4925
▁protocol	-10.4927
▁fishing	-10.4931
▁Modern	-10.4934
▁mineral	-10.494
▁lens	-10.4943
▁Catholic	-10.4943
▁craft	-10.4948
▁biggest	-10.4949
▁colorful	-10.4953
▁exception	-10.4954
▁debate	-10.4954
▁reducing	-10.4959
aria	-10.496
▁significantly	-10.496
▁sat	-10.4964
align	-10.4965
ark	-10.4971
▁string	-10.4978
▁Royal	-10.498
dol	-10.498
▁realize	-10.4981
▁vital	-10.4991
▁assembly	-10.4992
▁portion	-10.4994
▁immediate	-10.4996
zu	-10.4997
band	-10.4998
PL	-10.4998
iber	-10.5002
▁Place	-10.5002
▁hunt	-10.5003
UB	-10.5003
▁exposed	-10.5004
▁Foundation	-10.5018
depend	-10.5021
▁directed	-10.5024
▁Server	-10.5026
▁raw	-10.5027
▁Tuesday	-10.503
▁uniform	-10.503
▁Ecuador	-10.5032
▁regulate	-10.5032
▁Administration	-10.5033
▁distributed	-10.5037
roid	-10.5037
▁citizen	-10.5045
▁remained	-10.5056
▁Labor	-10.5058
▁index	-10.5063
▁interact	-10.5067
▁measured	-10.5075
▁sharp	-10.5076
▁Rock	-10.5076
pol	-10.5078
▁causing	-10.5094
uf	-10.5098
▁equi	-10.51
▁Made	-10.5103
cast	-10.5112
cker	-10.5114
▁Glass	-10.5115
▁accommodation	-10.5118
▁toward	-10.5119
▁concert	-10.5121
exp	-10.5123
▁cake	-10.5126
▁Maria	-10.5127
▁cheese	-10.5135
▁Dan	-10.5136
▁Pedro	-10.5142
▁hidden	-10.5145
▁wound	-10.5149
▁gate	-10.5153
▁pleasure	-10.5153
law	-10.5154
▁vegetables	-10.5156
▁corporate	-10.5158
▁lit	-10.5159
▁unknown	-10.516
▁Four	-10.5162
▁relatively	-10.5163
▁san	-10.5164
▁assist	-10.5169
operative	-10.5172
but	-10.5174
▁respective	-10.5175
▁	-10.5178
▁opt	-10.5183
▁sharing	-10.5185
▁genetic	-10.5187
▁Cab	-10.519
▁kid	-10.5204
▁plot	-10.5205
▁delicious	-10.5208
▁Robert	-10.5209
▁Bay	-10.5209
ista	-10.5212
▁Lake	-10.5215
▁hero	-10.5217
▁universal	-10.5222
nge	-10.5224
▁Ten	-10.5225
▁Hospital	-10.5226
▁File	-10.5229
▁Author	-10.5235
▁granted	-10.5237
▁Miguel	-10.5238
▁discuss	-10.5247
▁cit	-10.5252
▁theater	-10.5252
▁ultimate	-10.5254
▁lake	-10.5255
▁Summer	-10.5255
glo	-10.5256
▁Run	-10.5256
▁yesterday	-10.5257
▁hyper	-10.5258
▁grand	-10.5263
▁powder	-10.5264
▁combat	-10.5267
▁Cuba	-10.5267
▁chronic	-10.527
▁extended	-10.527
▁pregnancy	-10.5277
▁pocket	-10.5277
▁victim	-10.528
▁portrait	-10.5281
▁awareness	-10.529
▁technological	-10.5293
inter	-10.5293
▁herself	-10.5293
▁agency	-10.5294
▁poverty	-10.5301
▁Fish	-10.5303
which	-10.5305
leg	-10.5307
▁division	-10.5311
▁keeping	-10.5313
▁Az	-10.5313
▁Federal	-10.5313
cut	-10.5315
▁finance	-10.5318
gest	-10.5319
▁estate	-10.5324
▁Professional	-10.5324
conscious	-10.5325
▁Phone	-10.5327
▁Text	-10.5327
▁Wednesday	-10.5329
▁whatever	-10.533
▁Ken	-10.534
▁Application	-10.5343
▁Section	-10.5344
▁comply	-10.5346
▁Tur	-10.5349
imp	-10.5351
TC	-10.5354
▁prohibit	-10.5355
▁Frame	-10.536
ession	-10.5366
life	-10.5375
▁researchers	-10.5377
▁false	-10.5377
▁Manuel	-10.5381
blo	-10.5384
▁translation	-10.5386
▁Little	-10.5387
▁costume	-10.5388
▁telephone	-10.5389
cla	-10.5393
▁twenty	-10.5394
▁advise	-10.5396
▁saved	-10.5396
▁temple	-10.5396
▁DC	-10.5399
▁priest	-10.5405
lution	-10.5409
▁solar	-10.5413
UA	-10.5415
▁sick	-10.5416
▁ultra	-10.5418
▁dialogue	-10.5418
▁participated	-10.5418
▁Sometimes	-10.5421
▁incident	-10.5421
▁superior	-10.5422
▁joined	-10.5423
▁Rosa	-10.5429
▁interpretation	-10.5433
▁branch	-10.5433
▁electricity	-10.5446
▁Night	-10.5447
▁settle	-10.5448
▁sight	-10.5454
▁·	-10.5454
bby	-10.5468
HER	-10.5468
▁improving	-10.5472
▁bound	-10.5474
continu	-10.5483
▁priority	-10.5485
▁tre	-10.5485
▁Mur	-10.5488
▁Santiago	-10.5488
▁margin	-10.5488
▁nail	-10.549
▁helpful	-10.5495
▁Double	-10.5497
én	-10.5499
cam	-10.5499
▁Technology	-10.55
▁fighting	-10.5509
▁believed	-10.551
▁journalist	-10.5514
▁Online	-10.5517
▁Medical	-10.5518
▁transition	-10.5519
▁mold	-10.5523
▁YOU	-10.5525
▁kilometers	-10.5527
▁Map	-10.5532
▁Jack	-10.5535
ddle	-10.5535
▁twice	-10.5535
count	-10.5536
semb	-10.5537
▁Store	-10.5548
▁Share	-10.555
▁remaining	-10.5553
MAN	-10.5557
▁heating	-10.5573
duction	-10.5575
▁illness	-10.5577
▁federal	-10.558
▁recon	-10.5582
▁cry	-10.5585
▁Provide	-10.5587
▁wireless	-10.5593
▁Award	-10.5596
▁replaced	-10.5599
▁hide	-10.561
▁Mark	-10.5613
activate	-10.5614
▁concerned	-10.5617
▁Constitution	-10.5618
force	-10.5619
▁estimate	-10.5625
▁printing	-10.5626
▁apparent	-10.5638
▁vintage	-10.5644
▁aircraft	-10.5644
▁Animal	-10.5649
gri	-10.5654
▁kiss	-10.5655
▁luxury	-10.5659
▁skill	-10.5662
▁elegant	-10.5662
clude	-10.5665
▁Heart	-10.5665
▁Ku	-10.5669
BI	-10.567
▁Mobile	-10.5674
▁motion	-10.5675
▁designer	-10.5677
▁adopted	-10.5679
elec	-10.5679
▁Bio	-10.5683
▁handling	-10.5683
▁HE	-10.5688
▁planned	-10.569
For	-10.569
▁rat	-10.5691
▁Oil	-10.5693
▁sort	-10.5694
▁struggle	-10.5697
▁tear	-10.5698
▁respectively	-10.5701
▁Tom	-10.5706
▁attraction	-10.5712
minate	-10.5713
▁possibilities	-10.5716
▁Kar	-10.572
▁Western	-10.5724
▁tag	-10.5725
▁phenomenon	-10.5727
▁Buy	-10.5727
▁meant	-10.5733
▁Wedding	-10.5735
▁invite	-10.574
▁belief	-10.574
▁recipe	-10.5742
ule	-10.5743
▁Decor	-10.5744
▁exploit	-10.5745
called	-10.5747
▁sensitive	-10.5757
▁protest	-10.576
▁concentrate	-10.5763
▁Area	-10.5776
px	-10.5778
▁Convention	-10.5778
▁script	-10.5779
▁resort	-10.5781
EG	-10.5784
▁Silver	-10.5786
▁flexible	-10.5789
▁contained	-10.5792
▁transmit	-10.5799
unk	-10.5804
▁Word	-10.581
▁singer	-10.581
▁variation	-10.5811
▁guitar	-10.5812
▁guidelines	-10.5818
▁winner	-10.582
▁instant	-10.582
▁scientist	-10.5821
▁oxygen	-10.5821
▁discipline	-10.5822
▁Bon	-10.5823
▁precisely	-10.583
fil	-10.5832
▁dining	-10.5834
▁Brand	-10.5835
▁TR	-10.5841
▁shadow	-10.5844
▁vessel	-10.5847
▁transparent	-10.5848
▁Wallpaper	-10.585
▁inhabitants	-10.585
▁Dog	-10.5855
RT	-10.5857
▁printer	-10.5868
▁Syn	-10.5873
▁drain	-10.5877
▁Euro	-10.588
LC	-10.5882
▁duration	-10.5882
€	-10.5885
▁District	-10.5892
▁Monte	-10.5892
▁confidence	-10.5911
▁Mad	-10.5917
▁announce	-10.5922
▁lunch	-10.5922
stat	-10.5926
▁literature	-10.5929
▁contest	-10.5931
What	-10.5933
chu	-10.5934
▁Peter	-10.5935
▁rental	-10.5937
▁Rose	-10.5937
▁hill	-10.5944
▁Hold	-10.5948
▁cooking	-10.5948
▁careful	-10.5951
▁Esp	-10.5955
angle	-10.596
craft	-10.5976
▁constantly	-10.5976
uca	-10.5977
▁Invest	-10.5978
▁Inc	-10.5982
▁unless	-10.5985
▁regulation	-10.5988
▁appointment	-10.599
related	-10.5992
▁correctly	-10.5997
▁reaching	-10.5998
▁truly	-10.5999
▁explanation	-10.5999
▁prayer	-10.6001
▁strike	-10.6006
Contin	-10.6006
▁normally	-10.6013
▁Rub	-10.602
▁Link	-10.6022
▁PNG	-10.6028
▁preferred	-10.603
figur	-10.6033
▁Option	-10.6033
▁chicken	-10.6035
▁intelligence	-10.6047
▁identification	-10.6052
▁Poster	-10.6053
▁Point	-10.6059
▁recommendations	-10.6062
▁scheme	-10.6064
Ro	-10.6065
▁worldwide	-10.6067
▁scope	-10.6071
▁Vintage	-10.6072
▁Display	-10.6077
▁considering	-10.6077
▁Eye	-10.6081
▁zero	-10.6082
▁Hard	-10.6083
▁wealth	-10.6087
▁executive	-10.6092
▁scenario	-10.6094
▁Vari	-10.6095
▁pesos	-10.6098
vy	-10.6099
ille	-10.61
▁frequent	-10.61
state	-10.6101
▁packaging	-10.6101
▁widely	-10.6104
▁critic	-10.6114
ector	-10.6118
gno	-10.613
wer	-10.6139
▁Executive	-10.6143
▁Easy	-10.6143
rest	-10.6151
▁neither	-10.6154
▁reliable	-10.6154
▁Bible	-10.6164
▁launched	-10.6164
▁informed	-10.6167
▁maybe	-10.6173
LAN	-10.6175
▁blank	-10.6178
▁decor	-10.6185
▁Assembly	-10.619
▁Agreement	-10.6195
▁universe	-10.6196
▁legend	-10.6199
PORT	-10.62
▁institutional	-10.6201
Hz	-10.6206
▁tested	-10.6207
▁rubber	-10.621
▁library	-10.6214
▁trigger	-10.6214
▁Leather	-10.622
▁replacement	-10.622
chrom	-10.6222
#	-10.6224
▁putting	-10.6225
PT	-10.6225
augh	-10.6229
▁lawyer	-10.6237
SION	-10.6237
▁submit	-10.624
▁execute	-10.6241
▁juice	-10.6243
clus	-10.625
▁characteristic	-10.6252
▁Save	-10.6263
▁boost	-10.6265
▁parallel	-10.6268
▁Asian	-10.627
▁translate	-10.627
▁wrap	-10.6276
▁deserve	-10.6278
▁leaf	-10.6279
mir	-10.6288
amine	-10.6289
FF	-10.6291
▁terror	-10.6293
▁routine	-10.6295
▁poll	-10.6298
▁construct	-10.63
▁Station	-10.63
▁coordinate	-10.6301
▁speaking	-10.6301
▁configure	-10.6305
tiva	-10.6308
▁slowly	-10.631
▁exam	-10.6313
▁Festival	-10.6314
▁withdraw	-10.6318
▁Van	-10.6318
▁Tar	-10.632
▁approval	-10.6327
▁warning	-10.6329
▁Basic	-10.6333
▁clock	-10.6334
▁updated	-10.6336
▁evil	-10.634
▁Merc	-10.6343
▁Ham	-10.6344
▁Process	-10.635
known	-10.6356
▁Carr	-10.6358
▁Mode	-10.6367
▁retain	-10.6368
▁Icon	-10.6377
▁History	-10.6388
▁asking	-10.6392
▁personality	-10.6399
▁Communication	-10.6404
▁survive	-10.6404
▁Army	-10.6411
▁Motor	-10.6412
▁Angel	-10.6427
▁fault	-10.6432
▁Technical	-10.6435
▁cotton	-10.6441
▁examine	-10.6447
▁availability	-10.6454
metric	-10.6455
▁Valencia	-10.6459
▁bun	-10.6463
▁propose	-10.6469
▁effectively	-10.6469
▁Personalization	-10.647
▁investigate	-10.6475
▁chocolate	-10.6479
^	-10.648
Ex	-10.6483
▁Sand	-10.6484
▁Middle	-10.6485
▁Mary	-10.6486
▁Casa	-10.6487
strict	-10.649
▁Paper	-10.649
▁Caribbean	-10.6493
▁dust	-10.6495
▁artistic	-10.6496
▁breed	-10.6497
▁kg	-10.6499
▁tension	-10.6503
▁stuff	-10.6503
▁Log	-10.6507
iev	-10.6507
FC	-10.6509
▁Base	-10.6511
▁Mother	-10.6519
▁passage	-10.6525
▁achievement	-10.6531
▁Training	-10.6533
uous	-10.6538
▁Protect	-10.6538
▁paragraph	-10.6552
▁sweat	-10.6558
▁flee	-10.6558
▁exhibit	-10.6558
▁Similar	-10.6559
▁norm	-10.656
gh	-10.6561
▁affirm	-10.6567
▁army	-10.6572
▁quote	-10.6578
cious	-10.6579
▁Count	-10.6582
eller	-10.6587
▁punish	-10.659
▁Cut	-10.659
▁reward	-10.659
ION	-10.6592
▁derived	-10.6596
▁historic	-10.6603
▁contemporary	-10.661
▁victory	-10.6614
▁Pop	-10.6618
lb	-10.6619
▁laptop	-10.6619
▁Hall	-10.662
▁agencies	-10.6621
▁lesson	-10.6621
pine	-10.6621
▁absolute	-10.6625
▁Spa	-10.6627
▁illegal	-10.6628
▁stainless	-10.6628
ficient	-10.6628
▁greet	-10.6634
▁connector	-10.6639
▁Film	-10.6643
▁Fig	-10.6647
▁modification	-10.6648
▁supposed	-10.6654
▁knee	-10.6654
PM	-10.6654
UST	-10.6662
▁mayor	-10.6664
▁conducted	-10.6665
▁diversity	-10.6668
circ	-10.667
▁implemented	-10.6675
▁emphasize	-10.6679
▁intellectual	-10.6679
▁surrounded	-10.6681
▁Martin	-10.6682
▁phrase	-10.6682
▁taught	-10.6687
▁jacket	-10.669
▁browser	-10.6694
▁transferred	-10.6697
▁sauce	-10.6703
▁horizontal	-10.6703
cum	-10.6704
FO	-10.671
▁Colombian	-10.6712
▁comparison	-10.6716
▁familiar	-10.6716
▁household	-10.6717
▁Turn	-10.6717
▁comprise	-10.6718
▁Did	-10.6724
▁cinema	-10.6725
motive	-10.6725
▁coin	-10.6725
maker	-10.6726
▁dig	-10.6737
Lo	-10.6739
▁tattoo	-10.6744
▁meta	-10.6746
MIN	-10.6747
▁engineer	-10.6747
▁controller	-10.6754
link	-10.6756
▁Rica	-10.6756
EZ	-10.6757
▁supplies	-10.6757
▁Palm	-10.676
▁Brown	-10.676
PH	-10.6766
▁Everything	-10.6767
quin	-10.6768
ARD	-10.6768
▁anywhere	-10.6769
▁belt	-10.6773
▁DNA	-10.6774
tribu	-10.6775
▁cord	-10.6778
lumin	-10.6779
▁none	-10.6784
▁discussed	-10.6785
▁exit	-10.6791
pcs	-10.6791
▁Justice	-10.6792
▁random	-10.6795
▁Manual	-10.6796
▁trace	-10.6808
▁difficulties	-10.681
▁Enter	-10.6811
ckle	-10.6813
OUR	-10.6814
▁Large	-10.6817
▁Tor	-10.6828
If	-10.6846
▁charm	-10.6848
▁drinking	-10.6854
▁broadcast	-10.6855
▁Trump	-10.6862
▁blind	-10.6867
▁Try	-10.6867
▁documentation	-10.6871
▁childhood	-10.6872
▁expectations	-10.6875
▁acquired	-10.6875
▁exhaust	-10.6882
▁Adjust	-10.6891
▁crowd	-10.6894
▁Mountain	-10.6899
▁temporary	-10.6902
▁Specific	-10.6902
▁upgrade	-10.6905
KB	-10.6909
▁Face	-10.6913
▁failed	-10.6918
▁Tattoo	-10.6923
▁CL	-10.6925
ception	-10.6927
▁reception	-10.6927
▁watching	-10.6928
▁Mill	-10.6928
▁spray	-10.6934
▁Original	-10.6936
▁García	-10.6953
▁Collection	-10.6953
ICAL	-10.6958
▁Energy	-10.6958
gie	-10.6959
▁satisfaction	-10.696
RY	-10.6962
▁Pink	-10.6963
▁smell	-10.6964
▁shell	-10.6965
metry	-10.6971
▁pregnant	-10.6972
▁pilot	-10.6974
▁serving	-10.698
TP	-10.6984
▁Engine	-10.6996
▁soccer	-10.6998
▁Operation	-10.6998
▁promoting	-10.7001
▁mess	-10.7006
▁nearby	-10.7008
▁Twitter	-10.7011
▁Road	-10.7017
▁fuck	-10.7021
BR	-10.7022
▁golden	-10.7024
▁painted	-10.7024
oxy	-10.7033
▁legislation	-10.7034
▁valuable	-10.7035
▁Child	-10.7045
▁Remember	-10.7051
▁contrary	-10.7058
â	-10.706
▁attended	-10.7065
▁Sexy	-10.7065
▁tumor	-10.7066
gna	-10.7066
▁barrier	-10.7068
▁Classic	-10.7072
▁hip	-10.7073
▁Daniel	-10.7075
▁alleged	-10.7075
▁certainly	-10.7076
▁gap	-10.7082
▁shade	-10.7082
▁college	-10.7087
▁Building	-10.7089
▁diver	-10.7089
▁colleague	-10.7094
onym	-10.7095
▁Cute	-10.7095
▁highlighted	-10.7104
▁Visit	-10.7105
▁Sport	-10.7106
▁aforementioned	-10.7106
▁Remove	-10.7106
▁Fair	-10.7107
Al	-10.7113
▁harvest	-10.7118
organ	-10.7119
▁Screen	-10.7122
▁argue	-10.7127
▁introduce	-10.7131
▁dishes	-10.7134
person	-10.7134
▁Toys	-10.7135
berry	-10.7138
▁MAR	-10.7143
▁authorized	-10.7149
▁confident	-10.7154
break	-10.7155
▁bought	-10.7158
▁keyboard	-10.7158
national	-10.716
▁glasses	-10.7167
▁boil	-10.7167
▁refuse	-10.718
▁Abstract	-10.7186
▁Safety	-10.7188
▁Spring	-10.7189
claim	-10.7191
▁realized	-10.7192
▁Later	-10.7193
▁Put	-10.7194
▁Regulation	-10.7196
scribe	-10.7197
▁compact	-10.7203
▁conventional	-10.7207
▁Mel	-10.721
▁slide	-10.7212
▁motorcycle	-10.7213
▁Soft	-10.7213
Friend	-10.7215
ONE	-10.7216
ASS	-10.7222
▁slip	-10.7224
CM	-10.723
▁classroom	-10.723
▁Come	-10.7244
▁analyzed	-10.7246
▁Character	-10.7246
▁productivity	-10.7246
▁Event	-10.7249
?”	-10.7251
´	-10.7258
▁funny	-10.7258
▁convince	-10.7265
▁broke	-10.7265
▁pray	-10.7267
▁surprised	-10.7268
just	-10.7272
▁typically	-10.7277
▁crack	-10.7277
▁Virgin	-10.7281
▁sticker	-10.7282
▁calculation	-10.7283
▁Additionally	-10.7284
▁kick	-10.7287
ARE	-10.7288
▁Ur	-10.7288
TRA	-10.729
▁Oh	-10.7291
▁Economic	-10.7299
XX	-10.7299
▁inspired	-10.7304
▁Rio	-10.7304
▁Washington	-10.7307
▁lib	-10.7311
▁inhibit	-10.7316
immer	-10.7323
“	-10.7333
▁Dark	-10.7335
▁Instagram	-10.7336
RM	-10.7339
▁professor	-10.7343
▁decline	-10.735
▁enemy	-10.7352
▁hardware	-10.7358
▁Account	-10.7361
▁aesthetic	-10.737
qual	-10.7371
▁minimal	-10.738
▁rail	-10.7384
▁Angeles	-10.7385
▁losing	-10.7393
▁encounter	-10.7394
▁ceiling	-10.7394
▁narrow	-10.7394
▁engineering	-10.7399
▁flood	-10.74
SU	-10.7401
▁recall	-10.7402
▁palm	-10.7403
▁productive	-10.7403
▁removal	-10.7403
▁laboratory	-10.7405
▁James	-10.7405
▁Square	-10.7409
▁disk	-10.7409
▁council	-10.7418
▁Spec	-10.7424
▁nurse	-10.7425
▁villa	-10.7429
▁Guard	-10.7429
▁Panama	-10.7431
▁trained	-10.7432
▁financing	-10.7437
▁Currently	-10.7442
▁privacy	-10.7457
▁accompany	-10.7459
ACT	-10.7463
▁modified	-10.7464
▁diverse	-10.7465
▁complicated	-10.7466
▁Culture	-10.7466
▁alert	-10.7468
▁heaven	-10.747
▁blade	-10.747
▁biological	-10.7471
charge	-10.7477
▁Bill	-10.7483
▁Choose	-10.7485
▁feedback	-10.7485
order	-10.7486
▁overcome	-10.7489
▁tall	-10.7496
▁currency	-10.7498
▁exact	-10.7499
ello	-10.7501
▁Opera	-10.7505
▁crown	-10.7506
TY	-10.7507
ault	-10.7511
▁guest	-10.7512
El	-10.7513
▁happiness	-10.7516
▁duty	-10.7522
▁permission	-10.7524
cycle	-10.7527
▁excessive	-10.7527
▁Sleeve	-10.7527
▁Plant	-10.7528
▁modify	-10.7532
▁Fla	-10.7536
▁Space	-10.7539
▁unable	-10.754
▁rice	-10.7541
▁insist	-10.7543
▁Mount	-10.7543
▁liver	-10.7546
▁width	-10.7547
▁HP	-10.7547
▁psychological	-10.7548
ICE	-10.7548
▁calendar	-10.7558
▁verify	-10.7581
▁gym	-10.7583
▁continent	-10.7583
loom	-10.7602
▁programming	-10.7605
▁intensity	-10.7605
▁grain	-10.7606
ension	-10.7612
agin	-10.7613
▁Society	-10.7616
RAM	-10.7617
▁injuries	-10.7618
shot	-10.7619
▁render	-10.7619
▁Radio	-10.7627
▁resist	-10.7631
CU	-10.7631
▁difficulty	-10.7633
▁Total	-10.7635
▁definitely	-10.7642
▁lady	-10.7643
▁caught	-10.7643
▁accessible	-10.7647
▁Regarding	-10.7649
PD	-10.7654
▁reaches	-10.7656
▁tomorrow	-10.7656
▁radical	-10.7659
▁bowl	-10.766
▁increasingly	-10.7661
▁vast	-10.7662
▁Within	-10.7663
BER	-10.7663
▁Brazilian	-10.767
▁inspection	-10.7677
MC	-10.7685
IDE	-10.7689
▁employee	-10.7698
▁thermal	-10.7701
▁boxes	-10.7703
▁drill	-10.7712
▁prompt	-10.7713
abil	-10.7715
▁Adult	-10.7716
▁quantity	-10.7724
▁retro	-10.7732
▁Source	-10.7733
▁relief	-10.7735
▁ease	-10.7737
road	-10.7739
▁silence	-10.7741
▁sleeve	-10.7744
screen	-10.7745
lav	-10.7747
▁HIV	-10.7749
▁Coll	-10.7751
▁Level	-10.7751
▁suspension	-10.7752
▁Policy	-10.7752
▁excess	-10.7754
EAR	-10.7755
▁mining	-10.7755
▁actress	-10.7756
guard	-10.7756
▁blend	-10.7758
▁philosophy	-10.7759
▁macro	-10.7761
▁bomb	-10.7764
level	-10.7771
▁Media	-10.7771
code	-10.7779
you	-10.7779
▁conservation	-10.7781
▁privilege	-10.7783
▁Barr	-10.7789
▁calculated	-10.7794
▁López	-10.7794
▁southern	-10.7795
▁robot	-10.7796
▁spending	-10.7796
▁athlete	-10.78
▁moon	-10.7802
▁monthly	-10.7809
▁Costume	-10.7811
▁Perfect	-10.7814
END	-10.7816
▁entertainment	-10.7819
▁specify	-10.7828
chin	-10.7835
▁Customer	-10.7839
▁detected	-10.7844
▁Conference	-10.7846
▁reverse	-10.7848
▁outline	-10.7849
▁prize	-10.785
▁editor	-10.7851
▁Michael	-10.7852
▁brake	-10.7859
▁Sky	-10.7859
▁agriculture	-10.7865
ç	-10.7869
▁Torre	-10.787
▁mom	-10.787
▁Mix	-10.7871
▁strap	-10.7871
rank	-10.7872
static	-10.7876
▁socio	-10.788
▁storm	-10.7883
▁steam	-10.7885
▁massage	-10.7886
vari	-10.7888
▁detection	-10.789
▁trading	-10.7892
▁Detail	-10.7893
▁Computer	-10.7893
pharma	-10.7894
▁Queen	-10.7897
ambi	-10.7897
▁stem	-10.7897
▁minister	-10.7898
▁Cuban	-10.7905
▁indoor	-10.7905
▁pleasant	-10.7906
▁Record	-10.7912
▁chip	-10.7913
▁Trade	-10.7914
ANCE	-10.7915
power	-10.7917
▁Kitchen	-10.7918
▁nose	-10.7925
ison	-10.7929
▁grown	-10.7936
▁leak	-10.7951
▁Bolivia	-10.7957
▁Enjoy	-10.7957
▁smartphone	-10.7962
para	-10.7963
▁irre	-10.7966
▁Decoration	-10.7967
OUT	-10.7971
▁desert	-10.7973
▁proud	-10.7973
▁honest	-10.7982
▁worst	-10.7984
And	-10.7985
▁alive	-10.7992
▁facility	-10.7995
There	-10.7996
▁requirement	-10.7999
▁volunteer	-10.8001
▁structural	-10.8003
anza	-10.8008
▁producing	-10.801
▁deploy	-10.8012
class	-10.8016
▁carrier	-10.8016
▁Bluetooth	-10.8023
▁kilo	-10.8027
▁Band	-10.8027
▁William	-10.8027
▁optimal	-10.8029
▁plenty	-10.8031
▁everyday	-10.8036
▁Plaza	-10.8043
▁sustain	-10.8044
▁Yellow	-10.8044
script	-10.8045
▁suspect	-10.8045
▁Self	-10.8056
▁Instead	-10.806
▁successfully	-10.8062
▁rescue	-10.8064
▁weigh	-10.8065
▁proven	-10.8067
ardo	-10.8069
▁loose	-10.8075
▁Sex	-10.8077
▁concluded	-10.8078
OME	-10.8082
▁trap	-10.8083
▁trick	-10.8084
▁Transport	-10.8085
▁ignore	-10.8085
phen	-10.8086
▁composed	-10.8088
new	-10.809
▁effectiveness	-10.8094
▁College	-10.8102
▁Know	-10.8102
▁coordination	-10.8107
▁centuries	-10.8117
▁regularly	-10.8118
▁perception	-10.8124
▁substantial	-10.8125
▁Jorge	-10.8125
▁satellite	-10.8126
▁perceive	-10.8128
▁regardless	-10.813
plication	-10.8133
▁negotiation	-10.8134
▁desk	-10.8136
▁split	-10.8148
▁taxes	-10.8152
▁politics	-10.8153
▁violation	-10.8155
añ	-10.8157
▁molecule	-10.8157
▁crash	-10.8158
▁Country	-10.8162
▁absolutely	-10.8166
nutrient	-10.8167
Integra	-10.8167
▁sail	-10.817
▁massive	-10.818
▁judgment	-10.818
▁Industrial	-10.8182
▁Tax	-10.8188
▁Outdoor	-10.8192
MD	-10.8192
▁reasonable	-10.8196
section	-10.8197
▁Rob	-10.82
▁nerve	-10.8201
▁slave	-10.8203
▁oven	-10.8211
▁WE	-10.8214
▁heritage	-10.8215
▁refuge	-10.8217
▁George	-10.8221
▁differ	-10.8225
▁assured	-10.8225
verb	-10.8229
▁bow	-10.8236
▁lifestyle	-10.8238
TM	-10.8239
▁wholesale	-10.8243
▁Cook	-10.8253
▁tournament	-10.8254
▁grew	-10.8257
▁mouse	-10.8257
▁opposition	-10.8257
▁Drawing	-10.8258
jar	-10.8259
▁exclusively	-10.8262
▁outstanding	-10.8268
scape	-10.8275
▁angel	-10.8282
▁rough	-10.8283
▁Based	-10.8287
▁polymer	-10.8288
RP	-10.8298
▁Birthday	-10.8303
Á	-10.8305
▁lung	-10.831
▁Tree	-10.8315
▁gel	-10.832
▁persist	-10.8321
▁Camera	-10.8324
▁Palace	-10.8324
▁operational	-10.8325
▁preparing	-10.8326
sulf	-10.8328
▁toilet	-10.8329
▁abroad	-10.833
▁Local	-10.8341
▁laser	-10.8347
▁Switch	-10.8353
▁possess	-10.8359
▁sunset	-10.836
nie	-10.8362
meric	-10.8363
open	-10.8378
shaped	-10.8378
▁Florida	-10.838
▁winning	-10.8386
uzz	-10.8386
▁Halloween	-10.8387
▁incredible	-10.8389
▁syndrome	-10.8389
▁Plastic	-10.8389
▁Salvador	-10.8391
▁Dec	-10.8399
▁tropical	-10.8407
mile	-10.8408
▁Cruz	-10.8414
▁exceptional	-10.8415
▁injection	-10.8417
▁Restaurant	-10.8418
▁closing	-10.8421
▁residence	-10.8422
▁Samsung	-10.8422
▁compare	-10.8431
umber	-10.8432
▁branches	-10.8432
▁flexibility	-10.8436
▁Liber	-10.8437
▁retail	-10.8439
▁parameter	-10.8439
▁crazy	-10.844
▁Object	-10.8453
morph	-10.8457
▁thermo	-10.8458
▁hook	-10.8458
▁spectacular	-10.8464
▁density	-10.8474
from	-10.8476
▁ecosystem	-10.848
▁romantic	-10.8482
▁programme	-10.849
▁depression	-10.85
TV	-10.85
▁beaches	-10.8502
▁invited	-10.8503
bot	-10.8503
▁arrangement	-10.8504
▁accused	-10.8506
DER	-10.8512
▁banner	-10.8522
▁consultation	-10.8526
course	-10.853
▁artificial	-10.8532
▁digest	-10.8533
INT	-10.8538
▁hire	-10.8539
▁Regional	-10.8546
▁extraordinary	-10.855
▁unlike	-10.8555
▁acquire	-10.8556
▁Flat	-10.8557
▁preference	-10.8559
▁afraid	-10.8562
▁cloth	-10.8564
▁batteries	-10.8564
▁organism	-10.8564
▁discharge	-10.8566
▁Portrait	-10.8568
▁Valley	-10.857
▁neutral	-10.8576
▁disturb	-10.8576
▁scheduled	-10.8589
▁Cru	-10.8589
▁humanity	-10.8591
▁Single	-10.8593
corp	-10.8596
▁Photography	-10.8602
▁participating	-10.8604
phil	-10.8612
ACK	-10.8613
▁chat	-10.8616
▁accomplish	-10.8618
nomic	-10.8622
▁Settings	-10.8623
pass	-10.8623
▁illustrate	-10.8626
▁impressive	-10.8628
▁Round	-10.8629
Car	-10.8633
UI	-10.8633
▁revenue	-10.8634
▁Korea	-10.8641
▁Mediterranean	-10.865
▁diabetes	-10.865
▁yield	-10.8652
▁satisfied	-10.8654
▁employer	-10.8659
▁County	-10.8669
▁conversion	-10.867
▁Quick	-10.8674
▁implies	-10.8676
▁introduction	-10.8677
rich	-10.868
USE	-10.8685
▁interrupt	-10.8688
▁Ask	-10.8693
▁COMP	-10.8695
▁Electronic	-10.8695
▁Past	-10.8697
▁protagonist	-10.8703
▁Moreover	-10.8709
▁Guatemala	-10.8709
▁reservation	-10.8717
▁draft	-10.8727
stick	-10.8728
▁committee	-10.8733
▁Town	-10.8736
▁somewhat	-10.8745
▁Gui	-10.8752
▁Perhaps	-10.8754
▁rod	-10.8755
▁arrow	-10.8756
▁radiation	-10.876
▁Frank	-10.8762
▁stain	-10.8765
▁DVD	-10.8766
▁compensation	-10.8782
▁olive	-10.8787
▁smiling	-10.8789
▁sought	-10.8791
▁interval	-10.8792
▁max	-10.8797
▁rhythm	-10.8801
▁theoretical	-10.8822
ipped	-10.8823
▁Studio	-10.8823
▁optimize	-10.8826
▁nervous	-10.8832
▁submitted	-10.8833
▁protective	-10.8834
▁Skin	-10.8837
▁certification	-10.8842
▁silhouette	-10.8846
aire	-10.8847
▁upload	-10.8854
▁Lady	-10.8856
▁Santo	-10.8859
▁Roll	-10.886
flex	-10.8861
▁Effect	-10.8865
▁Common	-10.8869
▁stomach	-10.8873
BL	-10.8876
▁Patri	-10.8877
▁Leon	-10.8879
ario	-10.8882
cision	-10.8886
▁rub	-10.8886
▁float	-10.889
▁disaster	-10.8891
▁Meanwhile	-10.8892
▁slot	-10.8894
ounce	-10.8896
▁prince	-10.8898
acle	-10.891
▁membrane	-10.891
▁Comb	-10.8911
▁axis	-10.8912
▁confront	-10.8912
▁consent	-10.8913
▁flour	-10.8916
▁scholar	-10.8925
▁eventually	-10.8925
TIC	-10.8927
▁ceremony	-10.8931
▁Walk	-10.8936
ELL	-10.8942
▁ordinary	-10.8948
▁undergo	-10.8949
▁dish	-10.8949
▁Concept	-10.8953
▁outcome	-10.8959
▁Clipart	-10.8961
▁cylinder	-10.8962
▁DIY	-10.8965
emi	-10.8967
▁northern	-10.8971
▁Clear	-10.8973
▁fantastic	-10.8977
▁Always	-10.8986
▁acquisition	-10.8987
▁outlet	-10.8991
▁Winter	-10.8993
hur	-10.8993
▁suddenly	-10.8999
▁Doll	-10.9008
▁fifth	-10.901
▁dispute	-10.9023
build	-10.9027
▁situated	-10.9033
▁Stone	-10.9034
▁anxiety	-10.9035
▁uncertain	-10.9035
▁Located	-10.9038
▁wage	-10.9038
▁creature	-10.9039
▁losses	-10.9043
▁activated	-10.9047
▁rival	-10.9053
▁classified	-10.9054
▁thickness	-10.9062
▁qualified	-10.9065
▁purple	-10.9066
▁Dam	-10.9067
IND	-10.907
▁flame	-10.9073
▁González	-10.9078
AIN	-10.9078
▁satisfy	-10.9082
▁seamless	-10.9084
▁precise	-10.9084
ML	-10.9086
▁infant	-10.9086
▁adaptation	-10.9087
cco	-10.9091
QUI	-10.9093
priv	-10.9099
QUE	-10.9099
▁primarily	-10.9105
▁PRI	-10.9108
▁patch	-10.9109
ville	-10.9111
▁democracy	-10.9111
▁patent	-10.9115
▁tries	-10.9117
▁CAR	-10.9121
▁giant	-10.9127
▁spacious	-10.9133
▁occupation	-10.9135
WA	-10.9137
▁analog	-10.9138
▁Region	-10.9145
▁Import	-10.9147
pra	-10.9149
▁commit	-10.915
▁Disney	-10.9154
▁rob	-10.9159
▁Official	-10.9162
ABLE	-10.9164
▁nuclear	-10.9171
▁grace	-10.9172
▁catalog	-10.9173
LIC	-10.9175
▁strain	-10.9178
ICA	-10.9182
▁Dragon	-10.9183
▁administer	-10.9186
lub	-10.919
▁necessarily	-10.9192
▁Complete	-10.9193
▁sew	-10.9194
▁Tag	-10.9202
▁homo	-10.9218
▁Diego	-10.9218
▁Again	-10.9231
▁Software	-10.9233
▁kidney	-10.9236
▁Academy	-10.9239
fill	-10.9245
▁Limit	-10.9245
▁cookies	-10.9247
▁layout	-10.925
▁legitim	-10.9257
▁Between	-10.9261
▁honey	-10.9265
▁insect	-10.9267
▁Jean	-10.9268
▁independence	-10.9276
▁Rodríguez	-10.928
▁administrator	-10.9286
▁Chamber	-10.9287
▁Welcome	-10.9289
▁dependent	-10.9292
▁achieving	-10.9293
{	-10.9297
▁moderate	-10.9298
▁Fernando	-10.9299
AVE	-10.9302
▁Discover	-10.931
high	-10.931
▁copper	-10.9312
▁Present	-10.9314
▁Uruguay	-10.9321
▁Barb	-10.9326
▁casual	-10.9326
▁diagram	-10.9329
▁supplied	-10.933
▁immune	-10.933
▁slope	-10.9334
trans	-10.9338
AST	-10.9338
▁matches	-10.9339
▁Dur	-10.934
▁logic	-10.934
▁Pablo	-10.9345
▁consequence	-10.9348
▁clinic	-10.935
▁sacrifice	-10.9353
▁potato	-10.9353
▁sanction	-10.9359
▁Monitor	-10.936
maz	-10.9366
▁progressive	-10.937
▁chamber	-10.9382
▁durable	-10.9384
▁premium	-10.9393
▁neo	-10.9394
▁Function	-10.9399
▁authorization	-10.9404
fight	-10.9407
gust	-10.9408
▁preferably	-10.9412
▁Apartment	-10.9412
▁Results	-10.9421
▁approaches	-10.9438
▁Document	-10.9438
▁survival	-10.9441
▁Wild	-10.9442
▁Golden	-10.9447
▁drum	-10.9449
▁Nature	-10.945
▁signature	-10.9454
▁choosing	-10.9458
▁settlement	-10.946
▁Solution	-10.946
IGHT	-10.9461
▁monument	-10.9465
▁Simple	-10.9475
bble	-10.9476
▁foam	-10.9487
space	-10.949
▁Speed	-10.9493
▁enormous	-10.9493
▁Credit	-10.9493
▁Fall	-10.9494
ARY	-10.9498
▁Command	-10.9498
▁obstacle	-10.95
▁stood	-10.9513
▁consciousness	-10.9513
▁Stand	-10.9521
▁Dominican	-10.9526
▁evident	-10.9533
▁Ocean	-10.9533
▁sensation	-10.954
credit	-10.9541
▁Panel	-10.9542
▁Measure	-10.9546
▁guess	-10.9548
▁fragment	-10.9548
socia	-10.9554
▁sponsor	-10.9557
▁Hill	-10.956
▁Join	-10.9567
▁gradually	-10.9568
▁Pacific	-10.9571
▁pants	-10.9574
▁loop	-10.9588
▁portfolio	-10.959
▁cow	-10.9599
▁Graphic	-10.9599
▁appointed	-10.9604
▁judicial	-10.9604
▁Week	-10.9604
▁Consider	-10.9607
FR	-10.9607
▁Jewelry	-10.9613
front	-10.9613
▁Division	-10.9616
▁Cell	-10.9618
▁tray	-10.9622
▁healing	-10.9623
▁spark	-10.9623
▁Logo	-10.9624
▁Hello	-10.9634
▁Method	-10.9637
▁senior	-10.9637
▁equation	-10.9639
▁tough	-10.9642
▁Boot	-10.9652
▁sphere	-10.9655
▁jewelry	-10.9658
▁precision	-10.9658
▁charging	-10.9669
▁ceramic	-10.9671
▁Stainless	-10.9673
▁exciting	-10.9677
▁Having	-10.9681
▁COVID	-10.9686
employed	-10.9688
▁outfit	-10.9691
function	-10.9699
▁desktop	-10.9701
▁classification	-10.9701
▁essence	-10.9705
▁Should	-10.971
▁injured	-10.9713
▁chief	-10.9722
▁applies	-10.9728
▁exterior	-10.973
▁capabilities	-10.9736
▁intake	-10.9739
▁diagnose	-10.9749
▁entrepreneur	-10.975
RU	-10.9751
▁Letter	-10.9752
▁functionality	-10.9755
▁Improve	-10.9756
▁profession	-10.9759
▁Language	-10.9763
▁porn	-10.9773
▁decorated	-10.9774
▁scratch	-10.9774
▁glove	-10.9777
▁examination	-10.9779
▁memories	-10.9788
▁stimulate	-10.9788
▁delight	-10.9797
▁Third	-10.9801
▁cuisine	-10.9808
▁Bull	-10.9814
▁loud	-10.9817
▁Battery	-10.9817
American	-10.9819
▁Financial	-10.9822
▁Jewish	-10.9826
▁Ultra	-10.9826
▁Solid	-10.9827
▁Automatic	-10.9833
}	-10.9833
▁Female	-10.9833
▁Still	-10.9833
▁Chair	-10.9834
▁gall	-10.9841
▁Texas	-10.9842
▁Down	-10.9845
▁console	-10.9846
▁divine	-10.9847
▁Cool	-10.9851
▁Storage	-10.9851
▁journal	-10.9854
▁Element	-10.9854
bour	-10.9859
▁motivation	-10.986
▁Vega	-10.9861
rrh	-10.9864
vocation	-10.9866
carbon	-10.987
▁Doctor	-10.987
▁castle	-10.9874
▁boss	-10.9875
▁enterprise	-10.9879
▁cabinet	-10.9887
▁hazard	-10.9893
▁Condition	-10.9893
▁managing	-10.9898
▁ensuring	-10.9904
▁brick	-10.9909
▁golf	-10.9917
▁Private	-10.9918
heat	-10.992
▁violent	-10.992
▁regulatory	-10.9926
▁Environmental	-10.9929
▁Parliament	-10.9929
▁Ideal	-10.993
▁pepper	-10.9936
▁diagnostic	-10.9936
▁impression	-10.9938
▁circulation	-10.9941
▁Tip	-10.9941
▁surgical	-10.9943
▁Express	-10.9945
▁tub	-10.9955
▁Olympic	-10.9957
▁bug	-10.9959
▁Korean	-10.9959
▁rational	-10.9963
▁acknowledge	-10.9964
▁Fast	-10.9966
▁Dresses	-10.9966
▁highway	-10.997
▁zoo	-10.9976
▁instruction	-10.9983
▁NOTE	-10.9983
▁cave	-10.9984
graphic	-10.9988
▁vaccine	-10.9989
▁partnership	-10.9996
▁surprising	-11.0001
text	-11.0004
▁motivate	-11.0005
▁separation	-11.001
▁anymore	-11.0012
▁unusual	-11.0015
▁Until	-11.0015
▁initiate	-11.0019
▁confess	-11.002
ULT	-11.0022
▁stamp	-11.0022
▁stroke	-11.0022
▁silent	-11.0026
xtrem	-11.0027
▁gran	-11.0033
clin	-11.0036
phon	-11.0039
▁divide	-11.0041
▁musician	-11.0042
▁mobility	-11.005
▁implant	-11.0059
▁headquarters	-11.0061
▁accumulate	-11.0061
▁Available	-11.0075
▁bigger	-11.0075
▁succeed	-11.008
▁Agency	-11.008
▁invitation	-11.0082
▁Adapt	-11.0088
▁Capital	-11.009
▁vulnerable	-11.0098
▁Cloud	-11.0098
▁Province	-11.0103
▁Location	-11.0103
▁valley	-11.0103
write	-11.0105
▁advertise	-11.0108
▁restrictions	-11.0113
▁integrate	-11.0113
▁Clothing	-11.0115
▁corruption	-11.0122
▁Lima	-11.0123
▁Allow	-11.0126
▁closure	-11.0129
▁slight	-11.0132
▁statue	-11.0136
▁Clip	-11.0136
▁orientation	-11.0138
▁everywhere	-11.0141
▁enemies	-11.0147
▁mutual	-11.0148
▁farmers	-11.0148
ACH	-11.015
▁Berlin	-11.0152
▁anniversary	-11.0155
▁addict	-11.0155
▁hormone	-11.0157
▁determination	-11.0166
▁mature	-11.0171
AZ	-11.0178
▁crew	-11.0178
▁kingdom	-11.0179
▁architect	-11.018
▁coronavirus	-11.018
▁debut	-11.0182
▁gentle	-11.0182
▁jurisdiction	-11.0183
oriented	-11.019
▁swim	-11.0191
▁Professor	-11.0192
▁principal	-11.0192
▁Turkey	-11.0195
▁Pattern	-11.0198
▁Universal	-11.0199
▁Maybe	-11.0207
▁customize	-11.0208
▁comic	-11.021
▁autumn	-11.0213
▁wake	-11.0213
▁limitations	-11.0219
▁Chilean	-11.022
▁gang	-11.0226
▁varied	-11.0229
▁adolescent	-11.0232
▁Different	-11.0235
control	-11.0236
▁Study	-11.024
▁Supreme	-11.0242
▁Touch	-11.0242
▁excited	-11.0249
▁dramatic	-11.0254
▁elastic	-11.0257
▁lever	-11.026
▁opponent	-11.0263
▁Device	-11.0266
RED	-11.0269
▁Bridge	-11.027
▁Portugal	-11.028
▁Includes	-11.0286
after	-11.0287
III	-11.0288
▁Living	-11.0291
▁virtue	-11.0292
▁marine	-11.0299
ACE	-11.0303
▁Victoria	-11.0304
self	-11.0306
▁Think	-11.0307
▁friendship	-11.0307
▁forecast	-11.0309
▁Block	-11.031
▁minimize	-11.0311
▁diamond	-11.0313
▁certified	-11.0318
▁Way	-11.0319
▁generating	-11.0319
▁possibly	-11.032
food	-11.0321
▁genre	-11.0338
▁democratic	-11.0344
▁sensitivity	-11.0351
viv	-11.0354
▁decorative	-11.0366
ö	-11.0371
▁gesture	-11.0376
▁Medicine	-11.0385
▁continuing	-11.039
▁residential	-11.039
▁NEW	-11.0393
▁admit	-11.0393
▁LCD	-11.0395
▁ruin	-11.04
▁bicycle	-11.0401
therapy	-11.0407
▁skirt	-11.0411
tribution	-11.0412
▁rust	-11.0413
▁Galaxy	-11.0414
▁Peruvian	-11.0414
▁universities	-11.0414
▁sculpture	-11.0415
▁acute	-11.0422
▁bubble	-11.0424
▁companion	-11.0424
▁Federation	-11.0426
▁Foreign	-11.0428
▁Meeting	-11.0434
▁salary	-11.044
▁Treatment	-11.0443
▁appliance	-11.0443
▁Flash	-11.0447
▁measuring	-11.0448
▁Austria	-11.0448
▁spell	-11.0451
▁dental	-11.0452
▁Greece	-11.046
NU	-11.0463
integra	-11.0465
▁destruction	-11.0467
▁font	-11.0471
▁Content	-11.0477
▁surf	-11.048
▁aggressive	-11.0482
▁creativity	-11.0484
▁stir	-11.0487
▁colour	-11.0492
▁ethnic	-11.0494
▁magnetic	-11.0507
▁intend	-11.0508
▁evolve	-11.0509
▁relate	-11.0517
▁Several	-11.0521
▁statistics	-11.0523
ologies	-11.0528
`	-11.0533
PAR	-11.0533
▁harmful	-11.0537
▁pitch	-11.0541
analytic	-11.0546
▁guidance	-11.0547
▁Question	-11.0552
▁Analysis	-11.056
▁simultaneously	-11.0561
▁tongue	-11.0562
▁industries	-11.0565
▁fellow	-11.0566
▁eternal	-11.0568
▁Wash	-11.0574
responsibilities	-11.0582
▁Field	-11.0584
▁vacuum	-11.0589
▁Revolution	-11.0594
▁worship	-11.0594
▁mood	-11.06
▁municipalities	-11.0607
▁equality	-11.061
ORD	-11.0612
▁aroma	-11.0612
▁Unfortunately	-11.0614
▁coincide	-11.0627
▁circum	-11.0628
▁sword	-11.063
stein	-11.0643
▁shield	-11.0648
▁elderly	-11.0653
sexual	-11.0661
▁weakness	-11.0662
▁guilt	-11.0663
▁Rico	-11.0664
▁disappoint	-11.0665
▁consolidate	-11.0668
▁Tower	-11.0669
▁lean	-11.0671
▁moisture	-11.0685
▁shelter	-11.0688
▁adjustable	-11.0692
▁Whether	-11.07
▁faithful	-11.07
▁knife	-11.0705
including	-11.0718
▁undertake	-11.0721
▁hydraulic	-11.0722
▁referring	-11.0723
▁sink	-11.0726
▁Mask	-11.0726
▁Studies	-11.0735
▁lemon	-11.0743
▁copies	-11.0745
▁possession	-11.0757
▁summary	-11.0757
glass	-11.0763
stream	-11.0778
▁Audio	-11.0779
▁conclude	-11.078
▁Lock	-11.0783
▁Pérez	-11.0787
▁embodiment	-11.079
▁fitness	-11.0791
▁Premium	-11.0807
▁behalf	-11.081
▁basket	-11.0812
▁methodology	-11.0816
▁Shipping	-11.0819
▁agenda	-11.0823
▁transmitted	-11.0832
▁grave	-11.0832
▁Architect	-11.0848
▁Environment	-11.0856
▁departure	-11.0858
▁Syria	-11.0863
▁bonus	-11.0864
economic	-11.0864
▁investors	-11.0867
worth	-11.087
▁inclusion	-11.087
cultural	-11.0872
▁grab	-11.0874
▁Mario	-11.0875
▁thirty	-11.0888
▁Prime	-11.0901
▁DIS	-11.0908
▁Foot	-11.091
▁Track	-11.0918
▁dropped	-11.092
▁relating	-11.0924
▁Soviet	-11.0928
▁Historic	-11.0929
▁dozen	-11.0929
▁Extra	-11.0931
▁twist	-11.0931
▁grill	-11.0935
▁fiction	-11.094
▁Sánchez	-11.0941
▁assistant	-11.0944
▁poison	-11.0945
▁shine	-11.0946
▁Magic	-11.0947
▁forgive	-11.0948
▁Increase	-11.0951
▁Write	-11.0952
▁refine	-11.0953
▁contradict	-11.0954
▁Remote	-11.0954
product	-11.0956
▁Casual	-11.097
▁Flag	-11.097
▁integrity	-11.0977
DAY	-11.0987
AME	-11.099
SQL	-11.099
▁accuracy	-11.0995
▁taxi	-11.0995
▁rope	-11.0996
▁balcony	-11.1
▁Muslim	-11.1005
dress	-11.1006
▁qualities	-11.1013
▁polish	-11.1013
▁Parent	-11.1013
▁vegetable	-11.1013
▁Construction	-11.1015
▁Miami	-11.1018
▁tennis	-11.1023
▁collaborate	-11.1041
magn	-11.1043
▁shoe	-11.1045
è	-11.1046
▁Sym	-11.1048
RAN	-11.1049
▁Isolated	-11.1054
ENCE	-11.1054
walk	-11.1058
▁recruit	-11.1061
▁Beauty	-11.1066
▁Navy	-11.1069
▁darkness	-11.107
▁prevail	-11.1072
▁chose	-11.1072
▁straw	-11.1072
▁Harry	-11.1073
▁specifications	-11.1075
▁twin	-11.1075
▁prime	-11.1081
▁utility	-11.11
▁Performance	-11.1113
▁statistical	-11.1128
▁Championship	-11.113
▁diploma	-11.1131
▁Louis	-11.1134
store	-11.1136
▁migration	-11.1136
▁Clinic	-11.1139
▁Package	-11.1139
▁mounting	-11.1142
▁shore	-11.1148
▁Plate	-11.1156
▁hug	-11.1164
Script	-11.1165
witch	-11.1166
▁crucial	-11.1167
▁urgent	-11.1168
cellular	-11.1168
▁sustainability	-11.1177
▁loyal	-11.1178
▁Wireless	-11.118
▁Develop	-11.1188
▁Consult	-11.1191
▁pension	-11.1194
▁Wheel	-11.1196
▁substitute	-11.1206
▁criticism	-11.1211
▁Theater	-11.1211
▁Avoid	-11.1212
▁complain	-11.1214
▁YOUR	-11.1215
▁praise	-11.122
▁dialog	-11.1228
▁therapeutic	-11.1235
▁fiscal	-11.1235
▁Coffee	-11.1238
▁Brother	-11.124
▁Exchange	-11.1242
▁YouTube	-11.1243
▁admitted	-11.1246
▁Filter	-11.1246
▁sodium	-11.1249
▁recreation	-11.1254
▁entitled	-11.1256
▁enzyme	-11.1256
▁Additional	-11.1262
change	-11.127
▁arranged	-11.1274
£	-11.1282
▁Library	-11.1282
▁removing	-11.1293
▁grip	-11.1293
▁Update	-11.1301
▁complications	-11.1303
▁mounted	-11.1304
▁Though	-11.1305
▁PVC	-11.1314
ITE	-11.1315
▁Return	-11.1317
POS	-11.1326
▁Portuguese	-11.133
▁collapse	-11.133
▁Active	-11.1332
▁garage	-11.1336
▁royal	-11.1345
▁snack	-11.1351
ECTION	-11.1355
▁indicating	-11.1375
▁monster	-11.1376
▁balloon	-11.138
condition	-11.1382
▁Dutch	-11.1383
EAT	-11.1384
▁prospect	-11.1387
▁Javier	-11.1388
▁pollution	-11.1396
▁discrimination	-11.1417
▁calcium	-11.142
▁thorough	-11.1428
▁Journal	-11.1433
▁pride	-11.1445
▁curious	-11.1453
▁adverse	-11.1454
▁calculate	-11.1456
▁twelve	-11.146
▁confi	-11.147
▁infected	-11.1471
plicate	-11.1478
▁Iraq	-11.1479
▁Industry	-11.1479
▁dried	-11.1482
▁Martínez	-11.1483
▁troops	-11.1491
▁Manufacture	-11.1492
▁Canvas	-11.1493
▁euro	-11.1494
▁Engineering	-11.1498
▁Defense	-11.1503
▁solvent	-11.152
▁fever	-11.1527
synthesis	-11.153
▁league	-11.1538
▁unfortunate	-11.1541
▁vibration	-11.1544
▁western	-11.1546
▁snap	-11.1549
▁Secretariat	-11.1549
▁fraud	-11.1554
▁Website	-11.1557
minute	-11.1565
▁constitutional	-11.1581
▁smoking	-11.1587
▁canvas	-11.159
▁trauma	-11.1595
▁slice	-11.1596
▁sketch	-11.1601
▁Netherlands	-11.1608
▁ornament	-11.1615
▁warranty	-11.1619
▁dollar	-11.1623
OVE	-11.1624
▁ruling	-11.1628
▁Transfer	-11.1629
▁Value	-11.163
▁generator	-11.1653
▁joke	-11.1657
▁convey	-11.1661
When	-11.1672
▁delicate	-11.1674
________________	-11.1682
▁literary	-11.1684
▁solidarity	-11.1699
▁beneficial	-11.1701
▁Copy	-11.1708
▁bulb	-11.1708
▁Traditional	-11.171
..............	-11.171
▁indeed	-11.1716
▁Cultural	-11.1718
▁Normal	-11.1723
▁cosmetic	-11.1726
scale	-11.1727
▁respiratory	-11.1732
▁navigation	-11.1734
▁variant	-11.1738
▁rotation	-11.1743
▁creator	-11.1751
▁politician	-11.1751
▁raising	-11.1776
ometric	-11.1792
▁Crystal	-11.1792
▁Holiday	-11.1798
▁cognitive	-11.1801
virus	-11.1804
agger	-11.181
▁Motorcycle	-11.1812
▁peaceful	-11.1815
ación	-11.1815
▁basically	-11.1817
▁Orange	-11.1821
▁electoral	-11.1823
▁pandemic	-11.1823
▁Cotton	-11.1823
▁qualify	-11.1823
▁disposal	-11.1825
▁optical	-11.184
WORK	-11.1856
à	-11.1862
▁Switzerland	-11.1867
▁systematic	-11.1889
▁intervene	-11.1897
▁horizon	-11.1905
practic	-11.1909
▁Hood	-11.191
▁salad	-11.1935
▁Advanced	-11.1946
▁fraction	-11.1946
▁shake	-11.1946
▁stereo	-11.1951
▁Snow	-11.1957
▁Coast	-11.1957
▁Democrat	-11.1962
▁pencil	-11.1964
▁cabin	-11.1964
▁Dream	-11.1971
▁Temple	-11.1977
▁Strip	-11.1978
▁devote	-11.1979
▁poem	-11.1981
▁Peace	-11.1985
▁resume	-11.1991
▁iStock	-11.1991
▁animation	-11.2
▁mortality	-11.2002
▁waist	-11.2003
▁varieties	-11.2005
▁terrible	-11.2008
▁cluster	-11.2008
▁Previous	-11.2016
▁imagination	-11.2022
▁Empire	-11.2022
▁Urban	-11.2023
▁queen	-11.2027
Cycl	-11.2027
▁technician	-11.2027
▁sunlight	-11.2028
▁cafe	-11.2032
▁Aluminum	-11.2033
▁typ	-11.2035
▁reliability	-11.2039
▁liberal	-11.2042
▁explicit	-11.2044
drop	-11.2049
▁Scott	-11.2053
▁helmet	-11.2059
▁Eastern	-11.2062
▁PDF	-11.2065
▁folk	-11.2067
▁servant	-11.2069
disciplinary	-11.2079
berries	-11.2087
▁Channel	-11.2099
▁Risk	-11.21
▁affordable	-11.21
▁Martín	-11.2103
▁Resolution	-11.2104
▁elected	-11.2107
▁angry	-11.2112
That	-11.2117
▁zip	-11.2121
▁Tourism	-11.2124
▁lymph	-11.2127
▁surround	-11.2133
▁knock	-11.2139
▁enrich	-11.2144
▁phenomena	-11.215
▁tiny	-11.216
→	-11.2167
▁unexpected	-11.2167
▁silk	-11.2168
▁denied	-11.2168
▁array	-11.2169
▁Range	-11.2171
▁iPad	-11.2173
▁ecological	-11.2176
▁competent	-11.2181
▁royalty	-11.2182
▁grape	-11.2186
▁tunnel	-11.2187
▁applicant	-11.2187
▁Andalusia	-11.2187
▁leisure	-11.219
generation	-11.2192
▁transparency	-11.2193
▁Colorful	-11.2194
▁painful	-11.2195
▁abnormal	-11.2199
▁intelligent	-11.2202
▁treasure	-11.2202
▁Cathedral	-11.2205
synchro	-11.221
▁wisdom	-11.2219
▁placing	-11.2227
▁vein	-11.2233
▁stylish	-11.2236
▁Fabric	-11.2236
▁Indeed	-11.2237
▁Jacket	-11.2238
▁duties	-11.2241
▁occupied	-11.2242
▁Besides	-11.2243
▁doctrine	-11.2245
▁Canadian	-11.2245
▁Creative	-11.2247
▁alliance	-11.2254
▁Nicaragua	-11.226
▁hybrid	-11.226
▁Translation	-11.2262
▁corporation	-11.2262
▁Rafael	-11.2263
▁subscribe	-11.2263
▁trunk	-11.2265
▁overlook	-11.2268
▁disabled	-11.2281
▁Equipment	-11.2283
▁reputation	-11.2283
▁Popular	-11.229
▁determining	-11.2292
▁Blood	-11.2297
▁CEO	-11.2299
▁bolt	-11.2299
▁anticipate	-11.23
▁Military	-11.2306
▁inventory	-11.2318
▁Movie	-11.2349
▁warehouse	-11.2353
▁Jews	-11.2354
▁irregular	-11.2359
▁Hollywood	-11.2362
▁differentiate	-11.2362
▁Esc	-11.2365
▁replied	-11.2368
▁inflation	-11.2368
▁mild	-11.2369
▁associate	-11.237
▁ritual	-11.2374
▁Catalan	-11.2376
▁intimate	-11.2377
▁Major	-11.2379
▁Gabriel	-11.2388
▁incidence	-11.2388
▁shaft	-11.2394
▁Champion	-11.2395
▁Bird	-11.2397
▁declaration	-11.2403
▁emerging	-11.2409
▁tune	-11.2409
▁counsel	-11.2414
▁algorithm	-11.2414
▁refund	-11.2415
▁Psycho	-11.2419
▁Current	-11.2425
▁Charles	-11.2426
▁Excellent	-11.2432
▁Experience	-11.2438
▁cease	-11.2441
public	-11.2454
▁drama	-11.246
▁Basque	-11.2478
−	-11.2482
keeper	-11.2486
▁inflammation	-11.2494
▁Course	-11.2497
▁assignment	-11.2498
▁cheer	-11.2507
▁humidity	-11.2509
▁THAT	-11.2518
▁hygiene	-11.2521
▁dominate	-11.2528
▁penalty	-11.2542
▁parish	-11.2542
▁Explore	-11.2548
▁await	-11.2548
▁pulse	-11.2554
▁Reserve	-11.2554
▁magnificent	-11.256
▁precious	-11.2569
▁Ireland	-11.2569
tactic	-11.2571
▁Patient	-11.2571
▁Teacher	-11.2572
▁refresh	-11.2581
▁ethical	-11.2582
correct	-11.2585
▁downtown	-11.2593
▁Resources	-11.2599
▁Sierra	-11.2599
▁declare	-11.2602
▁assumption	-11.2617
▁stadium	-11.2632
▁Piece	-11.2632
inflammatory	-11.2635
▁consequent	-11.2635
▁Leave	-11.2643
▁integral	-11.2647
▁puzzle	-11.265
methyl	-11.2651
▁bleeding	-11.2656
▁Atlantic	-11.2659
▁crush	-11.2659
▁worn	-11.2659
▁cartridge	-11.2662
▁involving	-11.2665
▁necklace	-11.2668
▁pharmaceutical	-11.2668
▁adhere	-11.2669
▁delegation	-11.2671
▁Depending	-11.2674
▁varies	-11.2679
oodle	-11.268
install	-11.2683
▁premiere	-11.2689
▁Necklace	-11.2692
▁surveillance	-11.2707
▁Thomas	-11.2711
▁floral	-11.2726
▁geographical	-11.2738
▁contemplate	-11.2741
▁GDP	-11.2742
▁backpack	-11.2747
▁brilliant	-11.2765
▁Waterproof	-11.2771
▁hesitate	-11.2771
▁occupy	-11.2774
▁Alberto	-11.2774
▁Aliexpress	-11.2793
▁Cosplay	-11.2793
▁relieve	-11.2796
▁blonde	-11.2802
▁Golf	-11.2809
▁Fruit	-11.2812
▁Fernández	-11.2814
▁emphasis	-11.2814
▁Procedure	-11.282
▁sovereign	-11.2823
▁anchor	-11.2824
▁Smith	-11.283
▁Battle	-11.2836
AIDS	-11.2839
▁alien	-11.2841
monstr	-11.2842
▁identical	-11.2846
▁verified	-11.2846
▁Wholesale	-11.2848
▁Excel	-11.2852
▁barely	-11.2858
▁delegate	-11.2864
▁racing	-11.2867
▁probability	-11.2872
▁beverage	-11.2873
▁supermarket	-11.2876
▁railway	-11.2878
▁Polish	-11.2888
▁conquer	-11.2892
▁synthetic	-11.29
▁residue	-11.2906
▁Moscow	-11.2906
▁hydrogen	-11.291
▁sacred	-11.2913
▁Greeting	-11.2928
|	-11.2938
▁facial	-11.295
escence	-11.2954
▁clarify	-11.2959
bacter	-11.296
▁incentive	-11.2966
▁babies	-11.2972
▁Sensor	-11.2976
▁decree	-11.2978
▁circular	-11.2987
▁cruise	-11.2994
▁rush	-11.2999
▁societies	-11.3003
▁convenience	-11.3012
▁barrel	-11.3013
▁mandatory	-11.3015
punctu	-11.3016
▁ongoing	-11.3017
▁Domain	-11.3044
▁distort	-11.3045
▁receipt	-11.3047
▁Francis	-11.3048
▁stairs	-11.3051
▁Introduction	-11.3053
▁autonomy	-11.3072
▁notebook	-11.3081
____	-11.3086
×	-11.3091
present	-11.3093
▁competitor	-11.31
️	-11.311
▁Thailand	-11.311
▁infinite	-11.3122
▁demonstration	-11.3125
cluding	-11.313
▁antibiotic	-11.3138
▁forgotten	-11.3138
▁earthquake	-11.3141
▁Richard	-11.3141
▁matrix	-11.3144
▁featuring	-11.3148
▁narrative	-11.3151
▁disabilities	-11.3151
▁accommodate	-11.3154
▁awesome	-11.3154
▁empower	-11.3161
▁Swiss	-11.317
▁peasant	-11.3173
▁autonomous	-11.3182
▁Physical	-11.3186
▁Floor	-11.3186
±	-11.3195
▁completion	-11.3198
▁Jerusalem	-11.3205
▁definitive	-11.3211
▁intermediate	-11.3211
▁experiencing	-11.3214
▁Philip	-11.3214
▁Maximum	-11.3217
▁Collect	-11.3222
▁Organic	-11.3224
▁receptor	-11.3224
▁geometric	-11.3225
▁compartment	-11.3227
vascular	-11.3233
▁mammal	-11.324
▁Address	-11.3251
▁Seville	-11.3251
▁temper	-11.3263
commerce	-11.3269
▁jack	-11.3281
▁Governor	-11.3281
▁restoration	-11.3282
▁cocktail	-11.3285
▁Sweden	-11.3288
▁Module	-11.3291
▁Leader	-11.3292
É	-11.3294
▁Commercial	-11.3301
Activ	-11.3303
▁lounge	-11.3313
▁Plug	-11.3314
▁palace	-11.332
▁Río	-11.332
▁rigid	-11.332
▁wheat	-11.3323
▁scream	-11.3323
▁recipient	-11.3327
▁harmony	-11.3327
▁deputy	-11.3327
▁educate	-11.3331
▁girlfriend	-11.3333
▁microphone	-11.3339
▁Luxury	-11.3339
▁absorption	-11.3346
▁merchant	-11.3352
▁triangle	-11.3354
▁fifteen	-11.3359
▁antenna	-11.3359
▁jewel	-11.3359
chemical	-11.336
▁patio	-11.3366
Í	-11.3369
▁physician	-11.3369
▁Chicago	-11.3372
▁Michel	-11.3376
▁Bottle	-11.3382
▁purchasing	-11.3391
▁magnet	-11.34
▁disciple	-11.3408
▁confused	-11.3417
▁venue	-11.3424
school	-11.3431
click	-11.3434
▁Alibaba	-11.344
▁Vehicle	-11.3443
▁emblem	-11.3449
▁bulk	-11.3449
▁architectural	-11.3454
▁affair	-11.346
▁reproduce	-11.3463
▁hetero	-11.3466
Ó	-11.3466
▁eligible	-11.3473
▁bracelet	-11.3476
▁genuine	-11.3476
▁frozen	-11.3486
▁pizza	-11.3486
▁pillow	-11.3486
▁Profile	-11.3493
▁WiFi	-11.3493
▁Paraguay	-11.3496
▁horn	-11.3497
american	-11.3498
▁Clothes	-11.3499
girl	-11.3502
▁opposed	-11.3506
▁Initial	-11.3508
▁Zealand	-11.3509
▁Craft	-11.3509
▁torture	-11.3515
▁fracture	-11.3545
▁Northern	-11.3559
▁gallery	-11.3559
▁trait	-11.3565
▁throat	-11.3565
²	-11.3568
▁skull	-11.3568
▁Nothing	-11.3573
▁tolerance	-11.3582
▁merge	-11.3582
source	-11.3584
▁plasma	-11.3585
▁Sleep	-11.3591
▁Something	-11.3592
▁advisor	-11.3595
▁pursue	-11.36
▁Symbol	-11.3603
▁Vietnam	-11.3608
eño	-11.3608
ocyte	-11.3611
▁immuno	-11.3617
▁alloy	-11.3619
▁mystery	-11.3628
▁Template	-11.3638
▁employ	-11.3644
▁consecutive	-11.3645
▁cigarette	-11.3648
▁supervision	-11.365
▁Diamond	-11.3651
▁Enrique	-11.3658
white	-11.366
dimensional	-11.3661
▁teenager	-11.3668
▁Football	-11.3668
▁apparatus	-11.3675
▁compromise	-11.3675
▁mandate	-11.3675
▁cushion	-11.3681
▁admission	-11.3684
▁territories	-11.3685
▁Client	-11.3688
▁ventilation	-11.3705
▁suicide	-11.3711
▁disadvantage	-11.3721
▁prominent	-11.3728
▁blessing	-11.3732
▁Decree	-11.3752
▁glucose	-11.3772
▁Property	-11.3772
▁tobacco	-11.3772
fasci	-11.3774
▁dessert	-11.3775
▁burden	-11.3786
▁continuity	-11.3803
▁FREE	-11.3807
▁Catalonia	-11.3809
▁regret	-11.3809
▁Virtual	-11.3812
▁Magnet	-11.382
▁logistics	-11.3823
▁Czech	-11.3823
▁Ángel	-11.3826
▁FROM	-11.3826
▁Sweet	-11.3833
▁silicone	-11.384
▁garment	-11.384
▁precede	-11.3842
▁capsule	-11.3866
Hispanic	-11.387
▁slim	-11.3874
▁ribbon	-11.3877
▁Length	-11.3884
▁admire	-11.3885
▁suppress	-11.3887
▁thumb	-11.3887
▁attorney	-11.3891
▁Heritage	-11.3898
▁denounce	-11.3898
▁sudden	-11.39
▁robust	-11.3901
▁accelerate	-11.3904
▁explosion	-11.3904
▁cholesterol	-11.3915
▁disclose	-11.3919
▁fatigue	-11.3921
▁violate	-11.3923
specific	-11.3927
▁Consequently	-11.3932
▁refrigerator	-11.3935
▁unemployment	-11.3935
▁auction	-11.3936
▁gaming	-11.3939
▁courage	-11.3946
▁Practice	-11.3959
▁molecular	-11.3963
▁abundant	-11.398
▁Corporation	-11.3983
▁magnitude	-11.3983
▁yoga	-11.4001
▁assault	-11.4003
▁threshold	-11.4007
▁Political	-11.4007
▁isolation	-11.4014
▁dye	-11.4017
▁Visual	-11.4018
▁spectrum	-11.4021
▁Annex	-11.4021
▁Judge	-11.4021
▁Daily	-11.4027
▁derivative	-11.4035
▁condemn	-11.4049
▁assemble	-11.4061
▁Audit	-11.4066
▁territorial	-11.4077
▁tremendous	-11.4077
▁approx	-11.4077
▁alternate	-11.4077
discrimina	-11.408
▁pronounce	-11.4084
▁Hydro	-11.4084
▁activation	-11.4091
security	-11.4097
▁blur	-11.41
▁Turkish	-11.4108
▁Gómez	-11.4115
▁seminar	-11.4122
▁Alternative	-11.414
▁Southern	-11.414
▁jungle	-11.4143
▁descend	-11.4145
▁Brush	-11.4147
capacit	-11.4152
▁concession	-11.4154
atomic	-11.4157
▁stunning	-11.4164
▁Belgium	-11.4189
▁excellence	-11.4199
▁merchandise	-11.4199
▁blame	-11.4199
▁affiliate	-11.421
▁squad	-11.4224
▁exempt	-11.4224
▁calories	-11.4229
▁Mercedes	-11.4249
▁threatened	-11.425
▁Autumn	-11.4259
▁parliament	-11.4259
▁Promotion	-11.4273
▁eastern	-11.4273
▁harsh	-11.4288
▁microwave	-11.4291
▁gaze	-11.4295
▁provincial	-11.4302
system	-11.4303
▁Transparent	-11.4305
▁reproduction	-11.4305
▁transplant	-11.4305
▁convention	-11.431
▁fantasy	-11.4312
▁Individual	-11.4316
▁prosecutor	-11.4316
▁elaborate	-11.432
▁Together	-11.4323
▁liability	-11.435
▁adhesive	-11.4352
▁Franco	-11.436
▁banana	-11.437
▁pixel	-11.4388
▁decisive	-11.4395
▁deficit	-11.4395
▁Volume	-11.4396
▁Tokyo	-11.4406
▁inhabit	-11.4412
▁Andrés	-11.4413
AKE	-11.4418
▁Comfort	-11.4421
ethylene	-11.4425
▁medieval	-11.4431
▁basketball	-11.4438
▁Alejandro	-11.4452
▁Jordan	-11.4463
ordinate	-11.4465
ä	-11.4467
▁snake	-11.4478
▁steering	-11.4486
▁Funny	-11.4499
▁dignity	-11.4499
▁Message	-11.4503
▁Maintenance	-11.451
▁shout	-11.4511
▁vagina	-11.4513
▁ministry	-11.4514
▁Resort	-11.4514
▁gauge	-11.4521
▁mushroom	-11.4525
▁economies	-11.4539
▁strictly	-11.4541
▁contamination	-11.4547
●	-11.4668
′	-11.4712
ã	-11.5245
Ñ	-11.5284
µ	-11.5538
•	-11.711
‘	-12.2577
«	-12.5304
·	-12.5809
©	-13.0522
	-18.9242
