<unk>	0
<s>	0
</s>	0
<0x00>	0
<0x01>	0
<0x02>	0
<0x03>	0
<0x04>	0
<0x05>	0
<0x06>	0
<0x07>	0
<0x08>	0
<0x09>	0
<0x0A>	0
<0x0B>	0
<0x0C>	0
<0x0D>	0
<0x0E>	0
<0x0F>	0
<0x10>	0
<0x11>	0
<0x12>	0
<0x13>	0
<0x14>	0
<0x15>	0
<0x16>	0
<0x17>	0
<0x18>	0
<0x19>	0
<0x1A>	0
<0x1B>	0
<0x1C>	0
<0x1D>	0
<0x1E>	0
<0x1F>	0
<0x20>	0
<0x21>	0
<0x22>	0
<0x23>	0
<0x24>	0
<0x25>	0
<0x26>	0
<0x27>	0
<0x28>	0
<0x29>	0
<0x2A>	0
<0x2B>	0
<0x2C>	0
<0x2D>	0
<0x2E>	0
<0x2F>	0
<0x30>	0
<0x31>	0
<0x32>	0
<0x33>	0
<0x34>	0
<0x35>	0
<0x36>	0
<0x37>	0
<0x38>	0
<0x39>	0
<0x3A>	0
<0x3B>	0
<0x3C>	0
<0x3D>	0
<0x3E>	0
<0x3F>	0
<0x40>	0
<0x41>	0
<0x42>	0
<0x43>	0
<0x44>	0
<0x45>	0
<0x46>	0
<0x47>	0
<0x48>	0
<0x49>	0
<0x4A>	0
<0x4B>	0
<0x4C>	0
<0x4D>	0
<0x4E>	0
<0x4F>	0
<0x50>	0
<0x51>	0
<0x52>	0
<0x53>	0
<0x54>	0
<0x55>	0
<0x56>	0
<0x57>	0
<0x58>	0
<0x59>	0
<0x5A>	0
<0x5B>	0
<0x5C>	0
<0x5D>	0
<0x5E>	0
<0x5F>	0
<0x60>	0
<0x61>	0
<0x62>	0
<0x63>	0
<0x64>	0
<0x65>	0
<0x66>	0
<0x67>	0
<0x68>	0
<0x69>	0
<0x6A>	0
<0x6B>	0
<0x6C>	0
<0x6D>	0
<0x6E>	0
<0x6F>	0
<0x70>	0
<0x71>	0
<0x72>	0
<0x73>	0
<0x74>	0
<0x75>	0
<0x76>	0
<0x77>	0
<0x78>	0
<0x79>	0
<0x7A>	0
<0x7B>	0
<0x7C>	0
<0x7D>	0
<0x7E>	0
<0x7F>	0
<0x80>	0
<0x81>	0
<0x82>	0
<0x83>	0
<0x84>	0
<0x85>	0
<0x86>	0
<0x87>	0
<0x88>	0
<0x89>	0
<0x8A>	0
<0x8B>	0
<0x8C>	0
<0x8D>	0
<0x8E>	0
<0x8F>	0
<0x90>	0
<0x91>	0
<0x92>	0
<0x93>	0
<0x94>	0
<0x95>	0
<0x96>	0
<0x97>	0
<0x98>	0
<0x99>	0
<0x9A>	0
<0x9B>	0
<0x9C>	0
<0x9D>	0
<0x9E>	0
<0x9F>	0
<0xA0>	0
<0xA1>	0
<0xA2>	0
<0xA3>	0
<0xA4>	0
<0xA5>	0
<0xA6>	0
<0xA7>	0
<0xA8>	0
<0xA9>	0
<0xAA>	0
<0xAB>	0
<0xAC>	0
<0xAD>	0
<0xAE>	0
<0xAF>	0
<0xB0>	0
<0xB1>	0
<0xB2>	0
<0xB3>	0
<0xB4>	0
<0xB5>	0
<0xB6>	0
<0xB7>	0
<0xB8>	0
<0xB9>	0
<0xBA>	0
<0xBB>	0
<0xBC>	0
<0xBD>	0
<0xBE>	0
<0xBF>	0
<0xC0>	0
<0xC1>	0
<0xC2>	0
<0xC3>	0
<0xC4>	0
<0xC5>	0
<0xC6>	0
<0xC7>	0
<0xC8>	0
<0xC9>	0
<0xCA>	0
<0xCB>	0
<0xCC>	0
<0xCD>	0
<0xCE>	0
<0xCF>	0
<0xD0>	0
<0xD1>	0
<0xD2>	0
<0xD3>	0
<0xD4>	0
<0xD5>	0
<0xD6>	0
<0xD7>	0
<0xD8>	0
<0xD9>	0
<0xDA>	0
<0xDB>	0
<0xDC>	0
<0xDD>	0
<0xDE>	0
<0xDF>	0
<0xE0>	0
<0xE1>	0
<0xE2>	0
<0xE3>	0
<0xE4>	0
<0xE5>	0
<0xE6>	0
<0xE7>	0
<0xE8>	0
<0xE9>	0
<0xEA>	0
<0xEB>	0
<0xEC>	0
<0xED>	0
<0xEE>	0
<0xEF>	0
<0xF0>	0
<0xF1>	0
<0xF2>	0
<0xF3>	0
<0xF4>	0
<0xF5>	0
<0xF6>	0
<0xF7>	0
<0xF8>	0
<0xF9>	0
<0xFA>	0
<0xFB>	0
<0xFC>	0
<0xFD>	0
<0xFE>	0
<0xFF>	0
▁the	-3.23317
.	-3.28685
s	-3.33828
,	-3.45617
▁	-3.83646
▁of	-3.9498
▁and	-3.96676
▁to	-4.03192
▁a	-4.12349
▁in	-4.28787
▁is	-4.77083
0	-4.85634
1	-4.91816
-	-4.92129
▁for	-4.92388
▁that	-5.12981
▁with	-5.16296
2	-5.18037
▁it	-5.21846
ing	-5.25913
▁you	-5.27791
ed	-5.31859
▁on	-5.33648
d	-5.4103
▁be	-5.4463
t	-5.48594
▁i	-5.48698
'	-5.51308
▁are	-5.52756
▁this	-5.55271
▁(	-5.66809
▁as	-5.68967
:	-5.726
▁or	-5.73354
3	-5.74847
5	-5.77784
’	-5.78985
▁was	-5.82411
▁by	-5.83469
▁from	-5.85937
▁at	-5.91194
4	-5.91674
)	-5.95264
▁can	-5.9536
▁not	-5.95898
▁have	-5.96655
9	-5.96677
▁an	-5.97871
▁your	-5.97897
▁we	-5.99856
er	-6.0443
ly	-6.10499
▁will	-6.11051
6	-6.11766
▁he	-6.12934
8	-6.14774
7	-6.24665
y	-6.24794
▁all	-6.26707
e	-6.30702
m	-6.32522
▁but	-6.32821
▁has	-6.33048
a	-6.33427
▁they	-6.36318
?	-6.36322
▁one	-6.38705
i	-6.46754
▁if	-6.47875
n	-6.48954
▁more	-6.50338
r	-6.50978
▁his	-6.51233
al	-6.53655
▁which	-6.54629
▁-	-6.55112
▁their	-6.57866
▁so	-6.60479
re	-6.61239
▁there	-6.61453
▁“	-6.62933
▁do	-6.63205
▁also	-6.64911
/	-6.66504
▁when	-6.67191
o	-6.7327
▁"	-6.73279
▁our	-6.73363
es	-6.73618
▁time	-6.7376
▁what	-6.7412
▁up	-6.75036
▁new	-6.76657
▁my	-6.78057
▁were	-6.79908
;	-6.80026
c	-6.80041
▁out	-6.80312
▁no	-6.80811
▁about	-6.81184
▁other	-6.82143
in	-6.86653
or	-6.88133
▁her	-6.89266
▁who	-6.90364
b	-6.92011
p	-6.92653
▁re	-6.93046
▁had	-6.9404
▁been	-6.94113
▁these	-6.9483
▁me	-6.97751
▁she	-6.99646
g	-7.01006
▁use	-7.02542
▁may	-7.03418
▁like	-7.04093
!	-7.04898
l	-7.05262
▁some	-7.05989
▁how	-7.06619
▁its	-7.11211
▁into	-7.11777
▁only	-7.12865
▁than	-7.12924
▁any	-7.14097
▁over	-7.14772
▁people	-7.15009
▁two	-7.15024
▁would	-7.15471
f	-7.15901
▁first	-7.16276
▁de	-7.17314
▁them	-7.18219
▁very	-7.20982
th	-7.21236
▁most	-7.21457
▁work	-7.22311
k	-7.224
▁after	-7.24126
h	-7.24703
▁just	-7.25755
▁us	-7.27378
▁make	-7.28628
"	-7.31699
).	-7.32329
▁get	-7.32594
▁well	-7.33221
▁said	-7.36041
ic	-7.36108
v	-7.36907
x	-7.37317
▁should	-7.40304
ation	-7.40472
▁good	-7.41328
▁many	-7.42001
▁such	-7.4228
ve	-7.42544
”	-7.43182
▁used	-7.43457
▁un	-7.44211
▁where	-7.4564
▁now	-7.45711
to	-7.46042
▁see	-7.4639
an	-7.46794
▁through	-7.47321
ll	-7.48041
on	-7.48795
▁e	-7.4917
▁then	-7.49668
▁world	-7.51109
▁need	-7.51178
▁high	-7.51234
▁c	-7.51287
▁back	-7.51651
▁way	-7.51759
▁each	-7.52279
able	-7.53282
▁day	-7.54035
▁know	-7.5477
le	-7.55901
▁go	-7.56717
▁even	-7.57126
▁system	-7.57224
▁him	-7.57594
▁don	-7.57746
▁because	-7.57754
▁years	-7.57896
w	-7.5794
▁between	-7.58569
ers	-7.58595
ion	-7.58652
▁home	-7.5893
▁water	-7.59366
▁could	-7.59367
it	-7.59471
▁free	-7.60129
▁take	-7.60391
▁life	-7.60444
en	-7.6059
▁information	-7.60778
ity	-7.61614
▁made	-7.62914
▁p	-7.64361
▁different	-7.64626
▁–	-7.65003
▁year	-7.66498
▁want	-7.66554
▁before	-7.6658
%	-7.67973
▁great	-7.68331
us	-7.68562
▁best	-7.68754
▁set	-7.69008
el	-7.69177
ra	-7.69215
▁b	-7.69938
ive	-7.69997
▁part	-7.70288
the	-7.70888
▁here	-7.72405
com	-7.72744
▁must	-7.73359
▁while	-7.73575
▁place	-7.73617
▁during	-7.73793
▁those	-7.73827
▁under	-7.739
▁both	-7.74224
▁car	-7.74853
co	-7.74897
▁being	-7.7496
▁same	-7.74983
▁long	-7.7518
▁right	-7.75473
▁data	-7.76165
▁m	-7.76287
▁man	-7.76512
▁stock	-7.76707
▁t	-7.76732
na	-7.76905
▁help	-7.77442
▁much	-7.77795
▁&	-7.78445
▁end	-7.78956
▁co	-7.79355
▁design	-7.79653
▁d	-7.80219
ne	-7.81557
u	-7.83063
▁find	-7.8345
ma	-7.83638
ta	-7.84559
▁using	-7.84737
▁g	-7.84819
▁f	-7.85257
▁three	-7.85892
z	-7.85912
▁number	-7.86998
li	-7.87218
▁power	-7.87557
▁love	-7.87866
▁does	-7.88548
▁down	-7.88658
▁con	-7.88968
ry	-7.89245
▁white	-7.90916
▁order	-7.91098
ro	-7.91357
▁without	-7.92086
▁off	-7.92239
▁however	-7.92259
ia	-7.93675
▁own	-7.94121
ate	-7.94134
▁last	-7.94362
▁per	-7.94583
 	-7.94612
ment	-7.94803
▁service	-7.94946
▁business	-7.95539
de	-7.9569
▁hand	-7.95769
ch	-7.96379
▁women	-7.97602
at	-7.98651
man	-7.98843
▁r	-7.9906
▁did	-7.99289
▁light	-7.99671
▁still	-7.99938
▁n	-8.00671
▁important	-8.00703
▁every	-8.01668
▁group	-8.01696
il	-8.01702
▁another	-8.02053
),	-8.02194
▁control	-8.02322
▁black	-8.02595
▁pro	-8.02659
▁available	-8.02903
▁think	-8.0314
▁am	-8.03187
▁case	-8.035
▁around	-8.03922
te	-8.0428
▁area	-8.04303
▁process	-8.0465
▁children	-8.04865
▁support	-8.0578
age	-8.05982
▁small	-8.06084
▁v	-8.06377
...	-8.06495
ness	-8.06761
▁city	-8.06858
is	-8.07099
ar	-8.07555
▁view	-8.07649
▁head	-8.07989
▁[	-8.0839
▁state	-8.08608
▁$	-8.09007
▁o	-8.09073
▁play	-8.09204
▁x	-8.09636
▁come	-8.09701
]	-8.09919
est	-8.10044
▁look	-8.10062
▁family	-8.10595
▁always	-8.1101
▁l	-8.11373
▁company	-8.11435
▁#	-8.11718
▁photo	-8.11766
▁health	-8.1186
▁since	-8.12287
▁open	-8.1236
▁name	-8.13363
up	-8.13373
ent	-8.13437
▁room	-8.13453
▁little	-8.13664
▁change	-8.13787
▁following	-8.13813
▁pre	-8.14439
▁air	-8.15171
▁school	-8.15255
▁la	-8.1547
▁body	-8.1566
▁found	-8.16019
▁development	-8.16092
▁men	-8.16131
▁w	-8.16389
ine	-8.16458
st	-8.16494
▁art	-8.16693
as	-8.16969
▁point	-8.17001
▁god	-8.18042
▁quality	-8.18706
▁within	-8.19393
▁food	-8.19581
ke	-8.1974
ca	-8.2016
ies	-8.2066
▁u	-8.20848
▁few	-8.20971
▁product	-8.21
▁image	-8.21252
▁next	-8.21432
id	-8.21578
▁let	-8.21863
be	-8.21898
la	-8.22095
▁center	-8.22179
mo	-8.22206
▁social	-8.22366
▁going	-8.22517
▁ma	-8.23175
ant	-8.23285
ated	-8.23402
▁start	-8.23408
▁level	-8.23448
▁too	-8.23509
▁really	-8.2353
▁human	-8.23697
,”	-8.23822
▁public	-8.23826
▁experience	-8.24057
▁full	-8.24305
▁better	-8.24442
▁game	-8.24504
▁top	-8.2478
ist	-8.24875
me	-8.25107
▁background	-8.25111
▁services	-8.25543
▁h	-8.25554
▁bar	-8.25647
▁vector	-8.26116
▁old	-8.26197
▁second	-8.2668
▁against	-8.26817
▁large	-8.26981
▁type	-8.27057
▁access	-8.27104
▁give	-8.27232
▁why	-8.27329
▁line	-8.27516
▁never	-8.27602
▁house	-8.27767
ary	-8.27998
▁project	-8.2801
▁show	-8.28162
we	-8.28219
▁red	-8.28329
▁things	-8.28408
."	-8.28448
▁market	-8.28706
▁products	-8.28753
▁team	-8.28851
ter	-8.29268
and	-8.29315
▁something	-8.29492
ce	-8.3014
no	-8.30334
▁keep	-8.30361
▁national	-8.30673
▁according	-8.30833
.”	-8.31256
▁size	-8.31494
▁color	-8.31593
▁check	-8.31761
▁program	-8.31863
▁say	-8.31946
▁short	-8.31959
ur	-8.31987
▁example	-8.32226
ian	-8.32337
▁special	-8.32402
go	-8.32619
▁possible	-8.3265
se	-8.3274
▁side	-8.32953
lo	-8.33092
ol	-8.3329
ty	-8.3336
▁real	-8.33428
▁provide	-8.34071
ba	-8.34364
▁—	-8.34712
et	-8.34718
ti	-8.34887
un	-8.35051
▁country	-8.3519
▁main	-8.35251
▁local	-8.35296
▁di	-8.35674
▁lot	-8.35693
ie	-8.35745
ge	-8.35888
▁face	-8.35925
▁al	-8.35967
▁hard	-8.36075
▁care	-8.36176
▁international	-8.36197
▁feel	-8.36359
▁including	-8.36597
rs	-8.36601
▁page	-8.37001
▁k	-8.37161
▁key	-8.37173
▁dis	-8.37761
▁form	-8.3777
j	-8.3862
▁again	-8.38783
▁person	-8.38801
▁space	-8.38829
▁/	-8.39083
▁st	-8.39315
ance	-8.39565
▁low	-8.39694
▁value	-8.3974
▁non	-8.39808
os	-8.40226
▁mo	-8.40361
ous	-8.40393
▁create	-8.40597
▁post	-8.40623
▁once	-8.41002
—	-8.41372
▁put	-8.41663
▁'	-8.41778
▁book	-8.41866
pa	-8.423
um	-8.42428
ga	-8.42544
▁young	-8.42587
▁study	-8.42654
▁days	-8.42679
ul	-8.42685
ism	-8.42888
ton	-8.43019
▁sa	-8.43161
▁present	-8.43199
▁model	-8.43258
▁until	-8.43321
ri	-8.43334
▁government	-8.43452
▁left	-8.43656
▁less	-8.43734
tic	-8.4374
▁night	-8.43785
▁heart	-8.43914
do	-8.43953
▁vi	-8.44011
▁several	-8.44083
▁close	-8.44329
▁contact	-8.44727
▁able	-8.44871
▁easy	-8.45231
am	-8.4535
▁na	-8.45398
▁live	-8.45636
▁add	-8.46152
▁video	-8.46207
▁four	-8.46263
▁mar	-8.46276
▁table	-8.46347
▁sure	-8.46575
va	-8.46639
▁might	-8.46656
▁>	-8.46685
▁based	-8.46897
▁general	-8.46932
▁working	-8.47243
▁management	-8.47295
▁big	-8.48
less	-8.48252
▁war	-8.48446
▁away	-8.48511
ating	-8.48783
ized	-8.48797
▁j	-8.49301
▁se	-8.49504
line	-8.49579
▁beautiful	-8.49732
con	-8.49812
▁today	-8.50021
▁research	-8.50283
▁please	-8.50715
▁results	-8.50731
ha	-8.51188
▁include	-8.51438
son	-8.51556
▁hotel	-8.51565
▁list	-8.51828
▁sub	-8.52118
▁li	-8.52398
▁often	-8.52402
▁en	-8.52422
▁woman	-8.52498
▁account	-8.52941
▁law	-8.53186
▁treatment	-8.53295
▁got	-8.53355
he	-8.53459
▁select	-8.53819
▁become	-8.53901
▁child	-8.54221
ted	-8.54239
▁together	-8.54446
▁position	-8.54973
▁past	-8.5506
mi	-8.55427
▁means	-8.55482
▁already	-8.55628
▁blue	-8.55804
▁among	-8.55993
da	-8.56196
ac	-8.56317
▁range	-8.56643
▁course	-8.57064
▁‘	-8.57096
▁test	-8.57198
▁having	-8.57592
▁called	-8.57639
▁green	-8.57735
▁making	-8.57756
▁style	-8.58268
▁period	-8.58278
bo	-8.58591
▁call	-8.58735
ad	-8.58844
land	-8.58935
▁result	-8.58954
▁far	-8.59094
▁price	-8.59139
▁students	-8.59361
▁fact	-8.59476
▁single	-8.60268
ut	-8.60591
▁hair	-8.6091
▁ro	-8.60919
di	-8.60987
,"	-8.61066
▁•	-8.61138
▁states	-8.61272
▁energy	-8.61375
ling	-8.61386
▁due	-8.61467
▁problem	-8.6178
▁plan	-8.61795
▁illustration	-8.61904
▁office	-8.61978
▁ba	-8.62504
ial	-8.62644
ization	-8.62777
▁natural	-8.6278
▁front	-8.6352
▁community	-8.63622
▁countries	-8.63685
▁given	-8.63728
▁ra	-8.63878
que	-8.63926
▁oil	-8.6402
▁card	-8.64023
▁current	-8.64445
(	-8.64507
…	-8.64888
▁film	-8.64937
▁enjoy	-8.64946
▁known	-8.6507
▁performance	-8.65114
▁looking	-8.65166
ish	-8.65258
▁phone	-8.65279
▁times	-8.65351
▁read	-8.65358
min	-8.6536
▁screen	-8.656
▁above	-8.6574
▁later	-8.65771
▁skin	-8.65897
▁music	-8.66002
▁material	-8.66131
▁stay	-8.66183
▁le	-8.66359
▁po	-8.6642
▁click	-8.66822
▁clear	-8.67137
▁report	-8.67142
▁risk	-8.67166
▁share	-8.67223
▁thing	-8.67292
▁personal	-8.67339
▁sea	-8.67777
▁age	-8.67917
ir	-8.6812
▁file	-8.682
bi	-8.6822
▁online	-8.68343
sh	-8.68363
▁offer	-8.6857
▁production	-8.68589
▁content	-8.68707
▁everything	-8.68718
mb	-8.68791
im	-8.68951
▁money	-8.69032
▁million	-8.6909
ck	-8.692
per	-8.69383
ful	-8.69477
sa	-8.6966
▁technology	-8.69901
▁run	-8.7006
vi	-8.70167
▁step	-8.70231
▁common	-8.70463
▁press	-8.70565
▁future	-8.70689
▁fire	-8.7072
▁land	-8.70785
▁user	-8.70815
▁application	-8.70854
▁says	-8.70856
ka	-8.70857
▁turn	-8.71047
▁needs	-8.71227
pe	-8.71277
▁return	-8.71637
▁done	-8.71906
▁building	-8.72175
▁network	-8.72232
▁bo	-8.72442
ting	-8.72518
▁action	-8.72774
po	-8.72841
▁try	-8.72858
ni	-8.72976
▁hours	-8.73208
▁least	-8.73255
▁inter	-8.73362
▁amount	-8.73472
▁party	-8.73493
▁park	-8.73569
▁united	-8.73579
▁specific	-8.73591
▁app	-8.73634
▁simple	-8.73715
▁anti	-8.73824
▁download	-8.73863
▁ever	-8.73867
▁display	-8.74002
▁mind	-8.74124
▁features	-8.74135
▁cost	-8.7415
▁site	-8.74283
▁conditions	-8.74485
▁security	-8.74563
q	-8.74763
ny	-8.7504
▁field	-8.75079
ho	-8.75256
▁shall	-8.75395
▁american	-8.75412
▁paper	-8.75488
▁came	-8.75672
mm	-8.75879
▁section	-8.76029
ex	-8.76095
▁kind	-8.76232
▁visit	-8.76241
▁week	-8.76288
▁perfect	-8.76453
▁environment	-8.7691
▁series	-8.77001
▁increase	-8.77091
▁training	-8.77091
▁wall	-8.7718
ize	-8.77195
▁stop	-8.7735
ally	-8.77511
▁role	-8.77526
▁search	-8.77942
▁date	-8.77969
▁note	-8.78404
▁girl	-8.78515
▁pay	-8.78554
▁code	-8.78875
▁self	-8.78899
▁media	-8.79043
▁located	-8.79069
▁addition	-8.79299
▁others	-8.79357
▁ex	-8.79374
▁history	-8.79376
▁activities	-8.79402
▁multi	-8.79668
▁below	-8.79695
ster	-8.79764
▁areas	-8.79815
▁five	-8.79999
▁total	-8.8001
▁function	-8.80035
▁didn	-8.80137
▁along	-8.80218
▁move	-8.80235
▁near	-8.80275
▁device	-8.80293
▁mode	-8.80366
▁season	-8.80419
▁sign	-8.80551
▁yet	-8.80867
▁required	-8.80892
▁ne	-8.80983
▁enough	-8.81153
▁living	-8.81271
▁further	-8.81412
br	-8.81499
▁box	-8.8152
out	-8.81634
▁board	-8.8185
▁though	-8.81921
▁computer	-8.82014
▁bit	-8.82057
▁complete	-8.82189
▁learn	-8.82207
▁necessary	-8.82219
▁minutes	-8.82278
▁economic	-8.82354
▁clean	-8.82432
▁event	-8.82514
▁whether	-8.82752
▁ha	-8.8283
▁standard	-8.82968
▁super	-8.83044
▁brand	-8.83282
▁question	-8.83582
▁images	-8.83706
▁button	-8.83879
tra	-8.84023
▁answer	-8.8421
▁du	-8.84225
ci	-8.84323
▁various	-8.84327
▁blood	-8.84335
▁early	-8.84508
▁makes	-8.84692
▁website	-8.84751
▁court	-8.84806
au	-8.84814
▁effect	-8.84943
fa	-8.85049
one	-8.85054
▁web	-8.8511
▁education	-8.85135
_	-8.85162
▁ca	-8.85367
time	-8.85426
▁watch	-8.85502
▁rate	-8.85579
▁whole	-8.85606
▁similar	-8.85777
▁individual	-8.8578
▁ka	-8.85909
▁although	-8.85917
▁global	-8.85998
▁members	-8.86075
ide	-8.86109
▁patients	-8.86463
▁pe	-8.86516
▁version	-8.86541
▁subject	-8.86568
▁ti	-8.86592
▁cross	-8.8672
▁seen	-8.86867
▁star	-8.86899
▁choose	-8.87062
▁taken	-8.87254
op	-8.87295
▁thought	-8.87527
▁death	-8.87536
▁private	-8.87633
>	-8.87688
▁text	-8.87692
▁believe	-8.8788
vo	-8.87984
▁modern	-8.88006
▁temperature	-8.88199
▁lo	-8.8826
▁travel	-8.88287
▁took	-8.88335
▁sp	-8.88462
▁ensure	-8.88541
▁therefore	-8.88583
fi	-8.88691
dy	-8.88701
▁understand	-8.88731
▁figure	-8.88777
▁systems	-8.88822
▁cut	-8.88903
▁cause	-8.88989
ence	-8.89077
▁fun	-8.89091
▁unit	-8.89153
ak	-8.89592
▁hot	-8.89605
▁offers	-8.89683
▁drive	-8.89755
▁tell	-8.89861
▁dr	-8.89951
▁su	-8.90007
▁street	-8.90028
▁led	-8.90059
▁months	-8.90173
▁road	-8.90214
▁cannot	-8.90291
▁class	-8.9039
▁san	-8.90402
▁third	-8.90567
▁mother	-8.90746
▁problems	-8.90872
▁pa	-8.9094
▁baby	-8.90981
▁weight	-8.9107
om	-8.91108
▁lower	-8.91115
▁moment	-8.9121
▁friends	-8.9127
▁half	-8.91407
les	-8.91412
▁south	-8.91459
–	-8.91489
▁certain	-8.91538
ap	-8.91545
by	-8.91583
▁surface	-8.91611
▁hope	-8.91778
▁machine	-8.91881
▁comes	-8.91927
▁story	-8.91959
tor	-8.92084
▁rest	-8.92245
nt	-8.92309
▁sound	-8.92369
▁mr	-8.92688
▁allow	-8.9282
ite	-8.92944
▁plant	-8.92957
▁professional	-8.93031
▁pressure	-8.9325
▁focus	-8.93298
▁church	-8.93386
▁six	-8.93437
▁taking	-8.93446
▁lu	-8.93462
hi	-8.93551
▁:	-8.9357
▁either	-8.93587
▁fast	-8.93655
▁beach	-8.93712
▁base	-8.93726
▁nature	-8.93825
▁word	-8.9383
▁review	-8.93833
▁cover	-8.93877
▁doing	-8.94024
▁higher	-8.94118
▁speed	-8.94132
▁industry	-8.94342
▁happy	-8.94376
▁floor	-8.94379
▁major	-8.94401
▁strong	-8.94476
▁financial	-8.94487
▁university	-8.94548
▁job	-8.94664
▁provided	-8.94705
▁doesn	-8.94755
ot	-8.94805
▁companies	-8.94815
▁changes	-8.95023
▁sun	-8.95612
▁bi	-8.95676
▁cases	-8.95695
▁prevent	-8.95973
▁imp	-8.95994
▁safety	-8.96007
▁across	-8.96029
▁print	-8.9614
▁town	-8.96232
▁concept	-8.9625
▁designed	-8.96254
▁almost	-8.96278
▁reason	-8.96304
▁ask	-8.96354
▁especially	-8.96455
▁fa	-8.96458
▁inside	-8.96501
▁impact	-8.96576
▁meet	-8.96582
▁method	-8.96618
▁talk	-8.9693
gu	-8.96994
▁ten	-8.97254
▁guide	-8.97371
▁president	-8.97433
▁break	-8.97523
▁went	-8.97616
▁protection	-8.97714
for	-8.97778
▁knowledge	-8.97858
▁equipment	-8.97952
▁gu	-8.98018
▁follow	-8.98026
▁staff	-8.98292
▁original	-8.9857
▁ground	-8.98598
▁cap	-8.98671
▁growth	-8.98684
▁true	-8.98758
▁provides	-8.98896
▁el	-8.99261
▁wide	-8.99287
▁da	-8.99411
▁location	-8.99424
ring	-8.99487
▁dress	-8.99525
▁safe	-8.99555
ard	-8.99679
side	-8.99679
▁picture	-8.99728
ig	-8.99898
ver	-9.00031
lin	-9.00168
▁nothing	-9.00246
▁won	-9.00295
▁medical	-9.00478
▁north	-9.00495
▁analysis	-9.00629
▁bank	-9.00646
our	-9.0068
way	-9.00693
▁track	-9.00799
▁member	-9.00907
em	-9.00908
▁policy	-9.0109
▁included	-9.01171
▁thus	-9.0119
▁solution	-9.01233
▁gas	-9.01412
ator	-9.01556
▁article	-9.01675
ten	-9.01724
ki	-9.01738
▁central	-9.01854
▁includes	-9.01976
der	-9.0201
▁touch	-9.02249
▁physical	-9.02316
▁related	-9.02416
if	-9.02436
▁software	-9.02581
▁english	-9.02629
ph	-9.02679
▁final	-9.02794
▁stage	-9.02797
▁heat	-9.02981
▁store	-9.03016
▁garden	-9.03035
▁bra	-9.0323
▁upon	-9.03483
ities	-9.03493
▁getting	-9.03643
▁address	-9.03675
ug	-9.03797
▁told	-9.0382
▁fe	-9.03959
▁kids	-9.03971
▁outside	-9.04008
ah	-9.04086
é	-9.04195
ub	-9.04224
▁continue	-9.04262
▁|	-9.04342
ative	-9.0437
▁idea	-9.04402
▁someone	-9.04487
▁receive	-9.0449
▁photos	-9.04551
▁hold	-9.04619
▁started	-9.0463
mp	-9.04649
mon	-9.04682
ft	-9.04848
▁walk	-9.04877
▁activity	-9.04983
▁levels	-9.05031
ber	-9.05046
tro	-9.05193
men	-9.05366
▁mean	-9.05409
▁usually	-9.05434
▁digital	-9.05511
pi	-9.05528
▁avoid	-9.05718
▁father	-9.05755
▁added	-9.05794
mer	-9.05873
▁additional	-9.05981
▁source	-9.05984
▁words	-9.06039
▁leave	-9.06059
ron	-9.06213
▁lead	-9.06447
▁nice	-9.06508
▁ball	-9.06534
▁son	-9.06572
▁unique	-9.0658
▁anything	-9.06679
▁improve	-9.06743
▁z	-9.06898
nd	-9.07026
▁eye	-9.07069
▁tv	-9.07125
▁soon	-9.07136
set	-9.07229
▁everyone	-9.0738
▁bad	-9.07394
▁allows	-9.07521
▁summer	-9.07593
▁couple	-9.07619
▁door	-9.07623
▁buy	-9.07706
ang	-9.07717
of	-9.0778
▁fi	-9.07888
ja	-9.07954
▁act	-9.08043
▁port	-9.08068
▁trade	-9.08076
▁practice	-9.08468
pro	-9.0854
▁approach	-9.08655
▁organization	-9.08656
▁response	-9.08656
▁shows	-9.08745
ning	-9.08788
▁property	-9.08904
▁wood	-9.08965
▁host	-9.09142
▁switch	-9.09239
▁tool	-9.09249
▁culture	-9.09402
▁pan	-9.09538
▁camera	-9.09645
▁fall	-9.09653
▁station	-9.09743
▁protect	-9.09746
▁needed	-9.09748
▁character	-9.09771
▁remember	-9.0979
▁ju	-9.0996
▁language	-9.10027
▁eyes	-9.10059
▁double	-9.1009
▁contract	-9.10091
▁bring	-9.10122
▁rights	-9.10218
▁particular	-9.10243
so	-9.1031
▁interest	-9.10406
▁studies	-9.10465
▁created	-9.10534
▁european	-9.10553
▁types	-9.10565
▁disease	-9.10577
▁america	-9.10581
▁terms	-9.10661
▁sha	-9.10681
▁cat	-9.10812
▁collection	-9.11051
▁rather	-9.11125
▁active	-9.11221
▁resources	-9.11272
▁issue	-9.11278
od	-9.11331
▁actually	-9.11386
▁option	-9.11536
▁metal	-9.11646
▁works	-9.11647
▁ho	-9.11656
▁region	-9.11675
▁pool	-9.1188
tion	-9.11959
▁ta	-9.11982
▁choice	-9.11982
▁gold	-9.12034
▁reduce	-9.12189
let	-9.12212
▁groups	-9.12337
▁em	-9.12431
▁cell	-9.12517
▁customer	-9.12542
▁hi	-9.12594
▁structure	-9.12598
▁matter	-9.12624
▁options	-9.12655
▁situation	-9.12681
▁questions	-9.12698
▁dark	-9.12772
▁[...]	-9.12878
▁mobile	-9.12887
▁+	-9.12895
▁popular	-9.12914
▁server	-9.12956
▁build	-9.13129
▁dry	-9.13142
oc	-9.13223
▁customers	-9.13239
ee	-9.13339
za	-9.13533
▁condition	-9.13555
▁games	-9.13601
red	-9.13682
▁effects	-9.13701
▁load	-9.13709
▁considered	-9.13734
▁bed	-9.13792
▁map	-9.13799
▁target	-9.13873
▁flow	-9.13923
▁request	-9.1403
ip	-9.14038
▁consider	-9.14073
▁etc	-9.14188
▁parts	-9.14273
▁built	-9.14609
▁steel	-9.14654
▁potential	-9.1467
▁issues	-9.14907
▁political	-9.14948
▁success	-9.14986
▁users	-9.15078
▁pain	-9.1529
▁director	-9.15293
▁mi	-9.15301
▁save	-9.15306
▁fit	-9.15318
io	-9.15388
ure	-9.15472
▁sector	-9.15596
▁sense	-9.15668
▁kitchen	-9.15751
▁points	-9.15803
▁glass	-9.15879
▁enter	-9.15952
▁deal	-9.16086
▁soft	-9.16154
▁itself	-9.16338
▁quite	-9.16361
▁charge	-9.16545
▁fashion	-9.16583
▁learning	-9.16622
▁population	-9.16646
▁internet	-9.16735
▁pick	-9.16782
▁master	-9.16788
ru	-9.16865
led	-9.1707
tu	-9.17136
▁deep	-9.17191
▁micro	-9.17339
king	-9.17434
ology	-9.1744
▁received	-9.17492
▁demand	-9.17815
ified	-9.17885
▁*	-9.17913
▁longer	-9.17924
▁hands	-9.18152
▁...	-9.18212
ner	-9.18288
▁ver	-9.18305
▁china	-9.1832
▁traditional	-9.18334
▁operation	-9.18361
▁events	-9.18397
ps	-9.18523
▁send	-9.18662
▁rock	-9.18819
cc	-9.1884
▁materials	-9.18985
sion	-9.19004
▁round	-9.19066
▁legal	-9.19227
▁shown	-9.19239
+	-9.19331
ef	-9.19339
▁ja	-9.19356
▁effective	-9.19383
▁ni	-9.19418
▁month	-9.19427
▁ad	-9.19474
▁force	-9.19571
ile	-9.19595
▁difficult	-9.1961
▁q	-9.1966
▁icon	-9.19696
▁windows	-9.19716
▁ci	-9.19722
ley	-9.19798
▁yourself	-9.19814
▁police	-9.19823
▁meeting	-9.19874
▁hit	-9.20007
▁basic	-9.20099
▁earth	-9.20167
▁movement	-9.20168
▁positive	-9.2018
▁remove	-9.20315
ium	-9.20361
▁doctor	-9.20522
▁thank	-9.20676
▁behind	-9.20872
▁direct	-9.20909
▁message	-9.21006
▁si	-9.21043
▁relationship	-9.2106
▁term	-9.21101
▁via	-9.21134
▁significant	-9.2116
▁shape	-9.21225
fe	-9.21393
▁easily	-9.21494
▁tu	-9.21569
▁asked	-9.21698
▁percent	-9.21799
▁develop	-9.21893
tal	-9.21907
▁river	-9.22133
ible	-9.22349
lic	-9.2247
▁credit	-9.22525
▁capital	-9.22619
ler	-9.22623
▁tools	-9.22627
▁engine	-9.22721
▁tour	-9.22754
▁details	-9.22947
▁throughout	-9.23014
▁instead	-9.23057
ability	-9.23108
▁win	-9.23153
▁mark	-9.23267
▁affect	-9.23388
▁held	-9.23419
▁fresh	-9.23511
▁record	-9.23636
▁dream	-9.23639
▁simply	-9.23648
▁daily	-9.23671
▁developed	-9.23742
ana	-9.23788
ship	-9.23812
▁menu	-9.23953
qu	-9.24044
▁frame	-9.24128
▁extra	-9.24185
▁department	-9.24224
▁sometimes	-9.24305
▁decision	-9.24338
▁cable	-9.24357
▁motor	-9.24435
▁pen	-9.24538
▁attention	-9.24556
▁society	-9.24601
▁normal	-9.24716
▁directly	-9.24721
▁hospital	-9.2477
ble	-9.24841
▁construction	-9.24874
▁shop	-9.24877
▁bio	-9.24954
▁email	-9.25173
▁fine	-9.25338
▁multiple	-9.25495
▁running	-9.25562
▁respect	-9.25596
ction	-9.25612
▁command	-9.25644
▁bus	-9.2576
▁science	-9.25783
ab	-9.25826
ach	-9.25827
▁dog	-9.25829
▁band	-9.2583
▁cha	-9.25859
▁stand	-9.25966
▁wanted	-9.26007
▁manager	-9.26042
▁supply	-9.26077
▁=	-9.2614
▁fo	-9.26209
car	-9.26229
▁ready	-9.26244
▁link	-9.26512
▁technical	-9.26829
▁average	-9.26895
▁saw	-9.26906
▁yes	-9.26995
▁connection	-9.27049
▁king	-9.27102
▁wish	-9.27147
▁panel	-9.27148
▁finally	-9.27149
pt	-9.27279
▁excellent	-9.27301
▁pin	-9.27315
▁investment	-9.27415
▁increased	-9.27465
▁damage	-9.2747
ping	-9.27534
▁gift	-9.27567
ag	-9.27618
▁log	-9.27635
▁fruit	-9.27636
▁flat	-9.27654
▁forward	-9.27672
▁late	-9.27706
▁ago	-9.2779
▁bag	-9.2782
her	-9.27854
▁student	-9.27856
▁club	-9.27985
▁currently	-9.28019
▁auto	-9.28148
▁ac	-9.28287
old	-9.2829
kin	-9.28371
▁length	-9.28601
ec	-9.28661
ff	-9.28679
▁capacity	-9.28723
wa	-9.28744
▁match	-9.28868
▁patient	-9.28915
▁voice	-9.28932
▁setting	-9.29107
ow	-9.29159
▁coming	-9.29181
▁exercise	-9.29327
▁entire	-9.29487
://	-9.29521
▁likely	-9.2972
ey	-9.29829
▁sta	-9.29847
bb	-9.29928
▁ri	-9.29939
▁document	-9.29943
▁ability	-9.29963
▁drop	-9.29975
mar	-9.29992
ical	-9.30093
▁tri	-9.30205
▁behavior	-9.30298
ions	-9.30398
▁europe	-9.30524
▁train	-9.30527
▁takes	-9.30537
work	-9.30561
▁mid	-9.30601
tin	-9.3064
▁apartment	-9.30738
ns	-9.30738
▁block	-9.3079
lu	-9.30834
▁thanks	-9.30992
▁greater	-9.31102
▁custom	-9.31181
▁previous	-9.31196
▁apply	-9.31242
▁storage	-9.31352
▁cells	-9.31371
▁plus	-9.31385
▁hu	-9.31422
▁associated	-9.31533
▁commission	-9.3178
ward	-9.31891
izing	-9.3192
▁trip	-9.32096
▁produce	-9.32107
▁cool	-9.32137
▁cur	-9.32155
▁transfer	-9.32189
▁path	-9.32376
▁became	-9.32392
▁cup	-9.32461
▁appropriate	-9.32555
▁limited	-9.32597
▁himself	-9.32608
▁sales	-9.32651
▁payment	-9.32695
▁warm	-9.32789
▁commercial	-9.32811
▁began	-9.32819
▁recent	-9.32859
▁projects	-9.32869
cl	-9.32969
▁release	-9.3298
▁pattern	-9.32983
▁ideal	-9.33073
▁ring	-9.33109
▁agreement	-9.33187
▁loss	-9.33214
▁john	-9.33224
ez	-9.33275
▁tree	-9.33276
▁parents	-9.33462
board	-9.33543
▁themselves	-9.33557
▁acid	-9.33574
you	-9.33666
▁official	-9.33691
▁window	-9.33859
▁lost	-9.33874
▁communication	-9.33904
tri	-9.33926
▁par	-9.33965
gi	-9.34028
▁royalty	-9.34066
▁serve	-9.34168
▁fully	-9.34238
▁quickly	-9.34265
▁signal	-9.34291
▁ways	-9.34358
ud	-9.3442
▁che	-9.3443
▁jo	-9.34561
▁spanish	-9.34589
▁complex	-9.34632
▁female	-9.34635
▁den	-9.34638
▁favorite	-9.34724
▁friend	-9.34752
▁requirements	-9.34782
▁rooms	-9.348
*	-9.34874
▁plate	-9.34887
my	-9.34918
▁direction	-9.34966
▁install	-9.34997
▁wi	-9.35093
▁middle	-9.3511
▁values	-9.35156
end	-9.35222
▁seat	-9.35251
▁firm	-9.35275
▁balance	-9.35313
cent	-9.35376
▁elements	-9.35445
▁error	-9.35456
▁variety	-9.35481
▁feature	-9.3557
year	-9.35672
▁platform	-9.35792
▁reach	-9.3597
▁benefits	-9.36002
▁lock	-9.36102
▁jesus	-9.36166
off	-9.36176
▁reference	-9.3632
▁programs	-9.36338
▁spring	-9.3634
▁spot	-9.36371
▁wind	-9.36618
▁island	-9.36638
▁lack	-9.36665
ual	-9.36691
▁probably	-9.36714
back	-9.36884
▁pack	-9.3692
▁mis	-9.36964
▁applications	-9.37007
▁goal	-9.37096
▁title	-9.37171
▁pc	-9.37203
nic	-9.37237
▁volume	-9.37276
▁gain	-9.3731
▁maximum	-9.37311
▁tax	-9.37325
▁trying	-9.37325
▁eat	-9.37328
▁sports	-9.37393
▁pi	-9.37455
▁reported	-9.37551
▁seems	-9.3761
▁reading	-9.37698
▁purpose	-9.37856
▁costs	-9.38031
▁ch	-9.38057
▁im	-9.38107
▁sale	-9.38126
▁completely	-9.38239
▁isolated	-9.38245
▁plastic	-9.38289
ct	-9.38296
▁mini	-9.38412
=	-9.38543
▁east	-9.38589
▁york	-9.38656
iv	-9.38701
▁pass	-9.38711
▁restaurant	-9.38711
▁filter	-9.38774
▁purchase	-9.38976
▁y	-9.39047
▁mu	-9.39136
yl	-9.3917
▁player	-9.39268
▁chi	-9.39286
▁seven	-9.39369
ding	-9.39373
bu	-9.39417
▁write	-9.39432
rn	-9.3946
▁trans	-9.3947
▁foot	-9.39476
che	-9.39493
▁kit	-9.39571
▁opportunity	-9.39666
based	-9.39675
▁coffee	-9.39682
▁essential	-9.39878
▁involved	-9.39905
press	-9.3995
▁statement	-9.40046
▁symbol	-9.40049
▁items	-9.40068
▁attack	-9.40102
▁connect	-9.40106
▁sex	-9.40123
▁count	-9.4021
▁treat	-9.40271
ep	-9.40363
▁trust	-9.40388
▁west	-9.40441
▁morning	-9.40485
▁anyone	-9.40536
°	-9.40556
▁installation	-9.40573
▁min	-9.40575
▁appear	-9.40604
▁pet	-9.40627
▁influence	-9.40631
▁cancer	-9.40646
und	-9.40685
▁fish	-9.40711
▁handle	-9.40719
ably	-9.4083
▁evidence	-9.40845
▁driver	-9.40971
ious	-9.41027
▁stone	-9.41188
fin	-9.41244
▁girls	-9.41262
▁bathroom	-9.41273
▁update	-9.41286
▁del	-9.41313
▁mm	-9.41402
▁quick	-9.415
▁towards	-9.41508
▁environmental	-9.4152
▁battery	-9.41588
▁settings	-9.41654
▁files	-9.418
▁chance	-9.41823
▁description	-9.41924
▁march	-9.41949
▁author	-9.41954
▁object	-9.41994
▁century	-9.42073
istic	-9.42185
lan	-9.42235
▁pretty	-9.4237
▁devices	-9.42393
▁worth	-9.42475
▁sl	-9.42502
▁scene	-9.42506
ose	-9.42541
ier	-9.42548
▁outdoor	-9.4255
▁perform	-9.42625
den	-9.4266
▁difference	-9.42686
free	-9.42767
▁spain	-9.4279
▁refer	-9.42796
▁mix	-9.42802
▁else	-9.42835
▁internal	-9.42857
str	-9.42862
▁output	-9.42933
▁cold	-9.43037
▁square	-9.43045
▁wear	-9.43094
▁drink	-9.43114
▁grow	-9.43121
▁animal	-9.43172
▁suit	-9.43207
▁distance	-9.43246
▁boy	-9.43289
▁para	-9.43514
▁sky	-9.43552
▁lord	-9.43646
▁suggest	-9.43731
fo	-9.43763
can	-9.43867
▁measures	-9.43876
ina	-9.43962
qui	-9.43979
▁finish	-9.44135
▁wine	-9.44242
▁arm	-9.44341
ng	-9.44738
▁committee	-9.44813
▁nor	-9.44852
act	-9.44854
jo	-9.4486
▁playing	-9.44873
▁exchange	-9.45013
▁spirit	-9.45036
▁forest	-9.45069
▁skills	-9.45072
▁fat	-9.45074
▁expected	-9.45163
▁pop	-9.45168
▁french	-9.45175
ger	-9.45198
▁bill	-9.45201
▁<	-9.45211
▁felt	-9.45231
port	-9.45266
................	-9.45417
▁package	-9.45448
▁status	-9.45582
▁looks	-9.4559
▁bright	-9.45648
▁vehicle	-9.45687
▁google	-9.45695
▁determine	-9.4575
day	-9.4577
▁layer	-9.45813
▁sent	-9.45827
▁comfortable	-9.45908
▁explain	-9.45948
&	-9.4602
▁beginning	-9.46031
▁steps	-9.46416
see	-9.4652
▁yellow	-9.46559
▁profile	-9.46577
▁camp	-9.46592
▁mass	-9.46681
▁drawing	-9.46788
▁poor	-9.46932
▁wait	-9.47017
▁selected	-9.4704
▁correct	-9.47159
▁stress	-9.47173
▁va	-9.47314
▁healthy	-9.47323
▁roll	-9.47374
tan	-9.4738
▁promote	-9.47423
▁expect	-9.47428
cu	-9.47484
▁highly	-9.47498
ging	-9.47539
▁exist	-9.47594
▁colors	-9.47627
ea	-9.47715
▁attempt	-9.47864
▁strength	-9.47875
ving	-9.47879
eg	-9.47904
▁christ	-9.48043
▁chapter	-9.48139
▁writing	-9.48191
▁wedding	-9.48193
▁species	-9.48212
▁wa	-9.48237
▁lives	-9.48256
▁piece	-9.48272
▁transport	-9.48295
ther	-9.48499
▁radio	-9.48502
▁brother	-9.4858
▁sc	-9.48671
▁pump	-9.48697
▁rule	-9.48721
▁movie	-9.48756
▁ar	-9.48862
ko	-9.48871
▁item	-9.48872
ica	-9.489
▁brown	-9.48902
oid	-9.48951
ok	-9.4906
▁farm	-9.49244
▁fair	-9.4932
▁race	-9.49355
ral	-9.49506
▁factors	-9.49517
▁memory	-9.49552
▁christmas	-9.496
ham	-9.49608
ze	-9.49759
▁reflect	-9.49771
▁lines	-9.49797
▁solutions	-9.49806
part	-9.49906
▁pictures	-9.50038
▁fight	-9.50081
par	-9.50218
ai	-9.50302
su	-9.50309
▁et	-9.50371
▁basis	-9.50381
▁require	-9.50416
▁council	-9.50582
▁news	-9.50624
▁goes	-9.50685
▁gave	-9.5073
▁chain	-9.50821
▁limit	-9.50822
ya	-9.50824
▁sleep	-9.50833
▁players	-9.50938
▁models	-9.51082
▁ru	-9.51097
use	-9.51181
▁dead	-9.51186
®	-9.5124
▁gives	-9.5129
▁feet	-9.51312
ice	-9.51446
▁ship	-9.51457
▁weeks	-9.51484
▁responsible	-9.51503
▁tra	-9.51622
▁mission	-9.51648
▁male	-9.51679
▁cast	-9.5169
▁former	-9.51696
light	-9.51774
ations	-9.51788
▁push	-9.51822
ev	-9.51861
▁mexico	-9.52005
▁bri	-9.52096
▁progress	-9.52098
ned	-9.52148
▁union	-9.52164
gg	-9.52192
▁nu	-9.52228
bar	-9.5235
▁draw	-9.52387
nch	-9.52437
▁ice	-9.52471
▁ko	-9.52486
▁shirt	-9.52487
▁phase	-9.52544
▁identify	-9.52554
▁written	-9.52729
▁input	-9.52729
▁cloud	-9.52768
▁operating	-9.52786
▁rose	-9.5295
▁fan	-9.52965
▁described	-9.53042
ged	-9.53071
▁ph	-9.53249
▁fear	-9.53286
tel	-9.53335
▁png	-9.53361
dic	-9.53372
ade	-9.53509
www	-9.53544
▁session	-9.53585
▁electric	-9.53591
▁ideas	-9.53625
▁foreign	-9.53682
▁ab	-9.537
▁hat	-9.53716
▁sweet	-9.53791
▁hour	-9.53825
pped	-9.5387
▁processes	-9.54097
▁born	-9.54113
▁rules	-9.54182
▁shot	-9.54308
▁achieve	-9.5432
▁june	-9.54366
▁alternative	-9.54404
▁established	-9.54501
▁contains	-9.54552
▁cal	-9.5462
▁guarantee	-9.5465
▁workers	-9.5471
▁th	-9.54737
▁particularly	-9.54782
▁electronic	-9.54828
▁overall	-9.54834
▁primary	-9.55008
ries	-9.55032
▁prices	-9.55146
▁score	-9.55171
▁join	-9.55183
▁animals	-9.55197
cre	-9.55413
▁museum	-9.55547
▁eu	-9.55563
▁solid	-9.55564
over	-9.55631
}	-9.55696
▁scale	-9.5578
nes	-9.55803
▁district	-9.55808
▁sensor	-9.55842
▁understanding	-9.55889
▁ga	-9.55912
▁winter	-9.56001
ery	-9.56007
▁wheel	-9.56126
▁college	-9.56139
▁smart	-9.5621
▁flower	-9.56299
▁shoes	-9.56319
▁methods	-9.56323
▁sand	-9.56347
▁cra	-9.56432
▁cor	-9.56473
▁cho	-9.56482
▁immediately	-9.56519
▁military	-9.56553
▁brain	-9.56592
▁cartoon	-9.56641
▁label	-9.56667
▁degree	-9.56721
▁speak	-9.56729
nce	-9.56734
▁fer	-9.56738
cal	-9.56787
▁seem	-9.568
net	-9.56891
▁holiday	-9.56943
▁recently	-9.57076
▁letter	-9.5715
▁--	-9.57187
▁useful	-9.57203
▁interesting	-9.57253
▁met	-9.57283
▁external	-9.57309
▁alone	-9.57359
all	-9.57398
▁remote	-9.57506
▁turned	-9.5751
▁lake	-9.57516
▁protein	-9.57683
▁rich	-9.57687
▁pink	-9.5769
▁starting	-9.57726
chi	-9.57829
▁presence	-9.57888
▁format	-9.57925
▁hd	-9.57984
▁village	-9.57996
▁grand	-9.58028
▁logo	-9.58176
▁remain	-9.58239
▁labor	-9.58253
▁deliver	-9.58335
form	-9.58449
▁industrial	-9.58454
▁drug	-9.585
▁planning	-9.58563
bra	-9.58597
▁fla	-9.58668
gram	-9.58687
▁association	-9.58723
▁notice	-9.58766
▁mc	-9.58796
▁carried	-9.5893
▁har	-9.5894
▁benefit	-9.5894
▁applied	-9.58949
▁license	-9.58963
▁properties	-9.59042
▁gar	-9.59195
▁painting	-9.59219
▁airport	-9.59259
▁mac	-9.59259
▁strategy	-9.59425
▁pair	-9.59454
▁wave	-9.59459
ign	-9.5948
▁career	-9.59498
▁maintain	-9.59506
▁challenge	-9.59537
▁fabric	-9.59587
▁selection	-9.59606
▁sport	-9.59606
▁edge	-9.59649
▁independent	-9.59665
▁suitable	-9.5978
▁connected	-9.59791
uch	-9.59875
▁powerful	-9.5994
▁te	-9.59943
▁rain	-9.60063
▁pur	-9.60067
▁giving	-9.60081
▁combination	-9.60211
▁trend	-9.6022
mit	-9.60224
▁leading	-9.60246
▁ke	-9.60257
▁gray	-9.6034
▁peace	-9.60371
▁annual	-9.60375
▁cm	-9.60389
art	-9.60419
▁comp	-9.60448
▁compared	-9.60476
▁begin	-9.60598
▁sal	-9.60634
▁spread	-9.60748
▁op	-9.60797
▁serious	-9.60864
▁feeling	-9.60903
▁battle	-9.60939
▁context	-9.60962
▁miss	-9.60967
▁delivery	-9.60983
▁truth	-9.6099
av	-9.61052
pl	-9.61087
▁wrong	-9.61113
mic	-9.61279
▁generally	-9.61314
▁knew	-9.61318
▁operations	-9.61323
▁generation	-9.61377
pri	-9.61414
tain	-9.61419
not	-9.61427
▁visual	-9.61569
point	-9.61643
▁prior	-9.61667
▁monitor	-9.61749
val	-9.61772
▁huge	-9.618
▁amazing	-9.61827
▁thinking	-9.61869
▁client	-9.61918
▁whose	-9.61923
▁chinese	-9.61924
▁isn	-9.61953
▁decided	-9.6199
▁bottom	-9.6201
▁leather	-9.62163
▁dance	-9.62178
▁hear	-9.62243
▁spa	-9.62287
▁classic	-9.62327
mat	-9.62333
▁holding	-9.62481
▁welcome	-9.62489
▁sin	-9.6257
cing	-9.62571
▁comfort	-9.62589
▁flight	-9.62594
▁regular	-9.62628
▁fl	-9.62649
ple	-9.62661
▁cultural	-9.62691
▁allowed	-9.62741
▁bottle	-9.62771
▁cook	-9.62891
▁audio	-9.62927
▁tea	-9.63062
wi	-9.63134
▁secure	-9.63161
▁april	-9.63189
▁manage	-9.6319
down	-9.63227
▁parties	-9.63374
▁worked	-9.63459
▁resolution	-9.63534
▁cru	-9.63569
vis	-9.63732
▁sample	-9.63748
▁iron	-9.6377
rd	-9.63792
▁silver	-9.63866
▁hall	-9.63917
▁marketing	-9.63939
▁brought	-9.64081
▁negative	-9.64101
▁plants	-9.64131
▁maintenance	-9.64162
▁wife	-9.64162
▁ob	-9.64171
gra	-9.64204
ren	-9.64222
▁employees	-9.64227
▁chemical	-9.64242
▁campaign	-9.64243
ell	-9.64274
▁respond	-9.64385
▁growing	-9.64385
▁pr	-9.64412
gue	-9.6444
▁km	-9.64501
▁families	-9.64767
▁mon	-9.64796
▁cute	-9.64812
▁changed	-9.64832
▁opening	-9.65024
ris	-9.65025
▁trial	-9.65074
▁recommended	-9.65126
ification	-9.65142
▁income	-9.65155
▁gra	-9.65176
▁beyond	-9.65176
▁recommend	-9.65227
▁diet	-9.65294
py	-9.65315
gar	-9.65349
▁eight	-9.65414
▁pull	-9.65425
▁cla	-9.65442
▁despite	-9.65451
▁aim	-9.65458
gen	-9.6546
▁scar	-9.65535
▁creating	-9.65543
▁advantage	-9.65593
▁latest	-9.65666
▁poster	-9.65808
▁requires	-9.65848
▁beauty	-9.65877
▁christian	-9.65892
▁expression	-9.65902
▁produced	-9.65964
▁india	-9.65976
▁procedure	-9.65984
▁carry	-9.6602
▁fuel	-9.6615
▁counter	-9.6626
▁accept	-9.66272
▁reaction	-9.66295
▁distribution	-9.66423
▁providing	-9.66458
▁adult	-9.66472
▁facilities	-9.66603
han	-9.66605
▁helps	-9.66621
▁looked	-9.66701
^	-9.66714
len	-9.66719
▁wild	-9.66756
zz	-9.66796
▁caused	-9.66808
▁traffic	-9.66847
▁van	-9.66902
▁components	-9.67026
▁plans	-9.67033
▁factor	-9.67056
▁successful	-9.6707
▁claim	-9.67112
▁ser	-9.67237
▁mountain	-9.67295
▁maybe	-9.67296
ever	-9.67314
▁ya	-9.67327
▁cent	-9.6735
▁ear	-9.67354
▁existing	-9.67366
▁secret	-9.67382
▁express	-9.67494
▁muscle	-9.67499
▁interview	-9.67511
▁zone	-9.6753
term	-9.67563
▁july	-9.67603
▁coast	-9.67631
▁meaning	-9.67634
▁conference	-9.67801
▁mal	-9.67819
▁france	-9.67822
like	-9.67846
▁song	-9.67878
▁origin	-9.67906
▁developing	-9.6794
▁manual	-9.67992
cm	-9.68013
▁horse	-9.68046
▁daughter	-9.68093
▁collect	-9.68142
▁gi	-9.68172
▁heavy	-9.68291
▁channel	-9.68319
tru	-9.68347
▁explore	-9.68398
▁accessories	-9.68404
▁advanced	-9.68422
▁apple	-9.68431
▁liquid	-9.68538
uc	-9.68601
▁sticker	-9.68605
house	-9.68623
▁measure	-9.68823
fer	-9.68825
▁cream	-9.68884
▁german	-9.68973
▁poly	-9.6903
bal	-9.69045
cor	-9.69059
▁slow	-9.6909
▁height	-9.69103
▁flowers	-9.69116
gy	-9.69137
ear	-9.69166
▁perhaps	-9.69227
▁task	-9.69286
▁london	-9.69291
▁disc	-9.69321
top	-9.69359
▁views	-9.69447
▁conduct	-9.69586
▁performed	-9.69611
▁organizations	-9.69636
▁published	-9.69718
▁route	-9.69816
▁smooth	-9.69871
▁chair	-9.69903
▁je	-9.69921
▁symptoms	-9.69926
ped	-9.69954
▁standards	-9.70013
name	-9.70045
▁mor	-9.7007
uk	-9.70127
▁weather	-9.70317
▁places	-9.70349
▁joint	-9.70365
▁bro	-9.70403
ino	-9.70445
ix	-9.70499
▁critical	-9.7052
▁finger	-9.70549
▁saying	-9.70647
▁actions	-9.7067
▁edit	-9.7067
▁copy	-9.70736
▁gun	-9.70737
▁encourage	-9.70843
▁latin	-9.70849
air	-9.70886
▁breakfast	-9.71054
▁mask	-9.71145
▁separate	-9.71148
ware	-9.71237
▁moving	-9.71302
▁covered	-9.7135
▁pu	-9.71394
▁heard	-9.71395
pos	-9.71404
▁famous	-9.71468
▁forms	-9.71486
▁reality	-9.71499
▁leaves	-9.71567
▁functions	-9.71637
▁discover	-9.71686
row	-9.71792
ough	-9.71797
▁sheet	-9.7188
uff	-9.71889
du	-9.72045
▁cycle	-9.72108
▁happen	-9.72155
ash	-9.72207
▁administration	-9.72222
cy	-9.72256
▁wasn	-9.72313
▁convert	-9.72328
▁vision	-9.72433
▁initial	-9.72436
▁regard	-9.72535
▁fill	-9.72582
▁expand	-9.726
▁presented	-9.72633
▁sm	-9.72696
illa	-9.727
▁waste	-9.72766
▁economy	-9.72774
▁sexual	-9.72843
▁rise	-9.72852
▁effort	-9.72859
▁taste	-9.72881
▁improvement	-9.72884
▁leg	-9.72891
▁county	-9.72896
lar	-9.72904
▁ce	-9.72914
▁closed	-9.72939
▁boat	-9.73023
▁foundation	-9.73031
▁regional	-9.73053
▁medium	-9.73057
▁topic	-9.73058
▁books	-9.73366
▁released	-9.73396
▁broad	-9.73405
▁module	-9.73413
▁partner	-9.73444
▁element	-9.73446
▁repair	-9.73454
▁played	-9.73512
▁creative	-9.73548
▁placed	-9.73559
ens	-9.73604
▁paint	-9.73685
▁flag	-9.73768
▁highest	-9.73905
▁followed	-9.73926
ob	-9.74016
▁root	-9.74026
▁medicine	-9.74037
▁automatically	-9.74118
▁infection	-9.74128
▁appears	-9.74162
▁myself	-9.74262
rt	-9.74302
▁cheap	-9.74309
▁germany	-9.74331
zo	-9.74431
▁strip	-9.74434
▁export	-9.74464
▁depending	-9.74499
▁competition	-9.7451
▁fund	-9.74527
▁relevant	-9.74555
▁paid	-9.74625
▁tried	-9.74674
▁sto	-9.74681
vin	-9.74719
▁obtain	-9.74727
▁budget	-9.74752
cha	-9.7477
â	-9.7478
ify	-9.74856
▁september	-9.74878
but	-9.75026
▁snow	-9.75039
▁core	-9.75109
▁uk	-9.75161
▁valid	-9.75203
zi	-9.7527
▁wash	-9.75278
rk	-9.75296
▁reports	-9.75383
▁indian	-9.75399
▁reasons	-9.75455
▁@	-9.75465
book	-9.75522
▁interior	-9.75628
▁climate	-9.75744
▁corner	-9.75778
▁virtual	-9.75818
box	-9.75827
▁minimum	-9.75856
▁sort	-9.75865
▁wire	-9.75903
mate	-9.75912
▁fig	-9.75976
▁insurance	-9.75993
▁goals	-9.76069
ult	-9.76122
▁august	-9.76153
▁wooden	-9.76186
▁contribute	-9.76257
tar	-9.76308
▁regarding	-9.76333
▁lip	-9.76388
▁highlight	-9.76415
van	-9.76451
vent	-9.76466
▁opportunities	-9.76521
▁vote	-9.76595
▁ii	-9.76665
ole	-9.76682
▁fix	-9.76686
$	-9.7669
take	-9.76719
▁clip	-9.76773
▁bridge	-9.76795
▁sch	-9.76826
▁studio	-9.76908
▁october	-9.76959
▁failure	-9.77252
▁tend	-9.77286
▁measurement	-9.7739
▁individuals	-9.77402
ek	-9.77409
▁lift	-9.77439
ise	-9.77527
▁hill	-9.77563
▁interface	-9.77669
▁walking	-9.777
▁flash	-9.7771
▁contain	-9.77729
▁remains	-9.77729
▁importance	-9.77754
▁jump	-9.77867
▁sim	-9.77906
▁plug	-9.77915
▁units	-9.77969
▁december	-9.78019
▁kill	-9.78079
ay	-9.78105
pon	-9.78139
▁ge	-9.78198
ov	-9.78227
”.	-9.78314
ological	-9.78322
▁gene	-9.78364
cle	-9.78395
ura	-9.78421
▁establish	-9.78469
▁rates	-9.78471
pping	-9.78483
▁tank	-9.78532
don	-9.78538
▁january	-9.78628
▁largest	-9.78739
▁pipe	-9.78847
▁sold	-9.78854
▁exp	-9.78876
▁comment	-9.78924
ants	-9.79023
▁resistance	-9.79037
▁clients	-9.79177
▁obtained	-9.79202
▁configuration	-9.79209
▁wonder	-9.79219
▁advance	-9.79233
▁bike	-9.79257
▁extremely	-9.79295
▁sat	-9.79367
▁clinical	-9.7942
▁efficient	-9.79442
▁birthday	-9.79492
▁spend	-9.79526
lea	-9.79532
▁characters	-9.79567
▁wallpaper	-9.79698
ju	-9.79737
sis	-9.79759
▁detail	-9.798
hu	-9.79812
▁offering	-9.79871
▁talking	-9.79969
fu	-9.79971
▁roman	-9.79977
head	-9.79991
▁chart	-9.8002
▁sell	-9.80104
▁milk	-9.80152
▁id	-9.80176
▁import	-9.80247
▁mental	-9.80248
▁pla	-9.80254
▁straight	-9.80262
dis	-9.80292
▁usb	-9.80406
▁abstract	-9.80437
tter	-9.8045
right	-9.80568
▁upper	-9.80579
ient	-9.80781
▁stream	-9.80953
▁gen	-9.80954
▁numbers	-9.81017
▁die	-9.81082
▁rear	-9.8118
▁seal	-9.81187
▁larger	-9.81201
▁defined	-9.81252
▁ter	-9.81278
▁landscape	-9.81345
▁aid	-9.81352
▁net	-9.81403
sta	-9.81406
▁participate	-9.81406
▁represent	-9.81502
this	-9.81536
▁assessment	-9.81575
▁clearly	-9.81576
ency	-9.81597
ou	-9.81598
▁offered	-9.81612
▁ip	-9.81624
▁bear	-9.81654
▁honor	-9.81677
▁cu	-9.81738
▁border	-9.81845
);	-9.81853
▁opinion	-9.81858
▁policies	-9.81915
▁africa	-9.81938
des	-9.81981
▁os	-9.82036
▁stick	-9.82221
▁com	-9.82233
pr	-9.82297
▁soul	-9.82418
▁launch	-9.82424
ken	-9.82471
▁describe	-9.82475
▁exactly	-9.82499
▁sit	-9.82548
▁amazon	-9.8259
▁earlier	-9.82605
▁ste	-9.82615
▁implementation	-9.82662
▁cash	-9.82665
▁sources	-9.82701
pre	-9.82705
▁salt	-9.82752
".	-9.82765
▁mouth	-9.82821
gan	-9.82852
▁cleaning	-9.82879
▁prepared	-9.8293
ists	-9.82988
▁tube	-9.82995
ven	-9.83024
shirt	-9.83138
▁teaching	-9.83149
▁happened	-9.83151
▁equal	-9.83182
▁bal	-9.83213
▁sugar	-9.83285
▁vintage	-9.83292
oo	-9.8331
▁decrease	-9.83333
▁interested	-9.83356
lon	-9.8344
▁shared	-9.8348
ming	-9.83519
▁lose	-9.83591
star	-9.83605
▁instance	-9.8364
▁efforts	-9.83641
▁ski	-9.83654
▁wonderful	-9.83761
▁dec	-9.83801
xi	-9.83862
▁urban	-9.83884
▁reduced	-9.83933
▁carbon	-9.83953
▁bath	-9.83969
▁dynamic	-9.84024
▁paul	-9.84031
with	-9.84067
▁conflict	-9.84074
duc	-9.84165
ments	-9.84169
▁fiber	-9.84187
▁burn	-9.84194
▁discussion	-9.84252
▁shi	-9.84275
▁attend	-9.84286
▁pieces	-9.84304
▁throw	-9.84318
▁pad	-9.84322
▁provider	-9.8441
ates	-9.84502
▁occur	-9.84517
▁survey	-9.84696
▁sen	-9.84732
▁listen	-9.84741
lia	-9.84742
▁died	-9.84852
▁friendly	-9.8487
▁hole	-9.84934
▁purposes	-9.84942
▁practical	-9.84968
ase	-9.85082
bit	-9.85099
▁shower	-9.85111
▁favor	-9.85122
á	-9.85134
▁reserve	-9.8515
▁testing	-9.85232
▁guests	-9.85255
cur	-9.85498
▁installed	-9.85543
ker	-9.85565
▁equipped	-9.85593
▁shipping	-9.85678
▁paris	-9.85678
▁canada	-9.85705
room	-9.85715
▁ocean	-9.8575
nn	-9.8582
▁representative	-9.85829
▁profit	-9.85844
▁sw	-9.85854
▁clothes	-9.85879
▁truck	-9.85981
▁civil	-9.8607
rit	-9.86076
▁fu	-9.86125
▁creation	-9.86167
ane	-9.86184
▁seek	-9.86209
▁pal	-9.86273
▁blog	-9.863
▁meters	-9.86308
int	-9.86358
oma	-9.86374
▁doubt	-9.86384
▁executive	-9.86408
shi	-9.86421
▁relax	-9.86477
ji	-9.86508
▁definition	-9.86543
▁continued	-9.8667
▁database	-9.86734
serv	-9.86742
▁increasing	-9.86753
▁qui	-9.86808
▁nearly	-9.86971
ture	-9.86998
https	-9.87009
▁ram	-9.8702
▁responsibility	-9.87027
▁decoration	-9.87028
▁fixed	-9.87031
▁sites	-9.8706
▁clothing	-9.87088
▁characteristics	-9.87106
▁toward	-9.87338
▁kept	-9.87434
▁tag	-9.87481
▁becomes	-9.87496
▁appearance	-9.87533
▁easier	-9.87565
▁cards	-9.87575
▁default	-9.87634
sur	-9.87688
▁meal	-9.877
▁invest	-9.8778
▁tap	-9.87824
▁spin	-9.87881
▁costume	-9.87885
new	-9.8801
▁domain	-9.88023
▁template	-9.88091
▁quarter	-9.88124
▁shift	-9.88146
▁minister	-9.88197
spect	-9.88273
har	-9.88308
nal	-9.88334
▁november	-9.88373
▁processing	-9.88388
▁sitting	-9.88401
▁participants	-9.88525
cr	-9.88653
ue	-9.88715
▁angle	-9.88728
▁teacher	-9.88771
▁historical	-9.88775
▁miles	-9.88805
pan	-9.88831
?”	-9.88865
▁tattoo	-9.88953
lock	-9.89049
pp	-9.89054
▁album	-9.89188
▁smile	-9.89352
▁parent	-9.8939
▁fans	-9.89421
▁insert	-9.89454
▁coach	-9.8946
water	-9.89468
▁valve	-9.89474
▁leader	-9.89484
▁birth	-9.89486
▁showed	-9.89491
▁monitoring	-9.89594
▁japanese	-9.89611
▁sister	-9.89615
▁detect	-9.89632
bel	-9.89635
▁threat	-9.89677
▁football	-9.89768
ration	-9.89769
▁indicator	-9.89783
▁lamp	-9.89823
▁causes	-9.89862
▁photography	-9.89903
matic	-9.90006
▁orange	-9.90133
▁communities	-9.90185
▁bond	-9.90193
▁bone	-9.90222
piece	-9.90243
▁cre	-9.90283
flow	-9.90314
cus	-9.90403
ax	-9.90488
▁reached	-9.9052
?"	-9.90544
▁feed	-9.90551
▁flu	-9.90818
▁oh	-9.90838
nc	-9.90863
ick	-9.90873
suit	-9.90895
rate	-9.90915
▁breath	-9.90972
▁bay	-9.90981
lt	-9.90991
▁schools	-9.90995
▁sur	-9.91022
▁completed	-9.91022
▁faith	-9.91044
ari	-9.91124
▁evening	-9.91155
sha	-9.91246
ties	-9.91247
▁judge	-9.91412
▁waiting	-9.9149
▁]	-9.91533
▁trees	-9.91628
▁consumption	-9.91637
▁schedule	-9.91666
▁named	-9.91692
▁assistance	-9.91721
▁driving	-9.91726
▁freedom	-9.91728
▁festival	-9.91735
▁approximately	-9.91802
▁circuit	-9.91815
▁decide	-9.91823
▁moved	-9.9184
▁british	-9.91851
▁hy	-9.91968
▁euro	-9.91992
▁assembly	-9.92003
play	-9.92056
some	-9.92056
cin	-9.92105
▁gear	-9.92105
burg	-9.92128
▁arch	-9.92152
ject	-9.922
ore	-9.92249
night	-9.92286
▁shopping	-9.92304
▁opened	-9.92491
▁standing	-9.92498
log	-9.92522
▁changing	-9.92581
▁parking	-9.92593
ran	-9.92633
well	-9.92634
▁ran	-9.92694
▁mill	-9.92702
▁operate	-9.92705
stock	-9.92758
▁soil	-9.92762
▁grade	-9.92896
▁texture	-9.92924
▁assist	-9.92962
▁crime	-9.93006
▁tissue	-9.93019
▁quiet	-9.93111
low	-9.93116
▁rep	-9.93205
▁cities	-9.93242
▁affected	-9.93289
cut	-9.93325
▁tab	-9.93367
▁inform	-9.93461
rac	-9.93528
▁ancient	-9.93555
oli	-9.93658
▁japan	-9.93679
▁transform	-9.93705
▁proper	-9.93732
ette	-9.93811
▁identified	-9.93873
▁otherwise	-9.93875
▁formula	-9.93998
▁actual	-9.94019
▁army	-9.94059
▁brush	-9.9408
▁friday	-9.94136
alamy	-9.94169
▁emergency	-9.94193
▁forces	-9.94195
▁continuous	-9.94238
▁gri	-9.94238
ada	-9.94287
▁commitment	-9.94335
▁automatic	-9.9436
hr	-9.94364
▁instructions	-9.94392
▁served	-9.94409
tive	-9.94412
▁wo	-9.94419
▁couldn	-9.94443
▁ec	-9.94493
ular	-9.94495
ric	-9.94548
▁videos	-9.94579
▁accident	-9.94688
tes	-9.94714
▁federal	-9.94752
▁extract	-9.94757
▁tele	-9.94778
▁capture	-9.94825
▁column	-9.94853
▁therapy	-9.9489
▁craft	-9.9489
▁mentioned	-9.9492
▁instrument	-9.94948
▁agree	-9.95033
▁defense	-9.9504
▁scientific	-9.95065
▁beat	-9.95082
▁stories	-9.95139
▁objects	-9.95145
▁husband	-9.95158
ola	-9.95176
uring	-9.95198
she	-9.95208
▁belong	-9.95292
▁loan	-9.95375
▁integrated	-9.95378
amp	-9.95382
▁villa	-9.95391
fr	-9.95392
▁ep	-9.95439
▁determined	-9.95491
▁innovation	-9.9551
▁pure	-9.95515
▁neck	-9.95518
ku	-9.95549
▁promise	-9.95569
▁mag	-9.95584
▁agency	-9.95654
▁wireless	-9.95656
▁adjust	-9.95691
▁stars	-9.95713
▁reduction	-9.95763
▁procedures	-9.95784
▁showing	-9.95792
▁challenges	-9.95803
▁presentation	-9.95872
▁billion	-9.95875
▁decor	-9.95916
▁ir	-9.95936
ita	-9.95988
▁alcohol	-9.9603
▁artist	-9.96055
▁uses	-9.96098
▁prop	-9.96099
▁documents	-9.96128
▁learned	-9.96153
▁bell	-9.96174
▁california	-9.9631
vers	-9.96362
▁rank	-9.964
▁organic	-9.96415
▁evaluation	-9.96422
▁sleeve	-9.96431
▁western	-9.96458
▁res	-9.96462
▁vo	-9.96503
▁mine	-9.96575
▁desire	-9.96613
▁justice	-9.96621
ria	-9.96649
▁objective	-9.96693
▁screw	-9.96696
▁older	-9.96817
▁bedroom	-9.96822
▁usa	-9.97018
▁sunday	-9.97035
ill	-9.97057
▁advice	-9.97062
table	-9.97089
▁guy	-9.9711
▁sexy	-9.97234
▁android	-9.97248
▁saving	-9.97259
▁stuff	-9.97298
▁pl	-9.97314
▁severe	-9.97369
▁differences	-9.97427
▁chief	-9.97484
▁frequency	-9.97546
ara	-9.97563
▁brief	-9.97577
▁aliexpress	-9.97636
▁cd	-9.97659
▁gre	-9.97759
▁»	-9.97764
nk	-9.9787
▁italy	-9.97977
▁efficiency	-9.98053
▁meat	-9.98094
▁practices	-9.9818
▁february	-9.98234
ese	-9.98342
field	-9.98346
▁records	-9.98354
▁crystal	-9.98359
▁spent	-9.98361
▁audience	-9.98371
meter	-9.98403
gb	-9.98455
▁award	-9.98459
▁theory	-9.98492
▁gone	-9.98642
▁violence	-9.98645
▁deposit	-9.98681
▁category	-9.98712
▁league	-9.9876
▁initiative	-9.98769
▁forget	-9.98854
list	-9.98866
▁framework	-9.98951
▁previously	-9.99026
▁planet	-9.99028
▁authorities	-9.99049
▁gather	-9.99064
▁max	-9.99113
bc	-9.99145
▁experiment	-9.99149
▁surgery	-9.99172
▁hydro	-9.99195
▁concentration	-9.99239
▁compound	-9.99249
▁enable	-9.9925
▁iphone	-9.99285
ect	-9.99312
▁actor	-9.99395
▁circle	-9.99407
▁division	-9.99465
▁catch	-9.99506
▁authority	-9.99636
▁discuss	-9.99645
ox	-9.99669
▁colorful	-9.99671
print	-9.99671
▁institutions	-9.99682
▁constant	-9.99702
▁holy	-9.99728
▁onto	-9.99739
▁certainly	-9.99781
hel	-9.99789
▁tests	-9.99842
bil	-9.99848
az	-9.99866
▁magic	-9.99877
▁techniques	-9.99901
berg	-9.99915
▁fail	-9.99938
dra	-9.99992
▁implement	-10.0006
[	-10.001
▁relative	-10.0012
▁virus	-10.0018
▁removed	-10.0022
arch	-10.0022
▁outcome	-10.0023
▁guard	-10.0023
how	-10.0026
▁supported	-10.0027
▁extension	-10.0036
▁ride	-10.0036
▁bat	-10.0042
▁treated	-10.0048
▁senior	-10.0049
ography	-10.0051
▁dinner	-10.0055
▁recovery	-10.0063
▁nation	-10.0068
▁portrait	-10.0069
▁loved	-10.0072
▁agent	-10.0072
▁improved	-10.0075
▁solar	-10.0076
▁happens	-10.0077
pm	-10.0082
ome	-10.0091
▁investigation	-10.0092
▁tourist	-10.0092
▁container	-10.0096
▁leaving	-10.0099
▁fri	-10.0107
▁sad	-10.0112
▁nations	-10.0117
▁except	-10.0119
▁cl	-10.0121
▁manner	-10.0129
▁promotion	-10.0149
▁ban	-10.015
▁golden	-10.015
▁era	-10.0154
▁african	-10.0158
▁italian	-10.016
▁tower	-10.0161
▁domestic	-10.0163
▁contribution	-10.0167
▁extend	-10.0171
▁char	-10.0174
▁smaller	-10.0185
▁teachers	-10.0187
▁gl	-10.0189
▁youth	-10.0189
▁architecture	-10.0192
\	-10.0201
▁tro	-10.0204
▁gal	-10.0207
▁define	-10.0207
▁journey	-10.0208
ination	-10.0208
▁speaker	-10.0212
▁wrote	-10.0216
▁technologies	-10.0219
▁prepare	-10.0227
▁examples	-10.0229
med	-10.0231
▁notes	-10.0238
▁finished	-10.0241
▁substance	-10.0245
▁definitely	-10.0249
▁assess	-10.0255
▁shock	-10.0256
▁detailed	-10.0256
▁entry	-10.026
ado	-10.0261
▁observed	-10.0262
▁enhance	-10.0264
▁motion	-10.0265
▁strengthen	-10.0265
▁spiritual	-10.0268
▁calls	-10.0283
ville	-10.0288
wood	-10.029
▁coat	-10.029
▁drugs	-10.0291
lie	-10.0294
▁angel	-10.0298
▁aspects	-10.0302
ong	-10.0305
▁prison	-10.0306
▁replace	-10.0317
▁perspective	-10.0318
▁proposal	-10.0318
read	-10.0319
▁hum	-10.033
nia	-10.0338
▁owner	-10.0338
▁whatever	-10.0339
▁neuro	-10.034
▁alarm	-10.0342
▁destination	-10.0344
▁rec	-10.0345
▁mono	-10.0348
▁ap	-10.0352
mal	-10.0352
▁educational	-10.0354
▁aluminum	-10.036
▁library	-10.0362
▁institute	-10.0362
▁generate	-10.0362
▁kingdom	-10.0362
▁eating	-10.0372
▁hotels	-10.0374
logical	-10.0374
▁slightly	-10.0379
▁electrical	-10.0381
▁ben	-10.0385
▁tail	-10.0385
▁moon	-10.0397
▁tre	-10.0398
▁component	-10.0398
cul	-10.04
▁toys	-10.0406
▁housing	-10.0408
▁cutting	-10.0408
wo	-10.0418
hood	-10.042
▁announced	-10.0421
▁david	-10.0422
war	-10.0424
▁passed	-10.0424
▁cri	-10.0446
▁pages	-10.0448
▁mad	-10.0448
▁cake	-10.045
uck	-10.0454
▁disorder	-10.0454
je	-10.0458
▁minor	-10.0459
▁recognized	-10.046
▁combined	-10.0462
mail	-10.0465
col	-10.0466
lam	-10.0468
▁sn	-10.0469
▁transaction	-10.0471
▁permanent	-10.0474
▁fr	-10.0475
iz	-10.0488
ella	-10.0493
mission	-10.0494
▁facebook	-10.0498
▁occasion	-10.0499
▁delay	-10.0501
load	-10.0506
own	-10.0513
▁truly	-10.0524
▁adults	-10.0527
▁solve	-10.0528
that	-10.0534
gh	-10.0535
▁preparation	-10.0537
▁operator	-10.054
▁rent	-10.0555
▁mom	-10.0556
▁majority	-10.0556
af	-10.0557
▁managed	-10.0557
▁contrast	-10.0558
▁photograph	-10.0562
▁joy	-10.0573
type	-10.0576
▁consistent	-10.0579
▁rating	-10.0581
▁arms	-10.0584
▁mail	-10.059
▁mat	-10.0598
▁bur	-10.0604
ew	-10.0605
▁sum	-10.0623
▁russian	-10.0623
tern	-10.0633
▁novel	-10.0635
):	-10.0637
▁pot	-10.0647
▁episode	-10.0647
▁aware	-10.0647
▁sing	-10.0652
▁assume	-10.0652
wear	-10.0654
▁comments	-10.0659
▁whom	-10.0661
▁swimming	-10.0672
▁proposed	-10.0681
▁royal	-10.0682
▁nail	-10.0683
▁voltage	-10.0683
▁sustainable	-10.0684
▁crisis	-10.0688
▁hol	-10.069
▁©	-10.0693
▁lan	-10.0694
▁rev	-10.0701
▁dedicated	-10.0703
mor	-10.0706
card	-10.0719
▁thin	-10.072
rid	-10.0721
ius	-10.0722
▁classes	-10.0724
▁thick	-10.0726
dal	-10.0735
din	-10.0742
▁kid	-10.0745
▁shoulder	-10.0745
▁fly	-10.0747
▁trump	-10.0747
▁mirror	-10.0749
atic	-10.075
▁composition	-10.0753
ators	-10.0754
▁adventure	-10.0766
▁nine	-10.0768
▁row	-10.0775
▁businesses	-10.0793
▁accurate	-10.0796
▁edition	-10.0799
▁wearing	-10.0802
ung	-10.0808
hand	-10.0811
▁tips	-10.0816
what	-10.0816
▁leaders	-10.0817
▁monday	-10.0819
att	-10.0822
▁lady	-10.0823
▁follows	-10.0826
▁;	-10.0828
▁furniture	-10.0833
nel	-10.0834
pu	-10.0838
▁typical	-10.0838
▁religious	-10.0842
metric	-10.0845
radi	-10.0846
▁hip	-10.0851
▁enterprise	-10.0852
▁invention	-10.0852
▁depend	-10.0856
▁gender	-10.0856
path	-10.0859
▁scan	-10.086
▁ham	-10.0873
▁belt	-10.0883
▁stainless	-10.0883
▁luxury	-10.0884
▁corporate	-10.0887
▁index	-10.0892
▁analyze	-10.0898
▁roof	-10.0899
▁epi	-10.0903
▁restaurants	-10.0903
ute	-10.0904
tric	-10.0905
zu	-10.0905
▁password	-10.0906
etic	-10.0909
▁participation	-10.0913
▁signs	-10.0917
▁decisions	-10.0922
▁possibility	-10.0922
▁finding	-10.0922
▁displayed	-10.0931
ray	-10.0933
▁raise	-10.0933
▁warning	-10.0938
cept	-10.0939
osis	-10.0939
▁dam	-10.0949
fl	-10.0955
rm	-10.0956
cro	-10.0961
▁bin	-10.0961
▁minute	-10.0961
▁republic	-10.0963
▁seemed	-10.0967
▁indeed	-10.0967
tur	-10.0968
▁laugh	-10.097
▁http	-10.0971
▁helped	-10.0974
▁trouble	-10.0975
▁designer	-10.0993
duct	-10.1001
▁exposure	-10.1005
▁markets	-10.1006
▁ok	-10.1007
▁teen	-10.1009
▁weekend	-10.101
▁recording	-10.101
▁television	-10.1013
▁mod	-10.1015
▁kar	-10.1017
▁skill	-10.102
▁reviews	-10.102
lip	-10.1022
▁australia	-10.1024
▁graphic	-10.1025
▁saturday	-10.1025
▁strategies	-10.1025
▁appeal	-10.1027
▁recognize	-10.103
▁cotton	-10.1033
▁grant	-10.1033
▁stretch	-10.1034
▁gets	-10.1039
▁experienced	-10.104
▁engineering	-10.105
▁breast	-10.1053
▁terminal	-10.1054
▁cons	-10.106
▁delete	-10.1062
▁queen	-10.1063
▁premium	-10.1066
▁universal	-10.1072
▁vitamin	-10.1076
og	-10.1079
▁controller	-10.1081
nu	-10.1087
▁tablet	-10.1087
▁increases	-10.1089
▁sequence	-10.1089
▁noise	-10.1097
▁arab	-10.1102
▁conversation	-10.1105
▁filled	-10.1111
cho	-10.1117
cia	-10.1118
▁fluid	-10.1119
▁returned	-10.1123
▁translation	-10.1125
born	-10.1128
▁pocket	-10.1137
lk	-10.1138
▁identity	-10.1141
▁microsoft	-10.1142
▁funny	-10.115
tim	-10.1153
▁numerous	-10.1157
▁debt	-10.1158
▁raised	-10.1167
▁interaction	-10.1186
▁mainly	-10.1187
ik	-10.1188
▁hung	-10.1192
▁formed	-10.1196
▁reveal	-10.1202
▁partners	-10.1203
▁becoming	-10.1205
▁unless	-10.1206
▁dan	-10.1208
▁infrastructure	-10.121
▁resort	-10.1212
late	-10.1214
▁conclusion	-10.1214
▁discount	-10.1217
▁messages	-10.1226
▁boys	-10.1227
▁bull	-10.1243
▁jacket	-10.1254
▁factory	-10.1254
▁wants	-10.1261
org	-10.1263
vic	-10.1267
▁names	-10.1274
▁injury	-10.1282
▁criminal	-10.1285
▁valley	-10.1288
▁adding	-10.1288
▁imagine	-10.1295
▁atmosphere	-10.1298
▁fundamental	-10.1305
▁dar	-10.131
▁bor	-10.1311
ically	-10.1319
itis	-10.1319
▁emotional	-10.1323
▁consult	-10.1329
▁predict	-10.1331
hal	-10.1332
▁intervention	-10.1339
▁temple	-10.134
▁semi	-10.1341
▁certificate	-10.1343
▁properly	-10.1344
verse	-10.1345
▁santa	-10.1348
▁spec	-10.135
▁celebrate	-10.1353
▁bowl	-10.1355
▁election	-10.1355
▁ahead	-10.1357
▁alamy	-10.136
▁yu	-10.1362
▁).	-10.1363
▁lay	-10.1368
▁talent	-10.1369
▁lit	-10.137
%)	-10.1377
▁vary	-10.1378
ib	-10.1381
▁mixture	-10.1384
▁lunch	-10.1386
pers	-10.1387
bling	-10.139
▁palm	-10.139
▁jack	-10.1393
▁significantly	-10.1394
▁biggest	-10.1396
▁dose	-10.1398
▁specifically	-10.1403
▁lesson	-10.1407
▁string	-10.1407
▁typically	-10.1413
kh	-10.1416
▁fuck	-10.1424
▁pic	-10.1425
▁vol	-10.1428
aging	-10.1438
link	-10.1439
pic	-10.1452
▁linked	-10.1456
eur	-10.1457
▁recover	-10.1458
▁mp	-10.146
iti	-10.1464
aries	-10.1475
▁killed	-10.1476
▁ultra	-10.1482
▁fre	-10.1483
▁terrace	-10.1494
direct	-10.1497
▁sight	-10.1503
▁flavor	-10.1504
▁resource	-10.1506
▁electro	-10.1519
▁keeping	-10.1519
there	-10.152
pha	-10.1526
▁sharing	-10.1529
▁ingredients	-10.1529
onic	-10.1531
▁trail	-10.1532
▁protocol	-10.1538
▁categories	-10.154
▁retail	-10.1542
▁ratio	-10.1548
vel	-10.1553
▁strange	-10.1563
▁brazil	-10.1563
sol	-10.1566
▁tradition	-10.1567
▁reader	-10.157
▁ministry	-10.1573
▁none	-10.1575
▁theme	-10.1576
▁native	-10.1581
▁seeing	-10.1581
▁jobs	-10.1584
▁transmission	-10.1584
dia	-10.1585
▁casual	-10.1586
▁fin	-10.1587
▁lights	-10.1594
loc	-10.1601
ition	-10.1602
ml	-10.1604
▁clock	-10.1607
poli	-10.1609
▁funds	-10.1611
▁hearing	-10.1615
mes	-10.1616
▁leadership	-10.1617
▁fields	-10.1618
▁sufficient	-10.1626
ulation	-10.1627
▁portion	-10.1633
▁theater	-10.1637
▁experiences	-10.1639
▁guest	-10.1643
▁achieved	-10.1643
ened	-10.1645
▁occurs	-10.1651
▁focused	-10.1655
▁alter	-10.1655
▁surrounding	-10.1658
▁relationships	-10.1671
▁vehicles	-10.1672
▁competitive	-10.1673
▁reform	-10.1673
▁www	-10.1679
▁workshop	-10.1681
cap	-10.1684
html	-10.1686
▁recorded	-10.1691
▁lens	-10.1692
▁za	-10.1699
▁smoke	-10.1707
▁supplement	-10.1709
▁mary	-10.1713
rated	-10.1717
▁lab	-10.1728
inter	-10.1731
ulated	-10.1733
▁eva	-10.1734
ani	-10.1744
bol	-10.1744
▁tight	-10.1745
▁england	-10.1749
▁teams	-10.175
▁register	-10.175
▁weak	-10.1753
▁broken	-10.1757
ches	-10.176
▁israel	-10.1764
▁spoke	-10.1782
▁consists	-10.1796
▁intended	-10.18
▁repeat	-10.18
ope	-10.1803
mark	-10.1805
app	-10.1806
▁lighting	-10.181
▁los	-10.181
▁stu	-10.1812
▁eventually	-10.1814
▁persons	-10.1818
▁empty	-10.1819
▁ki	-10.1819
▁vertical	-10.1819
▁principles	-10.182
▁journal	-10.1822
▁helpful	-10.1822
▁parameters	-10.1825
▁cas	-10.1826
▁seconds	-10.1827
▁william	-10.1827
▁organized	-10.1829
rin	-10.1829
▁tape	-10.1831
▁teach	-10.1831
▁sole	-10.1835
site	-10.1837
ack	-10.1841
▁wholesale	-10.1845
▁depends	-10.1848
▁powder	-10.1848
▁exceed	-10.1857
▁fulfill	-10.1858
▁saint	-10.1861
▁mg	-10.1863
real	-10.1871
▁sharp	-10.1876
▁technique	-10.1876
▁strategic	-10.1878
▁married	-10.1878
ave	-10.1888
▁formal	-10.1889
▁pat	-10.1889
eng	-10.1891
▁clo	-10.1895
▁examine	-10.1898
▁officer	-10.19
▁dhgate	-10.1906
▁slide	-10.1907
▁sam	-10.1908
thy	-10.191
tting	-10.1911
▁chest	-10.1912
▁province	-10.1918
▁blow	-10.1918
▁listed	-10.1919
▁dia	-10.1921
▁pm	-10.1926
▁finance	-10.1928
▁purchased	-10.193
▁bow	-10.1932
ney	-10.1934
▁adapt	-10.1938
▁consumer	-10.1943
▁academic	-10.1946
▁peter	-10.1946
▁russia	-10.1946
uri	-10.1954
▁approved	-10.1956
▁cy	-10.1957
tract	-10.1958
▁suite	-10.1964
▁laws	-10.1967
▁whi	-10.1968
▁pra	-10.1968
▁relatively	-10.197
▁criteria	-10.1971
stone	-10.1976
▁remind	-10.1978
▁claims	-10.2015
▁transparent	-10.2018
▁apart	-10.2019
▁ven	-10.202
▁dust	-10.202
▁raw	-10.2022
ins	-10.2024
▁instant	-10.2031
▁retro	-10.2031
▁unlike	-10.2034
mir	-10.2036
▁bodies	-10.2037
▁james	-10.2044
▁estate	-10.2046
▁mess	-10.2047
▁chicken	-10.2049
▁drawn	-10.205
▁realize	-10.2051
▁cooperation	-10.2066
reg	-10.2067
▁conducted	-10.207
fici	-10.2076
lum	-10.2079
▁leads	-10.2085
▁concerned	-10.2091
even	-10.2092
▁…	-10.2092
▁marriage	-10.2096
▁elegant	-10.2099
▁tip	-10.2102
▁segment	-10.2108
▁rh	-10.211
▁cord	-10.2118
ii	-10.212
medi	-10.2122
eth	-10.2127
ident	-10.2129
▁depth	-10.2138
position	-10.2138
body	-10.214
▁faster	-10.2154
▁random	-10.2161
▁controlled	-10.2168
▁ref	-10.2169
▁mistake	-10.217
▁abuse	-10.2171
▁revenue	-10.2173
▁household	-10.2173
▁plane	-10.2174
mu	-10.2175
▁rental	-10.2187
▁walls	-10.2189
▁explained	-10.2195
▁figures	-10.2197
▁concrete	-10.2197
▁continues	-10.2202
▁tie	-10.2202
▁sets	-10.2207
▁fold	-10.221
▁tr	-10.2211
▁formation	-10.2212
▁producer	-10.2213
▁watching	-10.2219
▁lived	-10.2222
▁folder	-10.2223
▁prefer	-10.2224
▁combine	-10.2226
▁ml	-10.2237
▁quote	-10.2239
▁desired	-10.224
px	-10.2242
▁indicated	-10.2247
▁hyper	-10.2248
▁employment	-10.2248
▁expensive	-10.2254
▁worse	-10.2255
▁diseases	-10.2258
▁thousands	-10.226
circ	-10.2262
▁bird	-10.2264
▁laptop	-10.2265
▁attribute	-10.2271
▁crowd	-10.2273
▁arrived	-10.2273
▁experts	-10.2274
ory	-10.2275
▁printer	-10.2276
▁magazine	-10.2279
▁curve	-10.2282
▁manufacturing	-10.2288
▁speech	-10.2289
▁functional	-10.229
▁rod	-10.2292
▁chocolate	-10.2293
▁fourth	-10.2293
▁por	-10.2296
▁grass	-10.2296
▁mention	-10.2296
east	-10.2299
▁consideration	-10.23
▁indicate	-10.2302
▁greatest	-10.2308
ces	-10.2308
▁worldwide	-10.2309
▁incident	-10.2311
▁cheese	-10.2315
▁desk	-10.2316
▁dining	-10.2316
▁crop	-10.232
til	-10.232
▁hop	-10.2323
▁privacy	-10.2324
▁principle	-10.2325
▁convention	-10.2328
▁wouldn	-10.2336
▁gran	-10.2338
▁relation	-10.2338
▁introduced	-10.2342
▁thread	-10.2343
▁assets	-10.2345
▁fishing	-10.2349
▁shut	-10.235
lor	-10.2351
▁tasks	-10.2357
▁mount	-10.2358
▁val	-10.236
▁configure	-10.236
▁zero	-10.2371
cat	-10.2371
▁ku	-10.2374
▁replacement	-10.2374
▁arrive	-10.2377
▁sco	-10.2377
▁recipe	-10.2378
▁struggle	-10.2381
pricing	-10.2385
del	-10.2385
▁appreciate	-10.2392
▁candidate	-10.2392
bin	-10.2396
vert	-10.2407
▁concern	-10.2418
▁ms	-10.2428
▁extensive	-10.243
ida	-10.243
í	-10.2433
vid	-10.2438
▁medication	-10.2439
nate	-10.2441
▁exclusive	-10.2441
€	-10.2442
▁convenient	-10.2456
▁mold	-10.2459
ivity	-10.246
graph	-10.2461
▁cart	-10.2462
pen	-10.2466
▁holder	-10.2469
arian	-10.2473
▁adjustment	-10.2475
stand	-10.2479
▁mixed	-10.2479
▁boost	-10.2486
▁arc	-10.2491
pass	-10.2496
▁regulations	-10.2496
ala	-10.25
▁visitors	-10.2501
▁mechanical	-10.2502
▁prime	-10.2503
▁defend	-10.2503
▁nut	-10.2509
▁sentence	-10.2511
▁regions	-10.2516
▁networks	-10.2518
▁extreme	-10.2523
▁appeared	-10.2525
ott	-10.253
▁attitude	-10.2542
▁confirm	-10.2545
▁spi	-10.2546
▁argument	-10.2549
▁entertainment	-10.255
▁engineer	-10.255
▁ps	-10.255
▁reward	-10.255
cer	-10.2552
▁guitar	-10.2558
▁restore	-10.256
▁meta	-10.2563
▁southern	-10.2565
oh	-10.2568
▁boot	-10.2569
▁helping	-10.2573
▁colon	-10.2577
▁heaven	-10.2581
▁snap	-10.2585
▁cr	-10.259
▁barcelona	-10.2591
▁hurt	-10.2595
▁frequently	-10.2596
▁circumstances	-10.2598
yan	-10.26
gging	-10.26
stan	-10.2601
▁introduction	-10.2601
▁rubber	-10.2604
▁asia	-10.2609
▁bread	-10.2616
▁dogs	-10.2617
▁transition	-10.2622
▁colombia	-10.2622
▁variable	-10.2623
▁estimate	-10.2623
▁cars	-10.2627
ene	-10.263
▁begins	-10.2632
▁cam	-10.2633
▁printing	-10.2634
shed	-10.2634
▁resulting	-10.2636
▁sounds	-10.2637
sure	-10.2639
▁bru	-10.2644
▁wing	-10.2644
ulate	-10.2647
place	-10.2649
win	-10.2652
eu	-10.2652
▁fell	-10.2652
@	-10.2654
▁supplies	-10.2655
▁chosen	-10.2659
▁worry	-10.2659
▁rural	-10.2666
▁stored	-10.2673
▁climb	-10.2674
▁surprise	-10.2676
fect	-10.2678
▁lots	-10.2678
▁dangerous	-10.2678
▁nutrition	-10.268
▁inner	-10.2683
▁flexible	-10.2687
gre	-10.2687
▁der	-10.2689
▁earn	-10.2691
▁accommodation	-10.2692
▁connector	-10.2695
▁represents	-10.2695
▁witness	-10.2696
▁golf	-10.2697
▁col	-10.2709
▁gla	-10.2712
▁coverage	-10.2715
▁trigger	-10.2717
▁mexican	-10.272
▁draft	-10.2727
ians	-10.2728
▁jean	-10.2736
▁inc	-10.274
▁coll	-10.2742
▁percentage	-10.2751
▁moral	-10.2754
▁accepted	-10.2754
aw	-10.2759
▁flo	-10.2763
▁syn	-10.2763
▁eliminate	-10.2766
▁professor	-10.2767
ched	-10.2768
~	-10.2768
▁perfectly	-10.277
▁speaking	-10.277
▁buildings	-10.2779
▁integration	-10.2782
▁yo	-10.2783
▁plenty	-10.279
▁manufacturer	-10.2795
▁stable	-10.2795
▁publication	-10.2795
▁sla	-10.2796
▁expense	-10.2797
▁agents	-10.2805
▁jewelry	-10.2806
▁mouse	-10.2813
▁upgrade	-10.2814
▁allowing	-10.2818
▁measured	-10.2819
ttle	-10.2832
ano	-10.2852
▁carefully	-10.2855
mus	-10.2858
rc	-10.286
▁dc	-10.2865
ening	-10.2869
▁slip	-10.2873
▁escape	-10.2875
▁blend	-10.2886
▁gate	-10.2888
▁evolution	-10.2888
▁rail	-10.2892
▁secondary	-10.2892
▁stated	-10.2895
▁specified	-10.2896
igh	-10.2896
are	-10.29
▁dragon	-10.2902
wn	-10.2907
▁revealed	-10.2911
▁wal	-10.2912
▁transportation	-10.2912
▁spray	-10.2914
screen	-10.2918
▁prayer	-10.2927
▁delicious	-10.2929
than	-10.2935
▁shadow	-10.2936
▁sym	-10.294
▁swa	-10.2942
▁committed	-10.2955
otic	-10.2958
▁soldier	-10.296
▁researchers	-10.296
▁links	-10.2967
▁writer	-10.2972
yn	-10.2975
▁agreed	-10.2976
▁cooking	-10.2978
▁innovative	-10.298
▁bacteria	-10.2985
▁missing	-10.2986
pcs	-10.2987
▁honest	-10.2988
▁nurse	-10.2993
▁kick	-10.2993
▁shr	-10.2997
▁northern	-10.2997
▁organ	-10.2998
▁registration	-10.3006
▁extended	-10.301
ancy	-10.301
▁attract	-10.3012
▁cle	-10.3014
ock	-10.3019
▁comparison	-10.3019
▁religion	-10.3021
▁def	-10.3021
▁ye	-10.3022
related	-10.3025
▁dad	-10.3025
▁shell	-10.3028
▁consist	-10.3034
▁restrict	-10.3036
▁twice	-10.3044
▁cop	-10.3048
▁arrival	-10.3051
▁vessel	-10.3054
▁bu	-10.3058
▁chronic	-10.3059
▁legs	-10.3062
fall	-10.3063
gro	-10.3067
tex	-10.3081
glo	-10.3082
▁prove	-10.3088
▁extent	-10.3088
▁madrid	-10.3088
▁fitness	-10.3089
▁relations	-10.3094
▁dual	-10.3096
▁murder	-10.3098
▁clipart	-10.3101
▁plot	-10.3103
cp	-10.3108
▁risks	-10.3109
▁applicable	-10.311
▁rare	-10.3117
™	-10.3119
▁comprehensive	-10.3122
▁channels	-10.3125
",	-10.3126
▁laser	-10.3128
atory	-10.3136
▁concerns	-10.3141
ena	-10.3143
▁neither	-10.3149
rio	-10.315
▁advertising	-10.315
▁mechanism	-10.3157
wise	-10.3161
▁situations	-10.3162
▁teeth	-10.3164
▁forced	-10.3166
▁fee	-10.3167
▁entrance	-10.3169
▁scheme	-10.3178
▁dresses	-10.3179
▁bl	-10.3179
cra	-10.3184
▁peak	-10.3189
▁rat	-10.3192
▁objectives	-10.3193
▁observation	-10.32
▁guess	-10.32
▁reliable	-10.3203
▁bound	-10.3207
▁lovely	-10.3208
▁confidence	-10.3209
▁saved	-10.3211
▁patterns	-10.3214
▁diamond	-10.3214
state	-10.3216
▁entered	-10.3216
▁protected	-10.3217
▁containing	-10.3218
▁evil	-10.3221
▁impossible	-10.3222
itch	-10.3227
▁corn	-10.3228
▁tire	-10.3235
▁{	-10.3238
▁capable	-10.3244
▁accordance	-10.3244
▁leaf	-10.3245
▁machines	-10.3246
▁michael	-10.3248
▁stopped	-10.3248
▁blade	-10.325
ude	-10.3251
▁haven	-10.3264
▁partnership	-10.3269
!!	-10.327
▁generated	-10.3271
▁vacation	-10.3281
ional	-10.3295
▁municipal	-10.3296
▁ourselves	-10.3296
▁uniform	-10.3299
▁registered	-10.3302
▁tourism	-10.3303
▁incorporate	-10.3311
char	-10.3311
long	-10.3317
ode	-10.3322
▁signed	-10.3329
▁genetic	-10.333
▁tan	-10.3331
▁bags	-10.3332
ux	-10.3335
▁vice	-10.3341
ati	-10.3345
▁gym	-10.3348
▁receiving	-10.3349
▁mil	-10.3349
ense	-10.3352
▁chip	-10.3355
▁sil	-10.3355
▁diameter	-10.3356
▁chat	-10.3361
▁reject	-10.3366
▁meant	-10.3369
▁regulation	-10.3376
▁gro	-10.3376
▁hundred	-10.3377
script	-10.3377
▁remaining	-10.3379
ace	-10.3388
ement	-10.3391
▁chile	-10.3396
▁drain	-10.3401
iness	-10.3407
▁washington	-10.3407
▁adequate	-10.3411
pol	-10.3414
▁estimated	-10.3416
▁steam	-10.3419
ae	-10.3419
bed	-10.3419
ific	-10.3426
▁facility	-10.3428
made	-10.3429
▁facilitate	-10.343
▁familiar	-10.3433
aff	-10.3433
▁referred	-10.3435
▁neighborhood	-10.3438
▁bre	-10.3439
▁keyboard	-10.3439
nder	-10.3444
kb	-10.3449
ddle	-10.345
▁guys	-10.345
▁marine	-10.3458
▁hardware	-10.3462
▁passenger	-10.3463
▁hero	-10.3464
▁attractive	-10.3471
▁proceed	-10.3478
▁employee	-10.3482
▁tear	-10.3484
quality	-10.3485
▁aren	-10.3489
▁slowly	-10.349
▁neighbor	-10.3501
▁expert	-10.3503
▁coin	-10.3503
▁rough	-10.3505
▁doors	-10.3507
▁poll	-10.3516
▁heating	-10.3524
valu	-10.3531
bell	-10.3535
▁tested	-10.3536
▁normally	-10.3545
▁exhibition	-10.3552
▁hp	-10.3561
▁asian	-10.3562
▁shoot	-10.3562
▁yield	-10.3568
▁communicate	-10.3572
▁emerge	-10.3572
tory	-10.3579
▁superior	-10.3579
▁tuesday	-10.358
▁habit	-10.3584
▁rap	-10.3587
▁awareness	-10.3587
▁corresponding	-10.3589
▁champion	-10.359
▁robert	-10.3597
▁cro	-10.3599
▁ze	-10.3599
▁mostly	-10.3599
▁compatible	-10.36
zar	-10.3603
▁split	-10.3605
▁gap	-10.3607
▁belief	-10.3607
tical	-10.361
fusion	-10.361
▁songs	-10.361
key	-10.3612
level	-10.3616
▁accounts	-10.3616
▁gel	-10.3617
▁fault	-10.3619
▁hang	-10.3623
ula	-10.3625
▁expansion	-10.3628
ature	-10.3628
▁thursday	-10.3629
▁sick	-10.3632
▁absorb	-10.3637
cher	-10.3638
▁strike	-10.364
put	-10.3643
▁outfit	-10.3643
▁encounter	-10.3646
▁robot	-10.3648
class	-10.3652
▁principal	-10.3656
▁guidelines	-10.3656
▁wound	-10.3658
▁revolution	-10.3664
▁furthermore	-10.3665
▁han	-10.3671
▁fur	-10.3672
▁telephone	-10.3674
▁discovered	-10.368
▁kiss	-10.368
▁tough	-10.3688
▁moreover	-10.3691
▁george	-10.3698
▁tur	-10.3701
▁bible	-10.3701
▁frank	-10.3704
▁stra	-10.3705
▁existence	-10.3708
ban	-10.3708
▁provision	-10.3711
▁rub	-10.3713
▁selling	-10.3718
▁herself	-10.3721
▁tech	-10.3723
▁accomplish	-10.3726
▁samples	-10.373
!!!	-10.3737
▁hypo	-10.3738
more	-10.374
▁proud	-10.3742
▁collaboration	-10.3744
▁totally	-10.3744
▁shade	-10.3745
▁professionals	-10.3746
▁knee	-10.3746
▁kinds	-10.3746
▁react	-10.3747
fc	-10.3747
▁confirmed	-10.375
▁calm	-10.3754
wing	-10.3761
▁updated	-10.3762
▁starts	-10.3762
active	-10.3762
▁smartphone	-10.3764
▁literature	-10.3765
▁false	-10.3765
▁mountains	-10.3768
▁collected	-10.3769
▁thousand	-10.3772
nie	-10.3773
▁congress	-10.3775
▁branch	-10.3775
▁graduate	-10.3776
▁castle	-10.3777
▁massage	-10.3779
▁expressed	-10.3784
bri	-10.3785
▁ended	-10.3788
▁artists	-10.3791
life	-10.3799
▁ag	-10.3801
ford	-10.3802
last	-10.3808
▁visible	-10.3809
▁doll	-10.381
ress	-10.3813
▁hook	-10.3816
▁audit	-10.3818
▁setup	-10.3819
phi	-10.3823
ski	-10.3823
▁mineral	-10.3824
▁regime	-10.3825
lay	-10.3825
▁compact	-10.3825
▁disappear	-10.3827
▁porn	-10.383
tech	-10.3832
▁indoor	-10.3833
▁winner	-10.3834
oxy	-10.3838
▁protest	-10.3845
▁instruments	-10.3846
▁adapter	-10.3847
▁stability	-10.3849
band	-10.3853
▁packaging	-10.3854
▁intelligence	-10.3855
tz	-10.3858
▁info	-10.3859
blo	-10.3861
▁pun	-10.3868
▁loose	-10.3873
▁indicates	-10.3874
▁feedback	-10.3876
▁prevention	-10.3876
▁exhibit	-10.3877
▁apps	-10.3883
▁divided	-10.3893
▁proportion	-10.3896
quest	-10.3896
▁attached	-10.3896
▁tar	-10.3902
▁cry	-10.3908
▁effectively	-10.3908
▁harm	-10.3911
lect	-10.3913
▁specialist	-10.3919
dar	-10.392
agon	-10.3923
rog	-10.3923
▁retain	-10.3927
cial	-10.3929
▁movies	-10.393
▁routine	-10.393
▁prompt	-10.3932
▁rice	-10.3935
▁prize	-10.3937
▁structures	-10.3943
▁merc	-10.3943
▁canvas	-10.3948
▁passion	-10.395
▁diagnosis	-10.3953
▁unfortunately	-10.3954
▁personalization	-10.3955
▁attraction	-10.3955
▁compliance	-10.3955
lig	-10.3956
▁tion	-10.396
▁citizens	-10.396
law	-10.3962
▁stores	-10.3964
▁failed	-10.3966
sign	-10.3967
▁distinct	-10.397
▁contemporary	-10.3971
vari	-10.3972
▁seamless	-10.3974
gal	-10.3977
▁bomb	-10.398
▁duty	-10.3983
▁putting	-10.3991
▁liver	-10.3993
▁volunteer	-10.3994
▁browser	-10.3996
▁compare	-10.4001
▁carrying	-10.4003
▁musical	-10.4004
▁vital	-10.4004
view	-10.4007
▁mont	-10.4011
▁improving	-10.4013
oz	-10.4027
▁olive	-10.4031
power	-10.4032
▁serving	-10.4034
▁fighting	-10.4037
▁universe	-10.4038
▁obligation	-10.4039
▁absolutely	-10.4041
maker	-10.4041
▁patch	-10.4045
▁turning	-10.4047
▁infant	-10.4049
▁aspect	-10.405
▁purple	-10.4052
▁observe	-10.4053
▁egg	-10.4054
phone	-10.4054
aid	-10.4057
▁pants	-10.4057
▁resolve	-10.4058
▁repeated	-10.4065
▁latter	-10.4066
▁printed	-10.4066
▁houses	-10.4069
▁arts	-10.4071
▁officials	-10.4077
▁foods	-10.4078
▁recommendations	-10.4082
ett	-10.4084
▁reducing	-10.4084
▁fantastic	-10.409
▁gifts	-10.4093
▁priority	-10.4093
▁brings	-10.4094
ctu	-10.4098
cular	-10.4101
color	-10.4101
▁interests	-10.4102
▁aircraft	-10.4108
▁recognition	-10.4109
▁pregnancy	-10.411
▁anywhere	-10.4114
gon	-10.4116
chan	-10.4116
ibility	-10.4117
▁advise	-10.4118
▁pilot	-10.4118
▁crack	-10.412
▁hidden	-10.412
▁supports	-10.4122
▁cata	-10.4125
▁knowing	-10.4126
▁storm	-10.4128
▁crown	-10.4129
▁opposite	-10.4129
activ	-10.413
▁drinking	-10.4134
▁suffer	-10.4134
ender	-10.4134
lot	-10.4136
▁runs	-10.4138
▁marked	-10.4141
sphere	-10.4142
▁twin	-10.4146
publish	-10.4147
▁combat	-10.4148
chin	-10.4169
▁covers	-10.417
they	-10.4173
vit	-10.4173
▁turns	-10.4173
▁bun	-10.4175
▁chamber	-10.4176
▁constitution	-10.4178
▁asking	-10.4178
▁hal	-10.4182
▁ 	-10.4185
▁intention	-10.4188
ending	-10.4189
▁secretary	-10.4192
yo	-10.4195
page	-10.4196
▁rapid	-10.4201
▁drill	-10.4204
▁letters	-10.4206
hy	-10.4206
▁uni	-10.4215
▁wealth	-10.4216
ky	-10.422
▁variation	-10.4221
▁greek	-10.4224
▁issued	-10.4228
▁availability	-10.4229
▁es	-10.4232
▁sides	-10.4234
flex	-10.4235
▁meetings	-10.4237
ele	-10.4238
▁tall	-10.4243
▁wednesday	-10.4247
▁controls	-10.425
▁sail	-10.4251
▁facing	-10.4255
▁nearby	-10.4255
▁liked	-10.4263
▁motorcycle	-10.4267
break	-10.4274
▁strap	-10.4278
▁articles	-10.4284
▁rome	-10.4292
▁adopted	-10.4303
▁sweat	-10.4305
ﬁ	-10.4308
inch	-10.4311
▁partial	-10.4312
▁closer	-10.4319
ural	-10.4322
▁consumers	-10.4323
▁discussed	-10.4324
▁inhibit	-10.4329
▁handling	-10.433
”,	-10.4336
▁polish	-10.4337
▁residents	-10.4339
conscious	-10.4343
▁acts	-10.4344
▁sensitive	-10.4346
▁exc	-10.4346
▁personnel	-10.4347
shore	-10.435
▁decline	-10.4351
▁render	-10.4351
▁birds	-10.4357
pin	-10.4357
▁disk	-10.4358
▁ray	-10.4358
dio	-10.4359
omy	-10.4359
liber	-10.4363
fully	-10.4367
▁joined	-10.4373
▁delivered	-10.4378
lc	-10.4378
bus	-10.4379
▁twenty	-10.439
▁giant	-10.4394
dri	-10.4401
anda	-10.4408
▁crew	-10.4409
ama	-10.4414
▁inspired	-10.4415
▁afternoon	-10.4416
▁pleasure	-10.4421
station	-10.4421
▁agricultural	-10.4423
lies	-10.4424
▁bought	-10.4428
▁programme	-10.4433
▁goods	-10.4436
▁historic	-10.444
▁€	-10.4445
▁lace	-10.4446
▁trick	-10.4447
▁desktop	-10.4454
ón	-10.4458
▁fellow	-10.4462
▁juice	-10.4466
▁danger	-10.4466
photo	-10.4467
▁arrangement	-10.4472
▁valuable	-10.4472
▁agencies	-10.4475
▁comprise	-10.4475
▁limits	-10.4479
▁scenario	-10.4482
ographic	-10.4483
oph	-10.4486
pc	-10.4489
ounce	-10.4489
just	-10.4494
▁funding	-10.4495
▁permit	-10.4502
test	-10.4505
cit	-10.4507
lp	-10.451
▁settle	-10.4523
▁charged	-10.4524
fil	-10.4526
▁immediate	-10.4529
person	-10.4532
bul	-10.4532
▁honey	-10.4533
astic	-10.4535
vy	-10.4544
▁sir	-10.4548
▁languages	-10.4549
▁kr	-10.455
emia	-10.4552
▁scr	-10.4561
▁brake	-10.4571
now	-10.4572
▁optional	-10.4582
><	-10.4584
▁argue	-10.4586
▁survive	-10.4589
berry	-10.459
▁developer	-10.4592
▁widely	-10.4596
▁oxygen	-10.4602
▁broke	-10.4604
pet	-10.4604
ami	-10.4605
▁caught	-10.4606
▁concert	-10.4609
hua	-10.4614
▁reg	-10.4615
ó	-10.4615
non	-10.4616
▁supporting	-10.4617
▁owners	-10.4619
▁editor	-10.462
▁scope	-10.4621
▁eco	-10.4624
▁exit	-10.4627
▁dna	-10.4629
▁defeat	-10.4632
▁tumor	-10.4636
▁planned	-10.4636
gle	-10.4637
run	-10.4642
▁martin	-10.4645
▁banks	-10.4647
▁courses	-10.4647
▁sar	-10.465
pot	-10.4654
▁protective	-10.4655
▁ger	-10.4656
▁suggested	-10.4657
code	-10.4658
▁identification	-10.4659
▁considering	-10.4659
▁emb	-10.4659
▁occurred	-10.4659
▁narrow	-10.4662
▁lie	-10.4664
▁realized	-10.4671
lf	-10.4675
▁electricity	-10.4676
▁breed	-10.4676
▁sec	-10.468
▁calendar	-10.468
▁arrow	-10.4683
lation	-10.4683
cam	-10.4687
▁psycho	-10.4692
▁relief	-10.4699
▁shooting	-10.4703
▁sk	-10.4709
▁pray	-10.4716
▁sauce	-10.4723
▁suffering	-10.4726
▁luc	-10.4727
▁barrier	-10.4732
▁supposed	-10.4732
▁swim	-10.4732
grad	-10.4733
▁debate	-10.4735
▁icons	-10.4738
▁stem	-10.474
▁assistant	-10.474
▁script	-10.4744
▁buying	-10.4747
▁blind	-10.4755
▁dimensions	-10.4758
▁islands	-10.4758
▁complaint	-10.4763
quar	-10.4767
▁employer	-10.4768
dict	-10.477
teen	-10.4772
shot	-10.4773
▁ill	-10.4775
▁enjoyed	-10.4777
▁neo	-10.4779
▁demonstrate	-10.4781
▁shin	-10.4784
bl	-10.4786
▁alert	-10.4787
▁believed	-10.4787
▁trading	-10.4791
▁vegetables	-10.4792
▁boil	-10.4795
▁forum	-10.4816
▁calling	-10.4817
▁administrative	-10.4819
zy	-10.482
▁seed	-10.482
▁pill	-10.4821
▁feelings	-10.4824
▁noted	-10.4826
▁cancel	-10.4829
▁launched	-10.4834
▁pound	-10.4834
▁geo	-10.4835
▁mus	-10.4837
lumin	-10.4846
▁traveling	-10.4847
▁tile	-10.4854
▁counsel	-10.4855
stat	-10.4856
▁loop	-10.4858
▁toilet	-10.4858
most	-10.486
▁grace	-10.4865
▁duration	-10.4865
▁entirely	-10.4867
▁palace	-10.487
▁horizontal	-10.4872
▁smell	-10.4873
gger	-10.4877
▁temp	-10.4877
▁£	-10.488
▁locations	-10.4887
▁hor	-10.4889
▁hazard	-10.4893
▁margin	-10.4898
▁remained	-10.4901
ache	-10.4902
▁exam	-10.4913
▁refuse	-10.4915
cycl	-10.4916
▁poverty	-10.4918
▁usual	-10.492
▁bla	-10.4926
▁bud	-10.4927
▁illness	-10.4931
var	-10.4932
▁studied	-10.4934
met	-10.494
▁minimal	-10.4941
▁outline	-10.4942
▁submit	-10.4944
▁autumn	-10.4964
▁weapons	-10.497
▁sorry	-10.4973
dom	-10.4975
clus	-10.4976
▁appointment	-10.4977
▁reporting	-10.4977
▁trace	-10.4978
▁respectively	-10.4981
▁laboratory	-10.4983
▁preferred	-10.4988
▁connections	-10.499
▁spark	-10.4999
▁substantial	-10.5008
▁iii	-10.5008
▁stands	-10.5011
▁assigned	-10.5021
▁adjustable	-10.5025
tone	-10.5025
▁destroy	-10.5031
▁pose	-10.5031
▁graphics	-10.5035
cri	-10.5036
▁thoughts	-10.5043
▁desert	-10.5043
▁satellite	-10.5044
▁constantly	-10.5053
▁tells	-10.5053
▁correspond	-10.5054
hol	-10.5055
▁affair	-10.5059
▁bearing	-10.5066
▁specify	-10.5066
vol	-10.5067
▁strict	-10.508
▁besides	-10.5081
‐	-10.5085
pla	-10.5085
▁matters	-10.5091
hen	-10.5095
plan	-10.5099
▁understood	-10.5099
▁hide	-10.5104
▁transformation	-10.5108
▁commonly	-10.5109
rick	-10.5112
avi	-10.5113
▁communications	-10.5114
▁blocks	-10.5116
▁thermal	-10.5119
▁meter	-10.5123
▁exception	-10.5125
▁thermo	-10.5125
▁ceiling	-10.5125
▁insight	-10.5125
high	-10.5132
hydr	-10.5133
scope	-10.5136
▁rob	-10.5139
▁managing	-10.5141
via	-10.5145
▁wrap	-10.5147
▁suddenly	-10.5148
▁slot	-10.5153
“	-10.5153
▁decades	-10.5158
▁dollars	-10.516
▁suspect	-10.516
▁unable	-10.5162
▁durable	-10.5167
cip	-10.5168
rant	-10.5179
mobil	-10.518
▁unknown	-10.5183
▁strain	-10.5188
▁ease	-10.5193
▁hell	-10.5196
▁nuclear	-10.5196
▁corporation	-10.5196
vision	-10.5197
▁championship	-10.5198
▁anime	-10.5198
▁judgment	-10.5198
▁exhaust	-10.52
usd	-10.5201
▁reverse	-10.5204
▁diver	-10.5205
▁interpret	-10.5206
▁gallery	-10.521
▁complement	-10.5211
▁catholic	-10.5213
▁detection	-10.5213
▁eastern	-10.5215
bir	-10.5216
▁pig	-10.5216
▁argentina	-10.5221
▁portable	-10.5222
▁halloween	-10.5223
▁massive	-10.5231
rie	-10.5238
▁degrees	-10.5243
▁consequences	-10.5245
ility	-10.5246
ifier	-10.5249
▁explanation	-10.5259
▁sho	-10.5259
▁parameter	-10.5266
ball	-10.5269
▁intense	-10.5269
▁temporary	-10.5275
ifying	-10.5278
▁lifestyle	-10.5278
▁hence	-10.5279
which	-10.528
▁attorney	-10.5285
▁approval	-10.5303
▁silhouette	-10.5308
▁twitter	-10.531
▁incredible	-10.5311
▁agriculture	-10.5319
▁bluetooth	-10.5321
▁celebration	-10.5323
▁macro	-10.533
▁exposed	-10.5333
▁banner	-10.5333
eb	-10.5335
▁officers	-10.5335
yard	-10.5336
▁makeup	-10.5341
▁leak	-10.5342
▁painted	-10.5343
▁ultimate	-10.536
unk	-10.5362
▁removal	-10.5369
▁prince	-10.5371
▁glasses	-10.5376
urg	-10.5377
▁replaced	-10.5378
▁spending	-10.5384
▁hiv	-10.5385
rom	-10.5386
▁gall	-10.5388
▁lawyer	-10.5394
▁findings	-10.5395
▁deck	-10.5399
▁expectations	-10.54
▁flying	-10.5402
craft	-10.541
stream	-10.5412
▁node	-10.5412
soci	-10.5417
▁parallel	-10.5421
▁reasonable	-10.5422
▁backup	-10.5425
hl	-10.543
▁cabinet	-10.5431
▁territory	-10.5439
▁seeds	-10.5441
▁romantic	-10.5441
cast	-10.5443
▁clinic	-10.5445
▁equivalent	-10.5449
▁attacks	-10.5451
▁lion	-10.5455
▁preserve	-10.5455
fold	-10.5458
▁characterized	-10.5459
get	-10.5461
▁plain	-10.5461
▁proof	-10.5467
▁pit	-10.547
▁busy	-10.5471
▁personality	-10.5475
▁eggs	-10.5487
logy	-10.5488
▁monthly	-10.5489
▁drag	-10.5501
▁preference	-10.5506
▁tropical	-10.5508
▁differ	-10.5509
▁rack	-10.5512
▁distinguish	-10.5513
▁heritage	-10.5513
▁pitch	-10.5514
bre	-10.5517
amine	-10.5519
▁width	-10.552
▁recall	-10.5522
▁centre	-10.5523
▁covid	-10.5524
oxid	-10.5528
static	-10.5529
▁obvious	-10.5531
▁flood	-10.5531
▁console	-10.5533
chlor	-10.5536
▁waterproof	-10.5537
cover	-10.5537
chu	-10.5542
▁authentic	-10.5542
▁youtube	-10.5544
▁parliament	-10.5545
ising	-10.5546
▁exciting	-10.5558
▁manifest	-10.5562
▁enables	-10.5563
▁absence	-10.5564
▁carrier	-10.557
▁representation	-10.5572
▁tub	-10.5575
▁grab	-10.558
▁instagram	-10.558
▁recruit	-10.5585
pine	-10.5592
▁examination	-10.5596
▁artificial	-10.5611
▁excited	-10.5611
▁obviously	-10.5611
organ	-10.5615
▁inches	-10.5618
▁grown	-10.562
▁crash	-10.562
▁achievement	-10.5628
▁illustrate	-10.563
▁concentrate	-10.563
▁hire	-10.5634
▁naturally	-10.5635
ela	-10.5638
▁advantages	-10.5638
▁summary	-10.564
▁taught	-10.564
face	-10.5644
▁regularly	-10.5656
▁closely	-10.5657
▁pregnant	-10.5662
build	-10.5663
▁represented	-10.5663
▁tension	-10.5666
▁grain	-10.5666
▁contained	-10.5667
▁nose	-10.5669
▁mur	-10.567
▁greeting	-10.5674
▁tam	-10.5674
phosph	-10.5676
▁nick	-10.5678
▁len	-10.5678
▁lies	-10.5685
▁reinforce	-10.5686
!”	-10.569
▁newspaper	-10.5691
▁grill	-10.5693
▁involves	-10.5697
▁causing	-10.5698
▁exact	-10.5704
▁translate	-10.5707
▁winning	-10.5713
▁directed	-10.5716
▁tomorrow	-10.5717
acy	-10.5722
rum	-10.5724
▁comic	-10.5727
▁collective	-10.5728
▁possibly	-10.5749
▁careful	-10.5753
▁boots	-10.5755
▁variables	-10.5761
▁cel	-10.5771
▁successfully	-10.5771
▁texas	-10.5772
▁institution	-10.5773
▁harvest	-10.5777
▁programming	-10.5785
▁commu	-10.5786
▁constitute	-10.5789
▁luck	-10.5797
▁gentle	-10.58
▁spacious	-10.5803
wl	-10.5806
▁quantity	-10.5806
▁awards	-10.5809
▁cloth	-10.5812
▁conventional	-10.5814
▁florida	-10.5819
▁fees	-10.5821
▁float	-10.5822
▁monster	-10.5826
▁bedrooms	-10.5832
▁pleasant	-10.5833
space	-10.5833
▁permission	-10.5839
▁diverse	-10.584
▁accessible	-10.5842
▁shield	-10.5843
▁cock	-10.5845
▁princess	-10.5856
▁additionally	-10.5859
▁surf	-10.5867
▁flame	-10.5871
▁drum	-10.5871
▁bringing	-10.5873
gent	-10.5885
▁victims	-10.589
▁smiling	-10.5893
claim	-10.5894
▁yard	-10.5899
▁whenever	-10.5904
▁depression	-10.5906
style	-10.5909
▁skirt	-10.5912
▁ji	-10.5914
▁analog	-10.5916
▁stir	-10.5917
▁dishes	-10.5919
ego	-10.5919
emi	-10.5922
▁execute	-10.5923
▁corp	-10.5928
▁wifi	-10.5929
▁performing	-10.5932
▁increasingly	-10.5932
▁guidance	-10.5934
▁administrator	-10.5937
▁outstanding	-10.5937
▁cookies	-10.5938
▁jun	-10.5939
▁prospect	-10.5941
▁vent	-10.5941
▁forever	-10.5946
section	-10.5947
from	-10.5949
▁vast	-10.595
▁classroom	-10.5954
!"	-10.5955
aya	-10.5963
izer	-10.5964
▁fra	-10.5966
▁patent	-10.5968
pir	-10.597
▁wil	-10.5973
▁mel	-10.5984
▁graph	-10.599
▁correctly	-10.599
▁informed	-10.599
▁angeles	-10.5993
▁thi	-10.5994
▁yoga	-10.6008
▁adopt	-10.601
▁glad	-10.6012
▁victim	-10.6017
▁kan	-10.6019
front	-10.6023
▁boxes	-10.6023
▁pp	-10.6025
▁consume	-10.6027
▁regardless	-10.6029
▁currency	-10.6031
trans	-10.6031
▁barb	-10.6032
▁specialized	-10.6035
▁copper	-10.6039
▁maintained	-10.6046
ended	-10.6047
▁manufacturers	-10.6049
▁legislation	-10.6052
rous	-10.6053
▁smith	-10.6055
▁cer	-10.6056
▁suppliers	-10.6056
▁awesome	-10.6057
▁lung	-10.6059
▁seeking	-10.606
dding	-10.6066
cker	-10.6069
utter	-10.6069
▁stack	-10.6069
▁acting	-10.607
▁optimize	-10.6071
▁lever	-10.6072
▁investigate	-10.6075
▁possess	-10.6077
mag	-10.6079
▁operational	-10.6081
ü	-10.6082
▁statistics	-10.6082
<	-10.6085
▁ken	-10.6087
▁primarily	-10.6089
▁scal	-10.6091
after	-10.6092
▁biological	-10.6092
▁establishment	-10.6094
▁dish	-10.6097
▁cluster	-10.61
▁featuring	-10.6102
▁buyer	-10.6104
«	-10.6105
▁impressive	-10.6107
rich	-10.6108
▁sunset	-10.6108
▁mechanisms	-10.6109
▁trim	-10.6112
▁diversity	-10.6113
▁conversion	-10.6116
▁bigger	-10.6117
▁samsung	-10.6118
▁galaxy	-10.612
pper	-10.6122
▁oct	-10.6126
ground	-10.6128
▁hundreds	-10.6129
when	-10.613
▁inspection	-10.6133
▁colored	-10.6136
▁ticket	-10.6137
phen	-10.6138
▁everyday	-10.6141
▁diabetes	-10.6141
▁charging	-10.6144
▁grew	-10.615
▁worst	-10.6157
▁reflection	-10.6161
▁listening	-10.6163
▁pepper	-10.6173
▁injection	-10.6174
▁crazy	-10.6174
▁construct	-10.6176
ulating	-10.6179
sky	-10.618
▁distributed	-10.6188
▁invite	-10.6188
▁kg	-10.6188
▁priest	-10.6188
ía	-10.619
quin	-10.6194
▁interpretation	-10.6197
stick	-10.6204
num	-10.6204
ologist	-10.6207
▁enemy	-10.6211
ridge	-10.6215
mini	-10.6216
▁toxic	-10.6217
making	-10.6221
stein	-10.6221
▁slim	-10.6224
án	-10.6225
▁implemented	-10.6225
▁delight	-10.6231
digit	-10.6236
▁instruction	-10.6241
rupt	-10.6242
erie	-10.6259
gin	-10.6262
ison	-10.6264
▁younger	-10.6264
note	-10.6268
arm	-10.6268
▁absolute	-10.6269
▁captain	-10.6269
▁spell	-10.6275
▁contest	-10.6278
▁premier	-10.628
▁outlet	-10.6281
▁jet	-10.6295
▁necklace	-10.6304
▁diy	-10.6305
▁surrounded	-10.6306
▁sketch	-10.6306
case	-10.6327
▁alive	-10.6329
▁oven	-10.633
▁notification	-10.6333
▁situated	-10.6335
▁productivity	-10.6335
▁afraid	-10.6337
asse	-10.6337
▁coloring	-10.6338
▁cab	-10.6339
▁provisions	-10.6343
gui	-10.6345
▁kn	-10.6346
tail	-10.6346
▁survival	-10.6348
▁disaster	-10.6348
rp	-10.6348
morph	-10.6365
▁originally	-10.6369
▁colour	-10.637
▁requirement	-10.6377
▁opt	-10.6377
▁singer	-10.6379
▁atom	-10.638
fla	-10.6385
▁stamp	-10.6385
▁withdraw	-10.6388
▁pour	-10.6398
▁jan	-10.6399
▁sy	-10.6403
ush	-10.6403
▁slave	-10.6404
▁certification	-10.6404
pad	-10.6408
▁broadcast	-10.6409
▁reception	-10.6412
▁victory	-10.6427
▁weigh	-10.6431
encies	-10.6437
▁posted	-10.6439
▁paragraph	-10.6444
▁approaches	-10.6445
iff	-10.6453
{	-10.646
▁inspiration	-10.6462
hold	-10.6462
ille	-10.6467
▁anyway	-10.647
vor	-10.6471
elli	-10.6475
▁cave	-10.6478
▁neutral	-10.6478
▁tooth	-10.6479
▁stood	-10.6483
▁choosing	-10.6484
▁louis	-10.6485
ua	-10.6491
▁sew	-10.6493
▁bon	-10.6494
▁arise	-10.6494
▁disney	-10.6495
▁usage	-10.6496
▁technological	-10.6497
▁decade	-10.65
▁hub	-10.6501
▁sustain	-10.6502
▁cooling	-10.6502
▁washing	-10.6511
▁succeed	-10.6512
▁hanging	-10.6519
▁esc	-10.6521
▁measuring	-10.6523
▁happening	-10.6528
▁concerning	-10.6528
▁phil	-10.653
hn	-10.6531
▁coordinate	-10.6536
▁conditioning	-10.6539
▁structural	-10.6543
▁resistant	-10.6548
▁refuge	-10.6549
▁abandon	-10.6558
▁decorative	-10.6562
▁rein	-10.6563
▁critic	-10.6568
temp	-10.6571
▁physician	-10.6577
▁towel	-10.6578
▁legend	-10.6582
▁crucial	-10.6583
tum	-10.6583
▁floral	-10.6584
▁engage	-10.6584
▁weld	-10.6586
count	-10.6587
▁wage	-10.659
▁costa	-10.6591
▁introduce	-10.6596
▁creature	-10.6596
▁initially	-10.6596
▁qua	-10.6598
▁upload	-10.6599
under	-10.6604
control	-10.6614
▁korea	-10.6615
▁indigenous	-10.662
▁wake	-10.6624
▁soccer	-10.6628
▁citizen	-10.663
▁deserve	-10.6639
▁sofa	-10.664
▁industries	-10.6641
▁ceramic	-10.6643
▁entity	-10.6655
▁cinema	-10.6657
other	-10.6661
▁twist	-10.6664
▁comm	-10.6667
▁academy	-10.6667
flu	-10.6667
gate	-10.6671
▁scientists	-10.6676
▁stroke	-10.6679
▁dental	-10.6679
▁lee	-10.668
▁happiness	-10.668
▁grip	-10.6681
rri	-10.6683
▁ignore	-10.669
▁tickets	-10.67
▁telling	-10.6701
have	-10.6714
love	-10.6716
tec	-10.6717
▁illegal	-10.672
▁dear	-10.6724
▁pier	-10.6725
▁gay	-10.6726
▁anxiety	-10.673
ised	-10.673
▁accuracy	-10.6732
rating	-10.6737
▁continent	-10.6739
▁linear	-10.6741
pur	-10.6744
▁trained	-10.6747
▁folk	-10.6756
▁capabilities	-10.6756
`	-10.6756
▁gh	-10.6758
scale	-10.6758
▁passage	-10.6758
▁govern	-10.676
▁healing	-10.6762
▁nar	-10.6762
▁dialogue	-10.6764
hur	-10.6765
▁genuine	-10.6766
▁maria	-10.6772
#	-10.6772
▁hate	-10.6773
awa	-10.6776
▁defect	-10.6777
▁span	-10.6781
▁turkey	-10.6783
▁okay	-10.6784
licenses	-10.6789
▁bob	-10.679
▁rescue	-10.6791
▁magnetic	-10.6792
▁density	-10.6797
duction	-10.6799
▁childhood	-10.6804
occu	-10.6809
▁ultimately	-10.6809
▁proven	-10.6813
▁calculation	-10.6814
▁bang	-10.6815
▁founded	-10.6815
▁thomas	-10.6821
▁iv	-10.6822
▁flexibility	-10.6823
▁signature	-10.6823
▁visited	-10.6826
▁dramatic	-10.6828
▁matt	-10.683
▁bug	-10.6836
▁residence	-10.6839
prov	-10.6841
▁reset	-10.6842
▁evaluate	-10.6842
commerce	-10.6843
▁peru	-10.6845
▁sword	-10.6846
▁jam	-10.6849
▁tournament	-10.6854
ulator	-10.6859
▁losing	-10.686
▁dvd	-10.686
▁cruise	-10.6863
▁cow	-10.6869
▁jar	-10.6873
▁tin	-10.6875
▁hind	-10.6875
▁coronavirus	-10.6877
▁sd	-10.688
▁mood	-10.6884
rb	-10.6896
post	-10.6897
▁farmers	-10.6899
▁excess	-10.69
▁blank	-10.6904
▁stain	-10.6908
aire	-10.691
▁discharge	-10.6912
▁tiny	-10.6919
care	-10.6922
▁enroll	-10.6926
▁racing	-10.6926
▁politics	-10.6927
▁prohibit	-10.6927
▁whereas	-10.6929
▁emotions	-10.693
ogen	-10.6933
▁muslim	-10.6935
hap	-10.6935
▁intellectual	-10.6945
▁damaged	-10.6945
▁lar	-10.6945
▁difficulty	-10.6946
para	-10.6949
▁dial	-10.6951
▁investors	-10.6951
▁beam	-10.6973
une	-10.6973
▁producing	-10.6974
▁surprised	-10.6974
▁smoking	-10.698
▁philosophy	-10.6982
▁chan	-10.6983
▁tray	-10.6995
▁riding	-10.6997
aunt	-10.6997
▁caribbean	-10.6999
▁injuries	-10.7001
▁passing	-10.7003
▁aero	-10.7009
▁discipline	-10.7009
▁fox	-10.7012
wall	-10.7013
▁resist	-10.7013
▁weapon	-10.7015
rest	-10.7017
▁bubble	-10.7017
▁directory	-10.7022
▁suspension	-10.7023
core	-10.7023
▁documentation	-10.7028
iro	-10.7032
shaped	-10.7032
▁divide	-10.7035
mond	-10.7043
▁calculated	-10.7043
▁subsequent	-10.7044
▁nevertheless	-10.7044
▁scott	-10.7044
▁basically	-10.7046
▁font	-10.7047
▁sending	-10.7047
cil	-10.7048
onia	-10.705
▁regulate	-10.705
▁certified	-10.7056
▁granted	-10.7057
▁divine	-10.7058
uous	-10.7062
▁portfolio	-10.7064
▁catalog	-10.7073
▁exploit	-10.7076
▁puerto	-10.7076
▁foam	-10.7081
▁interval	-10.7083
▁lean	-10.7083
▁sleeping	-10.7087
quir	-10.7089
▁waist	-10.7092
▁compete	-10.7094
▁dealing	-10.7096
open	-10.7097
uit	-10.7098
▁brick	-10.7098
▁iran	-10.71
▁membrane	-10.7103
▁seriously	-10.7105
▁bid	-10.7107
▁satisfaction	-10.7107
train	-10.711
wan	-10.7113
▁connecting	-10.7119
drive	-10.7125
▁aimed	-10.7127
▁interact	-10.7129
bro	-10.7132
▁requested	-10.7138
▁tw	-10.7138
▁odd	-10.714
▁execution	-10.7149
hour	-10.7156
▁democratic	-10.7157
▁dun	-10.7161
▁applying	-10.7164
▁array	-10.7165
▁navy	-10.7178
▁overview	-10.7179
ump	-10.7181
▁composed	-10.7183
greg	-10.7183
▁boss	-10.7184
▁immune	-10.7185
▁polymer	-10.7188
▁stronger	-10.7195
▁enabled	-10.7196
▁vacuum	-10.7204
▁puzzle	-10.7204
▁myth	-10.7205
▁perception	-10.7209
shop	-10.7212
▁fisher	-10.7213
▁coating	-10.7224
▁rush	-10.7227
▁mining	-10.7228
▁conservation	-10.7236
▁optimal	-10.7242
▁pace	-10.7242
´	-10.7242
▁acknowledge	-10.7244
image	-10.7247
▁visiting	-10.7249
▁shoe	-10.7256
▁gam	-10.7257
▁exceptional	-10.7265
who	-10.7266
max	-10.7269
▁harry	-10.727
▁applies	-10.7271
fish	-10.7274
▁elastic	-10.7276
▁slice	-10.7283
town	-10.7284
bound	-10.7288
▁tomato	-10.7295
▁bicycle	-10.7295
▁appliance	-10.7297
▁statistical	-10.7299
▁nobody	-10.7299
▁silk	-10.7304
▁pillow	-10.7308
▁cuba	-10.7315
worth	-10.7316
▁peri	-10.7319
ister	-10.732
▁falling	-10.7323
▁bush	-10.7326
minute	-10.7326
▁associate	-10.7331
▁utilize	-10.7331
▁rust	-10.7335
▁potato	-10.7341
▁institutional	-10.7343
▁healthcare	-10.7346
▁frequent	-10.7347
▁surprising	-10.7347
▁cau	-10.7349
▁somewhat	-10.7351
▁digest	-10.7356
▁butter	-10.7357
▁relate	-10.736
▁cafe	-10.7361
uro	-10.7362
▁lemon	-10.7368
▁syndrome	-10.7375
▁loud	-10.7392
▁emphasize	-10.7394
▁maintaining	-10.7396
▁statue	-10.7401
▁submitted	-10.7402
▁solo	-10.7405
▁ker	-10.7409
▁invitation	-10.741
▁bolt	-10.7412
gest	-10.7412
▁balloon	-10.7414
roll	-10.7418
▁entering	-10.7424
▁closing	-10.7429
nov	-10.7432
turn	-10.7434
▁straw	-10.7435
lite	-10.7435
▁modified	-10.744
▁squ	-10.7442
▁violation	-10.7446
▁tennis	-10.7447
wide	-10.745
force	-10.7452
▁accompanied	-10.7453
▁cylinder	-10.7453
▁colleague	-10.7457
▁adam	-10.7459
▁consent	-10.7464
▁stomach	-10.7467
▁engagement	-10.7468
▁yeah	-10.7469
spire	-10.7469
▁moderate	-10.7473
▁advisor	-10.7475
▁needle	-10.7475
▁agenda	-10.7475
▁disappoint	-10.7477
▁insect	-10.7485
▁occupation	-10.7487
plication	-10.7491
▁paying	-10.7495
▁norm	-10.7496
▁modify	-10.7496
▁empire	-10.75
▁rapidly	-10.75
▁batteries	-10.751
▁layout	-10.7511
▁walked	-10.7513
▁acquisition	-10.7522
▁venezuela	-10.7524
phy	-10.7524
▁manufacture	-10.7525
▁ongoing	-10.7525
▁effectiveness	-10.7529
qual	-10.7533
▁seller	-10.7544
▁melt	-10.7544
▁rio	-10.7546
▁settlement	-10.7548
▁campus	-10.7551
▁molecule	-10.7555
change	-10.7557
▁mature	-10.7566
▁taxes	-10.7568
▁mild	-10.7569
ema	-10.757
▁airline	-10.757
▁bonus	-10.7576
▁fifth	-10.758
▁overcome	-10.758
▁grid	-10.7584
▁balcony	-10.7584
▁rip	-10.7587
▁scratch	-10.759
round	-10.7591
▁unusual	-10.7592
▁diagnostic	-10.7595
▁noticed	-10.7602
▁supplied	-10.7607
▁optical	-10.7607
▁verify	-10.761
▁mesh	-10.761
▁scheduled	-10.7611
exp	-10.7612
▁diagram	-10.7612
▁necessarily	-10.7619
▁soap	-10.762
▁gang	-10.7624
▁modification	-10.7625
vir	-10.7626
▁grave	-10.763
mann	-10.7652
eller	-10.7652
▁tune	-10.7653
▁buck	-10.7657
▁yesterday	-10.7657
▁equi	-10.7668
▁charles	-10.7671
fill	-10.7675
▁radiation	-10.7678
▁nerve	-10.7679
▁apparently	-10.7679
▁athlete	-10.768
▁asset	-10.7681
▁receiver	-10.7681
▁impression	-10.769
▁preparing	-10.7695
▁stereo	-10.7696
▁var	-10.7704
step	-10.7706
lash	-10.7709
▁cuisine	-10.7711
▁horn	-10.7717
▁dependent	-10.7721
▁dollar	-10.773
▁burning	-10.7733
tribut	-10.7733
▁jewish	-10.7734
▁warranty	-10.7742
lac	-10.7744
connect	-10.7745
▁gaming	-10.7747
▁pulled	-10.775
▁acute	-10.775
▁korean	-10.7751
▁ladies	-10.776
▁processor	-10.7769
▁suffered	-10.7769
▁kim	-10.7773
▁metro	-10.7774
▁knife	-10.7776
▁geographic	-10.7786
function	-10.7795
▁meanwhile	-10.7796
▁ensuring	-10.78
pack	-10.7802
▁pencil	-10.7803
ilia	-10.7806
▁engaged	-10.7808
▁derived	-10.781
▁flour	-10.7822
▁forecast	-10.7823
nan	-10.7824
▁stylish	-10.7825
▁strongly	-10.7826
▁till	-10.7833
▁cli	-10.7835
▁lounge	-10.7836
▁trap	-10.7838
▁covering	-10.7839
▁beaches	-10.7841
design	-10.7849
▁filling	-10.7851
▁ky	-10.7851
▁nest	-10.7852
▁phrase	-10.7853
▁organize	-10.7861
national	-10.7862
▁characteristic	-10.7867
▁consultation	-10.7871
where	-10.7877
illo	-10.7889
▁perceive	-10.7891
▁accu	-10.7899
▁laid	-10.79
▁jersey	-10.7902
▁sought	-10.7902
▁promoting	-10.7904
▁silence	-10.7919
</	-10.7924
▁furnish	-10.7927
▁bracelet	-10.793
▁hybrid	-10.793
▁pizza	-10.793
▁mounting	-10.7931
▁eli	-10.795
▁jim	-10.7952
▁aesthetic	-10.7953
▁actress	-10.7959
▁ceo	-10.7967
▁charm	-10.7968
▁specifications	-10.7974
▁realistic	-10.7978
▁equation	-10.7988
▁possibilities	-10.8
▁privilege	-10.8009
▁thickness	-10.8009
wind	-10.801
▁disturb	-10.802
weight	-10.8026
▁convince	-10.8031
tag	-10.8033
▁psychological	-10.8033
▁pride	-10.8034
▁esp	-10.8042
▁dimension	-10.8044
wick	-10.8047
▁affordable	-10.8057
▁knock	-10.8059
pit	-10.806
▁comply	-10.8061
▁residential	-10.8062
ule	-10.8072
lau	-10.8076
▁acquired	-10.8078
▁ruin	-10.8086
▁tang	-10.8101
▁intensity	-10.8107
▁garage	-10.8111
▁chicago	-10.8113
▁cosplay	-10.8114
▁richard	-10.8115
▁maker	-10.8119
▁silicone	-10.8122
▁basketball	-10.8127
▁surgical	-10.8131
▁killing	-10.8132
▁reservation	-10.8135
▁mile	-10.8136
friendly	-10.8137
▁compensation	-10.814
immer	-10.8142
▁dropped	-10.8149
▁fairly	-10.8153
▁drama	-10.8155
▁ipad	-10.8161
▁navigation	-10.8161
▁tired	-10.8165
▁driven	-10.8167
▁administer	-10.8168
▁roller	-10.8171
▁nervous	-10.8172
▁supreme	-10.8172
▁entrepreneur	-10.8175
▁demonstrated	-10.8178
▁vaccine	-10.8179
▁utility	-10.8179
▁refresh	-10.8181
▁reaching	-10.8183
▁worship	-10.8186
▁joke	-10.8191
▁employed	-10.8192
▁minimize	-10.8195
▁monument	-10.8197
far	-10.82
▁authorized	-10.8203
lysis	-10.8204
▁complicated	-10.8212
click	-10.8213
▁oak	-10.8224
▁satisfied	-10.823
ui	-10.8232
▁enhanced	-10.824
▁ordinary	-10.8243
▁spare	-10.8248
▁egypt	-10.825
▁memories	-10.8252
gio	-10.8253
▁motivation	-10.8258
▁everybody	-10.826
▁independence	-10.8261
▁lightweight	-10.8262
▁scholar	-10.8264
mount	-10.8267
▁excessive	-10.8268
▁moisture	-10.8272
▁marker	-10.8283
▁diagnose	-10.8294
▁armed	-10.8295
▁largely	-10.8296
▁qualified	-10.8298
▁alleged	-10.8299
▁ethnic	-10.8303
▁mut	-10.8303
▁dispute	-10.8306
▁indication	-10.8308
▁precision	-10.8312
▁dialog	-10.8313
▁silent	-10.8314
▁sup	-10.8315
▁regulatory	-10.8317
fp	-10.8319
▁everywhere	-10.832
▁logic	-10.8326
▁equally	-10.8328
▁swing	-10.8335
▁candle	-10.8336
▁sponsor	-10.8341
▁rising	-10.8341
▁difficulties	-10.8346
▁dancing	-10.8347
kg	-10.8348
▁fitting	-10.8351
▁polar	-10.8351
ifies	-10.8355
▁helmet	-10.8359
▁daniel	-10.8359
▁stadium	-10.8361
▁wolf	-10.8361
▁demo	-10.8363
▁radical	-10.8364
cellular	-10.8371
▁claimed	-10.8372
▁detected	-10.8372
elle	-10.8373
ote	-10.8374
▁cosmetic	-10.8374
road	-10.839
▁potentially	-10.8395
▁sustainability	-10.8396
▁lying	-10.8398
▁addressed	-10.8402
▁pacific	-10.8403
▁expertise	-10.8407
▁algorithm	-10.8408
▁snack	-10.8409
▁pole	-10.8409
white	-10.841
▁personally	-10.8412
pop	-10.8422
known	-10.8428
▁mega	-10.843
▁bulb	-10.8434
och	-10.8437
▁feeding	-10.8438
▁mug	-10.8442
▁uncle	-10.8442
▁bump	-10.8444
▁alex	-10.8448
▁chrome	-10.8452
▁tender	-10.8454
bert	-10.8454
▁rope	-10.8456
course	-10.8456
▁mutual	-10.8456
▁salad	-10.8456
▁artistic	-10.8461
▁opponent	-10.8462
▁anymore	-10.8468
▁decent	-10.8468
wait	-10.8469
▁basket	-10.8471
▁vinyl	-10.8471
▁demon	-10.8483
condition	-10.8484
▁bass	-10.8485
world	-10.8486
away	-10.8491
itz	-10.8496
▁spectacular	-10.8503
▁ireland	-10.851
▁functionality	-10.8512
▁initiate	-10.8516
hara	-10.8517
▁lucky	-10.8518
▁mol	-10.8518
▁angry	-10.8522
▁anniversary	-10.8525
▁vest	-10.8528
▁backpack	-10.8529
▁generator	-10.8532
bia	-10.8534
▁migration	-10.8534
▁suspend	-10.8537
config	-10.8544
▁activate	-10.8545
▁subscribe	-10.8548
lio	-10.8552
▁intelligent	-10.8553
▁addict	-10.8555
gie	-10.8563
▁canadian	-10.8564
▁bullet	-10.857
black	-10.8581
▁shake	-10.8583
▁sink	-10.8584
▁adverse	-10.8586
▁unlock	-10.8598
▁negotiation	-10.8603
▁journalist	-10.8604
fire	-10.8609
▁discovery	-10.8611
▁cum	-10.8612
▁curtain	-10.8615
▁involving	-10.8617
▁convey	-10.8619
▁destroyed	-10.8623
▁continuing	-10.8624
▁homo	-10.8627
▁socio	-10.8627
gri	-10.8628
proof	-10.8633
▁attended	-10.8633
▁undergo	-10.8638
▁arrested	-10.8643
▁mounted	-10.8643
▁steve	-10.8648
▁hug	-10.8651
▁attach	-10.8652
▁decorated	-10.8656
▁reputation	-10.8656
▁loving	-10.8657
plicate	-10.8663
▁juan	-10.8683
▁carpet	-10.8683
▁hydraulic	-10.8688
▁blu	-10.869
▁plea	-10.8693
▁pdf	-10.8699
▁matches	-10.8707
▁energ	-10.871
▁separated	-10.8714
▁losses	-10.8715
▁admit	-10.8718
▁experimental	-10.8722
▁afford	-10.8722
▁invited	-10.8726
▁respective	-10.8737
ould	-10.8741
range	-10.8743
▁alien	-10.8747
▁pulse	-10.8749
plus	-10.8752
iii	-10.8752
emp	-10.8755
then	-10.876
·	-10.8767
▁stunning	-10.8769
▁binding	-10.8772
▁weekly	-10.878
genic	-10.8781
▁bride	-10.8782
▁kidney	-10.8782
▁fitted	-10.8784
▁hormone	-10.8788
physi	-10.8793
▁highway	-10.8796
▁governor	-10.8798
▁exterior	-10.88
▁blonde	-10.8803
▁axis	-10.8804
will	-10.8806
▁chose	-10.8814
stitu	-10.8817
▁entities	-10.8819
▁aroma	-10.8823
▁implant	-10.8826
group	-10.8828
▁ceremony	-10.8828
▁precise	-10.8843
▁mediterranean	-10.8847
▁declared	-10.8855
▁foster	-10.8855
▁classification	-10.8861
▁architect	-10.8862
▁treasure	-10.8865
american	-10.8866
write	-10.8874
▁java	-10.8878
ö	-10.8879
▁personalized	-10.8887
▁chef	-10.8888
▁fantasy	-10.8891
▁debut	-10.8895
▁downtown	-10.8896
▁involve	-10.8903
▁zoom	-10.8904
▁featured	-10.8904
▁rotation	-10.8906
▁math	-10.891
▁deploy	-10.8912
▁ghost	-10.8913
pool	-10.8913
▁archive	-10.892
▁australian	-10.8924
▁similarly	-10.8937
▁cad	-10.8941
▁analyzed	-10.8943
▁friendship	-10.8946
▁ecosystem	-10.8948
ambi	-10.895
ador	-10.8958
▁vegetable	-10.8975
ique	-10.8976
▁confident	-10.8979
▁typ	-10.8984
▁flip	-10.8986
▁armor	-10.8988
▁exclude	-10.8988
▁financing	-10.8988
▁facial	-10.8995
▁magnet	-10.8996
▁marvel	-10.8998
▁tongue	-10.9002
▁somewhere	-10.9003
▁alliance	-10.9003
▁joe	-10.9004
▁sensitivity	-10.9005
▁trailer	-10.9005
▁supplier	-10.9007
data	-10.9008
▁shaft	-10.9015
▁pursue	-10.9016
▁skull	-10.9017
▁rica	-10.9017
▁lcd	-10.9017
▁vulnerable	-10.9029
▁satisfy	-10.9031
▁virgin	-10.9033
vig	-10.9034
▁dozen	-10.9037
▁removing	-10.9041
▁challenging	-10.9046
▁dried	-10.9046
▁breathing	-10.9047
including	-10.9051
▁prim	-10.9054
▁peer	-10.9056
▁hunting	-10.9057
▁branches	-10.906
▁ornament	-10.9061
▁notebook	-10.9063
▁fragment	-10.9075
▁relating	-10.9075
▁terror	-10.9083
▁membership	-10.9086
holder	-10.9094
▁nano	-10.9095
▁obli	-10.9098
▁bulk	-10.9108
▁aggressive	-10.9111
▁mobility	-10.9111
▁restrictions	-10.9122
called	-10.9123
▁spider	-10.9123
▁dating	-10.9132
▁comb	-10.9133
▁olympic	-10.9142
▁consciousness	-10.9145
▁venue	-10.9151
home	-10.9152
▁gloves	-10.9154
▁refine	-10.9156
▁iraq	-10.9156
▁calculate	-10.916
▁globe	-10.9166
▁mala	-10.917
▁missed	-10.917
▁considerable	-10.9171
▁coordination	-10.9183
itude	-10.9188
▁reliability	-10.9188
▁activated	-10.919
▁hello	-10.919
▁customized	-10.9192
shire	-10.9193
▁hose	-10.9199
▁evolve	-10.92
▁overlook	-10.9203
▁transferred	-10.9204
mill	-10.9205
liter	-10.921
ception	-10.921
ook	-10.9211
▁limitations	-10.9216
logist	-10.9217
▁sacrifice	-10.922
▁diploma	-10.923
▁bloom	-10.9237
▁phenomenon	-10.9244
▁cathedral	-10.9247
▁pendant	-10.9247
▁workout	-10.9249
▁essentially	-10.9261
▁fran	-10.9262
▁commit	-10.9266
▁berlin	-10.9266
optim	-10.9267
▁fake	-10.9268
speed	-10.9271
▁merely	-10.9278
▁enemies	-10.9281
▁pap	-10.9281
▁reply	-10.9281
aria	-10.9283
▁sculpture	-10.9283
▁bend	-10.9286
order	-10.9288
game	-10.9288
▁simulation	-10.9297
▁appointed	-10.9301
▁shelter	-10.9301
▁resin	-10.9306
integr	-10.931
▁awarded	-10.9313
▁gru	-10.9316
▁warrior	-10.9323
▁preferably	-10.9327
▁align	-10.9327
cell	-10.9327
▁alloy	-10.9328
▁involvement	-10.9336
▁eligible	-10.9337
▁kha	-10.9338
▁dj	-10.9341
▁clay	-10.9355
boo	-10.9355
▁francisco	-10.936
▁joseph	-10.9366
▁depict	-10.9366
▁photographer	-10.9368
▁hack	-10.9376
rang	-10.9385
▁pixel	-10.9387
isation	-10.9391
▁bracket	-10.9394
▁determination	-10.9397
▁addresses	-10.9401
fig	-10.9404
▁rational	-10.9406
▁simultaneously	-10.9416
▁creativity	-10.9419
▁gradually	-10.9422
▁opposition	-10.9423
foot	-10.9424
▁participating	-10.9427
▁crush	-10.9428
▁jewel	-10.9429
▁interrupt	-10.9431
▁enzyme	-10.9434
▁avenue	-10.9434
▁deeply	-10.9436
▁weakness	-10.9439
▁animation	-10.9439
rank	-10.9439
encing	-10.9444
specific	-10.9444
vie	-10.9451
▁orientation	-10.9472
grade	-10.9478
▁fighter	-10.948
▁humanity	-10.9491
▁casino	-10.9493
▁mall	-10.9495
▁operated	-10.9497
▁progressive	-10.9501
▁mun	-10.9501
▁fiction	-10.9508
▁portal	-10.9509
▁gonna	-10.951
▁junior	-10.9512
▁gospel	-10.9512
▁dealer	-10.9513
▁wrist	-10.9514
▁brazilian	-10.9516
install	-10.952
▁pearl	-10.9527
▁pie	-10.9527
▁synthetic	-10.9532
▁inventory	-10.9532
▁plum	-10.9534
hon	-10.9547
▁remark	-10.9561
▁interactive	-10.9563
▁cleaner	-10.9567
current	-10.9568
psych	-10.9572
▁integrity	-10.9572
▁cocktail	-10.9577
▁anchor	-10.9579
▁syria	-10.958
▁lowest	-10.9582
▁knight	-10.9597
▁glow	-10.9597
▁complain	-10.9599
▁arrest	-10.96
▁enforcement	-10.9605
▁productive	-10.9605
▁wool	-10.961
xl	-10.9612
school	-10.9615
product	-10.9616
watch	-10.9623
responsibilities	-10.9628
▁praise	-10.9631
▁chill	-10.9631
lux	-10.9639
▁assignment	-10.9642
▁wisdom	-10.9643
▁forgive	-10.9644
▁serial	-10.965
look	-10.9656
▁suck	-10.9658
leg	-10.9659
▁constructed	-10.966
▁organism	-10.966
good	-10.9662
▁keyword	-10.9666
▁sap	-10.9668
▁confront	-10.9669
▁attachment	-10.967
▁miami	-10.967
▁employ	-10.968
▁adjusted	-10.9686
▁lifetime	-10.9687
▁cyber	-10.9688
▁microphone	-10.9688
figure	-10.9693
▁earned	-10.9694
▁relaxing	-10.9709
▁fleet	-10.9717
▁assign	-10.9717
▁ribbon	-10.9735
▁emerging	-10.974
▁lap	-10.9742
▁punch	-10.9749
▁matrix	-10.975
▁applicant	-10.9761
▁pale	-10.9762
▁theoretical	-10.9766
▁classified	-10.9769
▁gil	-10.9769
aught	-10.977
▁visa	-10.977
▁railway	-10.9771
▁victoria	-10.9774
▁eternal	-10.9781
▁tiger	-10.9789
phon	-10.9799
▁alongside	-10.9803
▁peaceful	-10.9803
credit	-10.9807
▁injured	-10.9807
▁abroad	-10.9808
▁democracy	-10.981
▁gem	-10.9814
▁universities	-10.9817
▁tunnel	-10.9817
▁musician	-10.9819
▁stuck	-10.9822
▁rhythm	-10.983
rrh	-10.983
crypt	-10.9832
▁poison	-10.9841
bla	-10.9844
▁creator	-10.9845
▁adapted	-10.9853
▁robust	-10.9854
▁sodium	-10.9859
▁thumb	-10.9862
▁proved	-10.9862
immun	-10.9865
▁stitch	-10.9874
▁hollywood	-10.9875
▁calcium	-10.9877
▁rival	-10.9878
▁baseball	-10.9882
▁beverage	-10.9898
▁acceptable	-10.99
cious	-10.9902
▁disrupt	-10.9907
▁charger	-10.9908
▁governance	-10.9911
▁vendor	-10.9919
▁britain	-10.9919
▁venture	-10.9928
▁passes	-10.993
▁tale	-10.9931
▁arbitra	-10.9933
ibly	-10.9934
pell	-10.9943
▁possession	-10.9944
▁leon	-10.995
oriented	-10.995
ç	-10.995
▁evident	-10.9956
▁insist	-10.996
▁pandemic	-10.9961
▁precisely	-10.9962
▁pvc	-10.9964
▁achieving	-10.9974
▁devil	-10.9976
ú	-10.9977
▁destruction	-10.9977
▁organizational	-10.9977
▁manually	-10.9981
▁frozen	-10.9984
▁abilities	-10.999
▁immuno	-10.999
▁panama	-10.999
▁tries	-11
▁scrap	-11.0001
hole	-11.0005
▁marble	-11.0008
gener	-11.0008
▁steal	-11.0015
▁cabin	-11.0024
▁copies	-11.0025
▁empower	-11.0029
▁obstacle	-11.0029
▁slope	-11.003
▁thor	-11.003
▁grape	-11.0032
▁prophet	-11.0035
▁brilliant	-11.0037
▁quad	-11.0041
▁admitted	-11.0042
▁chairman	-11.005
▁rarely	-11.0053
▁zip	-11.0053
▁integrate	-11.0054
quot	-11.0058
▁acquire	-11.0059
▁gross	-11.0064
▁assault	-11.0072
▁separation	-11.0074
▁assumption	-11.0077
▁slight	-11.008
maz	-11.0081
▁sacred	-11.0085
▁watercolor	-11.0086
▁violent	-11.0088
berries	-11.0089
▁underlying	-11.0091
▁anger	-11.0093
▁extraordinary	-11.0096
▁pollution	-11.0096
walk	-11.0096
▁brew	-11.0097
ference	-11.0098
▁greece	-11.0101
▁burden	-11.0108
bble	-11.0109
▁recreation	-11.0112
▁stimulate	-11.0112
▁exclusively	-11.0112
▁beneficial	-11.0114
dress	-11.0116
▁duties	-11.0119
▁centuries	-11.0122
▁competitor	-11.0125
▁departure	-11.0125
▁cushion	-11.0136
▁shine	-11.0141
▁steering	-11.0147
▁gps	-11.0148
▁suggestions	-11.0152
▁declaration	-11.0152
▁tee	-11.0154
»	-11.0158
▁upcoming	-11.0159
gene	-11.0162
▁shu	-11.0167
×	-11.0168
▁equity	-11.0168
▁activation	-11.0173
▁adaptation	-11.0177
▁spectrum	-11.0186
▁cure	-11.0193
▁textile	-11.0196
▁emphasis	-11.0197
▁relay	-11.0198
▁caution	-11.0199
▁stake	-11.0205
▁bold	-11.0205
▁completion	-11.0211
▁motivate	-11.0215
▁assemble	-11.0216
service	-11.0219
▁classical	-11.0224
▁embodiment	-11.0235
▁amendment	-11.0235
nova	-11.0244
word	-11.0246
▁rider	-11.026
▁overwhelm	-11.0262
▁sunny	-11.0269
▁cartridge	-11.0279
▁probe	-11.0279
▁monte	-11.028
▁lane	-11.0281
▁liberal	-11.0285
▁cognitive	-11.0286
▁henry	-11.0287
▁gently	-11.0288
▁amenities	-11.0289
▁contrary	-11.0292
▁knit	-11.0296
▁thirty	-11.0297
▁snake	-11.03
girl	-11.0302
▁enormous	-11.0303
▁leisure	-11.0303
▁merge	-11.0305
▁amateur	-11.0308
▁bureau	-11.0313
▁switzerland	-11.0316
е	-11.0316
▁entertain	-11.0317
chem	-11.0318
▁seminar	-11.0318
▁taxi	-11.0318
▁nursing	-11.0324
▁wipe	-11.0325
master	-11.0326
chen	-11.0327
▁separately	-11.0335
▁sensation	-11.0337
▁chris	-11.0337
▁adoption	-11.0339
▁bake	-11.0341
charge	-11.035
▁convenience	-11.0352
а	-11.036
carbon	-11.0363
▁dirt	-11.0366
▁closure	-11.0366
−	-11.0368
▁essence	-11.0371
operative	-11.0377
▁scroll	-11.038
▁manufactured	-11.0381
▁medal	-11.0381
▁molecular	-11.0387
▁johnson	-11.0388
scribe	-11.0391
▁concluded	-11.0392
▁darkness	-11.0398
▁wheat	-11.0404
▁resident	-11.0404
▁collapse	-11.0415
▁adhesive	-11.0417
▁behalf	-11.0417
▁discrimination	-11.042
▁excel	-11.0421
...............	-11.0422
▁workplace	-11.0425
▁clamp	-11.0432
▁machinery	-11.0438
▁inclusion	-11.0439
▁condo	-11.0444
▁collar	-11.0444
▁substitute	-11.0445
▁embrace	-11.0448
▁austria	-11.045
▁coil	-11.0455
▁resume	-11.0458
▁unexpected	-11.0459
▁refund	-11.0461
▁annex	-11.0476
▁fraction	-11.0482
{/	-11.0484
▁triple	-11.0486
▁mike	-11.0489
efficient	-11.0493
sheet	-11.0494
▁vibration	-11.0495
▁borrow	-11.0499
▁ownership	-11.0503
▁gorgeous	-11.0506
▁literally	-11.0506
▁charming	-11.0519
▁zealand	-11.0519
▁antenna	-11.052
▁correction	-11.0521
therapy	-11.0524
depend	-11.0528
oodle	-11.053
▁scream	-11.0531
▁grind	-11.0535
green	-11.0538
▁fever	-11.054
▁accommodate	-11.0544
▁profession	-11.0552
▁conform	-11.0553
▁reaches	-11.0553
solv	-11.0554
▁designated	-11.0556
▁fraud	-11.056
glyc	-11.0566
through	-11.058
▁varied	-11.0583
▁rabbit	-11.0586
▁hunt	-11.0603
▁vac	-11.061
▁incentive	-11.0612
▁blessing	-11.0617
▁fence	-11.0619
fix	-11.0621
▁blast	-11.0622
▁wildlife	-11.0624
▁transit	-11.0625
▁cooper	-11.0636
▁copyright	-11.0639
store	-11.0641
▁dock	-11.0641
lou	-11.0645
▁narrative	-11.0648
▁mural	-11.0654
▁transparency	-11.0659
▁pub	-11.066
▁gloss	-11.0663
▁mice	-11.0665
▁socket	-11.0665
patri	-11.0673
▁geometric	-11.0674
▁admission	-11.0675
▁entitled	-11.0676
▁babies	-11.0682
▁dirty	-11.0682
induced	-11.0683
▁opera	-11.0689
▁glory	-11.0692
▁recommendation	-11.0696
kon	-11.0704
▁jen	-11.0708
▁relieve	-11.0711
▁dominate	-11.0712
self	-11.0714
▁receptor	-11.0719
▁evaluated	-11.0719
▁philip	-11.072
▁footage	-11.0721
▁solvent	-11.0728
▁temper	-11.0729
▁ecuador	-11.073
▁identical	-11.073
▁worn	-11.0739
▁consultant	-11.0744
▁kilometers	-11.0744
▁bishop	-11.0746
▁hunter	-11.0752
▁infected	-11.076
▁netherlands	-11.0761
▁horror	-11.0775
▁disconnect	-11.0787
spec	-11.0788
▁therapeutic	-11.079
▁consequently	-11.0792
▁explicit	-11.0801
▁lamb	-11.0807
▁barrel	-11.0808
generation	-11.0824
▁disabled	-11.0827
▁elite	-11.083
▁dutch	-11.0833
▁raising	-11.0839
methyl	-11.0841
▁soviet	-11.0844
▁announcement	-11.0848
zel	-11.0848
lop	-11.0849
▁magical	-11.0853
▁elected	-11.0857
▁subscription	-11.0861
▁blame	-11.0862
▁humor	-11.0868
▁urge	-11.0869
▁circular	-11.0873
▁artwork	-11.0875
▁jews	-11.0876
▁mortality	-11.0878
▁variant	-11.0879
à	-11.0881
▁companion	-11.0884
▁cargo	-11.0887
▁echo	-11.0892
▁vietnam	-11.0901
▁thailand	-11.0909
▁spiral	-11.0927
▁recipient	-11.0927
▁immigration	-11.093
▁lymph	-11.093
▁abnormal	-11.0931
▁lecture	-11.0933
▁warehouse	-11.0936
▁prominent	-11.0942
▁elderly	-11.0943
▁respiratory	-11.0945
▁suppress	-11.0949
▁pakistan	-11.0951
▁freeze	-11.0951
▁mystery	-11.0957
▁hong	-11.0957
▁pharmaceutical	-11.0959
▁plasma	-11.0972
▁throat	-11.0977
€™	-11.0992
▁propose	-11.0994
found	-11.0999
tree	-11.1002
▁thrill	-11.1006
nik	-11.1007
▁stakeholders	-11.1015
▁offense	-11.102
▁athletic	-11.102
▁triangle	-11.1023
▁cuban	-11.1036
▁hydrogen	-11.1037
▁harbor	-11.1044
▁customize	-11.1045
▁israeli	-11.1055
▁jordan	-11.1058
▁microwave	-11.1061
▁edward	-11.1065
▁rainbow	-11.1088
▁incredibly	-11.1091
▁subsequently	-11.1092
▁url	-11.1094
▁amino	-11.1097
▁diesel	-11.1097
▁integral	-11.11
▁jail	-11.1102
clar	-11.1108
▁suicide	-11.1111
▁terrible	-11.1111
▁significance	-11.112
▁threshold	-11.1129
trem	-11.1138
▁zoo	-11.1143
▁imagination	-11.1147
▁duck	-11.1149
icular	-11.1154
▁rib	-11.117
▁jones	-11.118
▁blanket	-11.1183
▁apparent	-11.1187
▁arranged	-11.1188
▁laundry	-11.1188
ña	-11.1188
▁twelve	-11.1191
▁supervisor	-11.1191
▁delicate	-11.1191
▁faculty	-11.1194
▁underground	-11.1195
▁corruption	-11.12
▁likewise	-11.1205
▁fool	-11.1207
jun	-11.1208
dale	-11.1212
▁cozy	-11.1217
▁accused	-11.1217
▁heavily	-11.1221
▁acceptance	-11.1222
▁skate	-11.1225
hawk	-11.1228
system	-11.1228
▁complications	-11.123
▁qualify	-11.123
▁prescription	-11.1239
▁scholarship	-11.124
▁dessert	-11.1242
▁eagle	-11.1242
▁cube	-11.1243
▁spice	-11.1244
▁jackson	-11.1245
▁glue	-11.1247
▁flesh	-11.1248
▁equality	-11.1249
▁kong	-11.1249
▁methodology	-11.1254
▁purchasing	-11.1254
synthesis	-11.1254
exe	-11.1255
▁refrigerator	-11.1257
▁pathway	-11.1261
▁compression	-11.1266
▁disability	-11.127
▁marsh	-11.1275
▁wig	-11.1275
▁veteran	-11.1284
▁advocate	-11.1284
month	-11.1285
▁horizon	-11.1285
▁physio	-11.129
▁piano	-11.1295
▁peel	-11.1298
ín	-11.1301
▁casa	-11.1301
uration	-11.1303
file	-11.1303
▁divorce	-11.1305
▁bitcoin	-11.1311
▁harmful	-11.1314
▁qualities	-11.1317
▁wax	-11.1318
▁girlfriend	-11.132
▁immigrant	-11.1323
▁inflammation	-11.1326
▁troops	-11.1326
▁gig	-11.1327
▁poem	-11.1327
worm	-11.1329
inflammatory	-11.1332
plex	-11.1333
lift	-11.1336
determi	-11.1341
▁servant	-11.1347
▁precious	-11.135
|	-11.1351
▁fallen	-11.1353
±	-11.1356
▁determining	-11.1359
▁cement	-11.1363
▁jane	-11.1369
▁dick	-11.1374
▁sheep	-11.1377
▁banana	-11.1377
▁sudden	-11.1379
▁squad	-11.138
▁genre	-11.1382
▁vocal	-11.1386
fight	-11.1387
▁hydra	-11.1387
▁tribe	-11.1392
soft	-11.1394
heat	-11.1395
▁tutorial	-11.1395
▁grateful	-11.1401
▁versus	-11.1406
▁dye	-11.141
guard	-11.1413
cycle	-11.1415
▁boast	-11.1423
▁tobacco	-11.1428
▁accompany	-11.1434
▁timing	-11.1435
▁painful	-11.144
▁liability	-11.1442
▁cult	-11.1448
▁fiscal	-11.1456
▁antibiotic	-11.1459
▁circum	-11.1471
▁permitted	-11.1472
▁pond	-11.1475
▁systematic	-11.1477
▁feather	-11.148
▁capsule	-11.148
▁vapor	-11.1493
dimensional	-11.1501
about	-11.1503
▁cigarette	-11.1505
▁trunk	-11.1508
▁adv	-11.1515
▁router	-11.1518
▁announce	-11.1523
▁boston	-11.1524
▁faithful	-11.1525
▁summit	-11.1528
▁acrylic	-11.1529
▁nike	-11.1531
vocation	-11.1532
▁worried	-11.1532
▁jeff	-11.1534
▁elephant	-11.1535
▁blur	-11.1542
▁jose	-11.1546
▁disposal	-11.1548
track	-11.1553
economic	-11.1554
▁poet	-11.1555
▁hiking	-11.1559
▁curious	-11.1562
▁affiliate	-11.1563
▁lime	-11.1569
▁analyst	-11.1572
▁courage	-11.1572
▁boom	-11.1578
harmon	-11.1583
▁memorial	-11.1588
▁advertisement	-11.1599
▁accelerate	-11.16
▁valentine	-11.16
▁pav	-11.16
▁baking	-11.1605
market	-11.1612
▁metallic	-11.1614
▁witch	-11.1616
natal	-11.1617
sulf	-11.162
▁compromise	-11.1622
▁accent	-11.1626
▁jurisdiction	-11.1634
▁elsewhere	-11.1638
▁gauge	-11.1641
burn	-11.1644
▁fortunate	-11.1647
▁rosa	-11.1652
▁receipt	-11.1656
▁anticipate	-11.1662
▁adhere	-11.1668
bank	-11.1673
▁automation	-11.1675
▁portugal	-11.1678
▁habitat	-11.1684
▁dump	-11.1685
▁badge	-11.1686
etch	-11.1686
▁directive	-11.1688
zone	-11.1696
▁headquarters	-11.17
base	-11.1702
▁controlling	-11.1706
▁beans	-11.1712
▁followers	-11.1716
▁capability	-11.1718
rock	-11.1728
▁assert	-11.1729
vul	-11.1729
▁trait	-11.1735
▁naked	-11.1735
▁expenditure	-11.1737
▁bronze	-11.1743
▁consequence	-11.1744
▁outlook	-11.1754
illus	-11.1756
▁coconut	-11.1762
▁travelers	-11.1777
▁compress	-11.1779
▁shelf	-11.1781
▁thoroughly	-11.1785
**	-11.1787
▁somebody	-11.1794
▁placing	-11.1812
blue	-11.1814
è	-11.1819
▁pension	-11.1826
▁essay	-11.1829
▁ltd	-11.183
cio	-11.1833
▁owe	-11.1837
▁gesture	-11.1841
stead	-11.1843
▁locate	-11.1848
▁whilst	-11.1851
titution	-11.1851
▁bias	-11.1851
▁republican	-11.1855
▁transmit	-11.1863
nomic	-11.1873
general	-11.1877
▁victor	-11.1882
▁dismiss	-11.1882
▁disclose	-11.1884
ño	-11.1888
▁alpha	-11.1891
sight	-11.1893
glass	-11.1893
▁gown	-11.1896
▁incorrect	-11.1901
▁hammer	-11.1909
▁monkey	-11.1913
▁antique	-11.1919
ometer	-11.1924
preci	-11.1925
▁deployment	-11.1928
▁federation	-11.193
length	-11.1939
frame	-11.1956
▁bleeding	-11.1969
▁compartment	-11.1978
▁raid	-11.1979
▁burst	-11.198
ocyte	-11.1987
▁bunch	-11.1987
capacit	-11.1988
▁obama	-11.1993
▁rotate	-11.1993
▁roast	-11.1993
▁singapore	-11.1994
▁explosion	-11.1998
▁circulation	-11.1998
▁automotive	-11.2001
▁intermediate	-11.2001
▁meditation	-11.2001
▁confidential	-11.2003
***	-11.2004
volu	-11.2007
▁opposed	-11.2007
▁guardian	-11.2009
▁hint	-11.2011
▁varieties	-11.2014
check	-11.2017
▁wallet	-11.2018
▁irish	-11.2018
woman	-11.2018
▁residue	-11.202
▁restoration	-11.2023
▁authorization	-11.2031
▁tighten	-11.2038
▁scripture	-11.2042
▁indonesia	-11.2043
▁conclude	-11.2043
▁fame	-11.205
▁legacy	-11.205
▁medieval	-11.2052
ologies	-11.2053
sexual	-11.2055
▁maximize	-11.2057
▁mul	-11.2057
▁lodge	-11.206
……	-11.2063
▁weird	-11.2066
▁ethical	-11.2067
xxx	-11.2068
▁correlation	-11.2069
blanc	-11.2069
▁educate	-11.2069
▁spoken	-11.2072
metry	-11.208
▁poland	-11.208
▁jerusalem	-11.2082
▁excellence	-11.2085
▁distinction	-11.2086
▁varies	-11.2088
▁beast	-11.2088
▁fuse	-11.2088
▁implications	-11.2088
▁fasci	-11.2089
▁auditor	-11.2092
phil	-11.2092
▁inflation	-11.2102
▁cyto	-11.211
▁gaze	-11.2118
▁probability	-11.2121
▁conservative	-11.2124
genesis	-11.2126
valent	-11.213
▁regret	-11.2131
▁rico	-11.2134
▁delegation	-11.214
▁magnificent	-11.2143
▁carries	-11.2148
▁approx	-11.215
▁corr	-11.2152
▁albert	-11.2155
▁sweden	-11.2157
▁shout	-11.2158
▁swiss	-11.2158
▁heroes	-11.2159
▁specimen	-11.216
▁automated	-11.216
▁nutrients	-11.2162
▁buffer	-11.2163
▁vein	-11.2166
▁atlantic	-11.2166
▁adolescent	-11.217
▁confirmation	-11.2174
▁runner	-11.2178
▁remarkable	-11.2183
▁butterfly	-11.2186
health	-11.2186
chrom	-11.2188
▁dissolve	-11.2191
▁cycling	-11.2198
▁moscow	-11.2199
▁glucose	-11.2202
safe	-11.2206
▁ritual	-11.2212
▁plaza	-11.2214
▁torque	-11.222
▁pioneer	-11.2222
quant	-11.2226
▁stairs	-11.223
bury	-11.2234
▁teenager	-11.2239
struc	-11.2245
▁shame	-11.2248
▁disadvantage	-11.2248
▁welfare	-11.2252
▁tweet	-11.2255
▁bitter	-11.2262
▁architectural	-11.2269
▁sync	-11.227
▁psychology	-11.2272
▁fridge	-11.2276
▁complexity	-11.2278
natural	-11.2278
bacter	-11.2278
▁query	-11.2286
▁subtle	-11.2286
▁shark	-11.2294
▁imperial	-11.2295
▁intimate	-11.2299
▁hoodie	-11.2304
▁tolerance	-11.2308
▁kra	-11.2312
▁suppose	-11.2313
▁serum	-11.232
heart	-11.2322
▁retirement	-11.2335
▁calories	-11.2341
▁occasionally	-11.2343
▁somehow	-11.2354
▁demonstration	-11.2355
science	-11.2366
▁ankle	-11.2367
toxic	-11.2376
scopic	-11.238
▁handmade	-11.238
▁criticism	-11.2382
ã	-11.2385
▁kur	-11.2389
▁sophisticated	-11.2395
▁enabling	-11.2398
▁compliment	-11.2401
▁striking	-11.2415
▁intensive	-11.2432
▁michel	-11.2436
▁linux	-11.2442
▁infinite	-11.2442
▁intend	-11.2445
model	-11.2449
▁distract	-11.2457
▁warrant	-11.2458
profit	-11.2459
‘	-11.2466
▁composite	-11.2469
▁blessed	-11.2469
▁kilo	-11.247
▁georgia	-11.2479
▁urgent	-11.2481
▁migrant	-11.2482
▁partition	-11.2482
▁pile	-11.249
▁elect	-11.2492
▁erect	-11.2493
▁chemistry	-11.2506
▁consolidate	-11.2509
▁batch	-11.2516
▁baker	-11.252
▁guatemala	-11.253
▁steady	-11.253
▁dyna	-11.2533
▁carlos	-11.2546
▁transplant	-11.2557
▁glance	-11.2557
▁confess	-11.2557
▁insulin	-11.2557
▁trademark	-11.256
▁imaging	-11.256
▁sandwich	-11.2564
▁generating	-11.2568
strong	-11.2574
▁browse	-11.2596
cultural	-11.2597
▁calibration	-11.2601
▁surveillance	-11.2601
▁turtle	-11.2601
▁lease	-11.2602
▁accessory	-11.2605
▁hetero	-11.261
▁humidity	-11.2611
▁submission	-11.2615
▁patio	-11.2618
▁ranging	-11.262
▁fatigue	-11.2649
▁curriculum	-11.2652
▁confused	-11.2656
▁enthusiast	-11.2656
▁dictionary	-11.2659
▁technician	-11.2663
▁guilty	-11.2667
escence	-11.2671
▁inhabitants	-11.2673
▁turkish	-11.268
▁barely	-11.2685
▁preach	-11.2688
▁denied	-11.2688
▁gateway	-11.2697
▁tackle	-11.2697
▁generous	-11.2698
▁trauma	-11.2701
▁isolation	-11.2702
▁bundle	-11.2705
▁fracture	-11.2708
benz	-11.2711
▁politician	-11.2715
▁packet	-11.2716
▁absorption	-11.2718
▁mortgage	-11.2721
▁damp	-11.2724
▁polyester	-11.2725
▁underwear	-11.2733
▁versatile	-11.2735
▁wizard	-11.2735
▁antonio	-11.2735
▁exploring	-11.2753
▁transmitted	-11.2755
▁alternate	-11.2757
▁petro	-11.2762
▁elizabeth	-11.2767
→	-11.277
▁carolina	-11.277
▁organizer	-11.2772
▁stiff	-11.2775
__	-11.2776
▁tokyo	-11.2782
▁analytics	-11.2791
▁dominant	-11.2794
▁elder	-11.2795
▁kir	-11.2798
▁renewable	-11.2805
▁persist	-11.2812
▁boyfriend	-11.2819
chemical	-11.2821
▁indicating	-11.2822
▁emotion	-11.2824
▁regulator	-11.2824
▁passionate	-11.2829
▁islamic	-11.283
▁emperor	-11.2833
▁hike	-11.2836
▁rocket	-11.2837
▁experiencing	-11.284
▁mushroom	-11.285
▁portuguese	-11.285
▁enrich	-11.2851
▁distributor	-11.2854
▁penalty	-11.2871
▁publisher	-11.2872
▁pedal	-11.2875
uffle	-11.2877
▁potter	-11.2878
▁marina	-11.2878
▁preview	-11.2878
▁restart	-11.2887
▁buffet	-11.2889
▁andrew	-11.2891
▁deadline	-11.2891
▁excuse	-11.2892
▁franchise	-11.2892
▁proceedings	-11.2897
▁conceptual	-11.2898
▁robb	-11.2902
▁distort	-11.2906
▁ecological	-11.2924
▁unlimited	-11.2928
▁mechanic	-11.293
▁headache	-11.2932
º	-11.2938
▁hairstyle	-11.2938
human	-11.2941
▁accumulate	-11.2945
▁punishment	-11.295
▁colonial	-11.2951
▁spoon	-11.2953
▁petition	-11.2955
▁rigid	-11.2963
▁clutch	-11.297
▁ventilation	-11.2974
▁scatter	-11.2977
▁dwell	-11.2979
▁exploration	-11.2988
■	-11.2988
▁paradise	-11.2991
▁verification	-11.3004
▁insulation	-11.3007
▁torre	-11.3007
▁transcript	-11.3013
▁pause	-11.3019
▁substrate	-11.302
▁generic	-11.3022
▁donald	-11.3023
▁garlic	-11.3026
▁supermarket	-11.3032
▁gdp	-11.3039
factor	-11.304
▁disabilities	-11.3048
▁airplane	-11.3056
▁vagina	-11.3066
trust	-11.3067
▁formulation	-11.3068
▁adjacent	-11.3074
▁societies	-11.3081
▁diego	-11.3082
▁sunlight	-11.3085
▁spill	-11.3086
▁taylor	-11.3091
▁dying	-11.3094
▁beneath	-11.3095
▁incidence	-11.3099
▁prediction	-11.3103
▁drew	-11.3113
▁secretariat	-11.3113
▁basin	-11.3119
▁confusion	-11.3119
▁mysterious	-11.312
▁judicial	-11.3124
▁shipment	-11.3127
▁cpu	-11.3129
▁alphabet	-11.3131
▁francis	-11.3134
▁occupied	-11.3135
▁elementary	-11.3136
disciplinary	-11.3138
▁elevator	-11.3138
trophy	-11.315
title	-11.3155
▁forgotten	-11.3156
▁salary	-11.3163
▁sunglasses	-11.3164
▁fancy	-11.3164
▁hygiene	-11.3178
▁miracle	-11.3182
▁physics	-11.3185
▁retrieve	-11.3186
▁instructor	-11.3187
▁lobby	-11.3189
▁cliff	-11.319
▁hopefully	-11.3199
▁ethics	-11.32
why	-11.3201
▁virtue	-11.3203
▁nigeria	-11.3204
▁meaningful	-11.321
▁auction	-11.3215
impl	-11.3222
▁milan	-11.3227
▁priorities	-11.3232
▁mandate	-11.3237
▁cheek	-11.3237
▁disciple	-11.324
▁sweep	-11.3243
▁recess	-11.3251
▁requiring	-11.3251
▁struck	-11.3251
▁jazz	-11.3253
▁cease	-11.3264
▁uncertainty	-11.3267
▁virginia	-11.327
▁cattle	-11.3273
▁aerial	-11.3282
▁dentist	-11.3284
▁swallow	-11.3287
▁mandatory	-11.3287
▁fireplace	-11.3288
▁tyr	-11.3291
▁cherry	-11.3291
▁envelope	-11.3295
▁advertise	-11.3296
virus	-11.3297
▁surgeon	-11.3313
▁precaution	-11.3317
▁fountain	-11.3317
▁stupid	-11.3317
▁authentication	-11.3319
▁jungle	-11.3321
▁jacob	-11.3332
▁splash	-11.3337
▁glitter	-11.3346
▁antioxidant	-11.335
second	-11.3363
▁fortune	-11.3366
▁sovereign	-11.3368
▁diving	-11.337
habit	-11.3374
source	-11.3374
▁quo	-11.3374
▁profound	-11.3376
▁durability	-11.339
▁sampling	-11.339
▁nitrogen	-11.3394
kov	-11.3397
▁throne	-11.3398
▁admire	-11.3401
▁wardrobe	-11.3409
▁unemployment	-11.3416
▁dawn	-11.3417
▁sanction	-11.3419
▁affirm	-11.342
▁dough	-11.3423
▁connectivity	-11.3426
▁lind	-11.3434
▁flee	-11.3436
▁arrange	-11.3437
vascular	-11.3441
▁belgium	-11.3442
▁embedded	-11.3442
▁qualification	-11.3442
▁xbox	-11.3443
▁exotic	-11.3443
▁compressor	-11.3447
effective	-11.345
process	-11.3465
▁harmony	-11.3469
▁egyptian	-11.3472
▁coordinator	-11.3472
▁tremendous	-11.3476
▁beloved	-11.348
▁entries	-11.348
▁intent	-11.349
▁thunder	-11.35
▁constraint	-11.3502
▁palestinian	-11.3502
▁acoustic	-11.3506
▁viral	-11.351
▁afterwards	-11.3519
ä	-11.3521
▁merchant	-11.3524
tactic	-11.3525
people	-11.3526
▁supervision	-11.3531
▁retreat	-11.3531
▁surround	-11.3533
keeper	-11.3535
▁navigate	-11.3547
▁czech	-11.3554
▁contradict	-11.3558
refrigera	-11.3562
▁enforce	-11.3562
▁theories	-11.3563
▁helicopter	-11.3566
▁invoice	-11.3566
▁terrorist	-11.3567
▁autonomous	-11.3573
▁enlarge	-11.3573
▁orchestra	-11.3573
▁bikini	-11.3581
▁compile	-11.3583
▁consensus	-11.3584
▁doctrine	-11.3584
▁mammal	-11.3585
▁boundaries	-11.3586
▁replied	-11.3588
▁southeast	-11.3597
▁fatty	-11.3598
▁scotland	-11.36
▁rifle	-11.36
select	-11.3603
▁visibility	-11.3607
▁poetry	-11.3612
о	-11.3615
▁mutation	-11.3615
▁consistency	-11.3616
▁deputy	-11.3622
▁legitimate	-11.3626
▁dairy	-11.3634
...........	-11.3646
▁headphones	-11.3657
▁desperate	-11.3668
▁earthquake	-11.3668
▁civilian	-11.3671
▁urine	-11.3673
▁descend	-11.368
▁aggregate	-11.3691
udge	-11.3714
▁humanitarian	-11.3714
▁bucket	-11.3716
▁socks	-11.3717
▁torture	-11.3727
▁fought	-11.3729
▁tasty	-11.373
▁phenomena	-11.3733
▁harsh	-11.3736
▁practitioner	-11.3744
▁summarize	-11.3744
▁ruling	-11.3745
▁chase	-11.3752
▁automobile	-11.3756
▁electrode	-11.3761
′	-11.3763
▁securities	-11.3763
▁recycling	-11.3763
▁wrapped	-11.3784
plasm	-11.3784
▁editorial	-11.3795
▁registry	-11.3802
▁delegate	-11.3802
▁pupil	-11.3802
▁luxurious	-11.381
▁attendance	-11.3816
▁organisation	-11.3818
▁economies	-11.3821
potent	-11.3825
▁organizing	-11.3828
▁cooperative	-11.3829
▁referring	-11.383
▁punish	-11.3833
▁replica	-11.384
security	-11.3841
▁lyrics	-11.3844
▁norway	-11.3857
ā	-11.386
▁liberty	-11.3864
▁landmark	-11.3869
▁bmw	-11.3872
▁strand	-11.3872
▁salmon	-11.3872
▁dominican	-11.3879
▁optimization	-11.3879
▁competent	-11.3882
▁valencia	-11.3883
▁revolutionary	-11.3886
▁brunette	-11.3887
▁widespread	-11.3887
▁disagree	-11.3891
▁completing	-11.3891
▁exempt	-11.3891
▁velocity	-11.3895
▁steep	-11.3896
▁emblem	-11.3897
▁rumor	-11.3907
while	-11.3908
▁odor	-11.3918
video	-11.3922
please	-11.3926
▁spatial	-11.3926
▁legendary	-11.3927
▁hesitate	-11.393
α	-11.3934
▁spoil	-11.3942
▁thai	-11.3944
▁hollow	-11.3948
▁ukraine	-11.3949
▁pussy	-11.3957
▁ortho	-11.3962
▁coincide	-11.3966
▁pirate	-11.3973
▁cholesterol	-11.3981
develop	-11.3981
▁dinosaur	-11.3985
▁umbrella	-11.3985
wheel	-11.3989
▁numeric	-11.3993
▁monetary	-11.3996
▁scanner	-11.3997
 	-11.4004
▁removable	-11.4008
first	-11.4014
▁encouraging	-11.402
▁engaging	-11.402
▁breach	-11.4024
▁buried	-11.4024
▁ibm	-11.4039
▁flush	-11.404
▁distant	-11.404
▁sneakers	-11.4048
▁quantities	-11.4056
complete	-11.4057
▁sweatshirt	-11.4069
▁rehabilitation	-11.4071
▁gravity	-11.4071
▁defendant	-11.4072
▁tendency	-11.4078
ologic	-11.408
▁preliminary	-11.4083
▁vegas	-11.4083
▁toast	-11.4086
▁santiago	-11.4087
▁derivative	-11.4095
▁combining	-11.4115
▁spouse	-11.4119
▁maxim	-11.4127
▁distress	-11.4143
▁survivor	-11.4151
▁salvation	-11.4151
▁wander	-11.4154
▁philippines	-11.4155
▁civilization	-11.4155
▁alignment	-11.417
▁hypothesis	-11.4171
μ	-11.4179
▁bamboo	-11.4179
phyl	-11.418
▁funeral	-11.4183
▁investigator	-11.4187
▁premises	-11.4195
²	-11.4207
▁malaysia	-11.4211
▁consecutive	-11.4215
▁defensive	-11.4215
woven	-11.4216
▁showcase	-11.4217
culture	-11.4221
▁luggage	-11.4223
▁fifty	-11.4223
▁pretend	-11.4226
▁metabolism	-11.4231
▁pigment	-11.4235
▁differentiate	-11.4236
▁drunk	-11.4239
▁perfume	-11.4247
▁clark	-11.425
discrimi	-11.4256
▁threatened	-11.4257
electric	-11.4258
▁readily	-11.426
▁zipper	-11.4268
▁assay	-11.4269
▁precede	-11.427
▁bolivia	-11.4271
▁instruct	-11.4274
▁transmitter	-11.4275
▁sliding	-11.4275
▁frost	-11.4276
resistant	-11.4278
▁earrings	-11.428
▁elevated	-11.4283
▁elaborate	-11.4287
▁portray	-11.4292
▁distribute	-11.4296
œ	-11.4304
▁irregular	-11.4304
prote	-11.4304
▁zinc	-11.4305
▁illuminate	-11.4312
▁appendix	-11.432
▁corona	-11.4321
▁prevail	-11.4324
▁questionnaire	-11.4328
▁toddler	-11.4334
▁beginner	-11.434
close	-11.4342
▁implies	-11.4344
▁clause	-11.4349
▁embroidery	-11.4352
▁deficit	-11.4357
▁corrosion	-11.4361
▁condemn	-11.4373
▁voting	-11.4378
▁knob	-11.4383
▁endorse	-11.4387
▁collaborate	-11.4393
▁turbo	-11.4405
▁apparatus	-11.4406
defined	-11.4411
▁retention	-11.4414
▁replacing	-11.4418
▁stabilize	-11.4418
▁inherent	-11.4426
▁hawaii	-11.443
▁osteo	-11.4434
▁occurrence	-11.4438
▁crisp	-11.4448
▁tilt	-11.4455
consuming	-11.4461
▁blossom	-11.4463
▁salvador	-11.4471
▁anonymous	-11.4475
▁passport	-11.4477
▁symptom	-11.448
▁intuitive	-11.4496
▁interference	-11.4499
▁alexander	-11.4517
▁honda	-11.4517
▁offensive	-11.4521
ethylene	-11.4524
▁matthew	-11.4525
▁prescribed	-11.4529
▁inquiry	-11.4534
▁bachelor	-11.4537
▁basil	-11.4547
▁scanning	-11.455
▁clue	-11.4554
▁prosecutor	-11.4566
▁nowadays	-11.4571
▁earnings	-11.4577
▁neglect	-11.4587
▁cottage	-11.4591
_______________	-11.4595
▁fifteen	-11.4621
▁whale	-11.4622
▁solving	-11.4623
▁gulf	-11.4624
▁participant	-11.4627
▁disinfect	-11.4629
▁creek	-11.4649
▁conquer	-11.4651
▁seafood	-11.4654
▁literary	-11.4667
business	-11.4671
▁whisk	-11.4672
▁vibrant	-11.4675
▁puppy	-11.4684
▁magnitude	-11.4688
▁palette	-11.4703
▁revelation	-11.4705
▁nylon	-11.4709
▁strive	-11.4714
▁declare	-11.472
▁eager	-11.4731
▁shuttle	-11.4739
▁activist	-11.4739
▁cardiovascular	-11.4747
▁reproduction	-11.4747
▁ingredient	-11.4749
▁occurring	-11.4749
toxin	-11.4754
▁panoramic	-11.476
▁fragrance	-11.4764
▁ambassador	-11.4768
▁audi	-11.4769
▁fibro	-11.4789
▁mathematics	-11.4789
patient	-11.4795
▁whatsapp	-11.4804
▁peripheral	-11.4819
▁testament	-11.4824
▁burger	-11.4826
▁additive	-11.4828
▁reservoir	-11.4832
▁chapel	-11.4833
▁persistent	-11.484
lapse	-11.4845
▁disclosure	-11.4849
▁toyota	-11.4849
▁rinse	-11.4852
▁compassion	-11.4858
▁invisible	-11.4858
threatening	-11.486
▁gradient	-11.4871
▁compatibility	-11.4883
▁negotiate	-11.4888
▁unnecessary	-11.4918
▁voluntary	-11.4922
▁nozzle	-11.4927
period	-11.4932
agua	-11.4934
▁legislative	-11.4939
▁mercury	-11.4939
soluble	-11.4944
▁stroll	-11.4953
▁pathogen	-11.4957
▁abdominal	-11.497
▁allocation	-11.4979
government	-11.498
▁fascinating	-11.4983
▁stephen	-11.4984
▁unicorn	-11.4991
▁defining	-11.4996
▁harris	-11.5
▁animated	-11.5005
▁oxide	-11.5007
▁huawei	-11.5009
▁assured	-11.5011
▁efficacy	-11.5013
▁competence	-11.5023
▁quantitative	-11.5026
▁jealous	-11.5035
▁therapist	-11.5035
centric	-11.5037
▁safeguard	-11.5041
▁lingerie	-11.5044
▁alibaba	-11.5052
▁biodiversity	-11.5052
▁geometry	-11.5057
▁thorough	-11.5057
▁fossil	-11.5061
▁pediatric	-11.5066
▁terrain	-11.5066
▁absent	-11.5066
scape	-11.5071
wrinkle	-11.5074
▁innocent	-11.5075
▁saudi	-11.5079
▁abundant	-11.5083
filtration	-11.5092
▁clarity	-11.5096
▁comparative	-11.5101
▁patience	-11.5101
▁arizona	-11.5109
▁obesity	-11.5109
▁swift	-11.5119
▁prevalence	-11.5131
▁drove	-11.5149
▁excitement	-11.5153
▁overlap	-11.5161
▁severity	-11.5162
access	-11.5173
▁shutterstock	-11.5193
▁impressed	-11.5193
▁communist	-11.5198
▁wanna	-11.5198
dynamic	-11.5208
▁barbecue	-11.5211
▁grasp	-11.5214
▁reproduce	-11.522
▁sarah	-11.5224
▁brutal	-11.5225
▁loyalty	-11.5226
▁contributing	-11.5233
▁cannabis	-11.5246
▁celebrities	-11.5251
mouth	-11.5255
▁triumph	-11.5255
think	-11.5273
▁uncertain	-11.5284
▁buzz	-11.5289
▁ethernet	-11.5291
▁optimum	-11.5296
▁comparing	-11.5296
▁cardiac	-11.53
▁lesbian	-11.5305
▁arriving	-11.5305
nourish	-11.5305
▁restrain	-11.5307
▁necessity	-11.5309
support	-11.5309
▁hurricane	-11.5313
▁introducing	-11.5313
▁apparel	-11.5318
saturated	-11.5323
▁pyramid	-11.5345
▁tribute	-11.5348
▁catalyst	-11.5349
season	-11.5351
▁ladder	-11.5363
▁thou	-11.5367
▁contour	-11.5368
▁drift	-11.5381
▁solidarity	-11.5385
▁kenya	-11.539
protect	-11.5391
▁amplifier	-11.5395
▁proximity	-11.5395
▁zombie	-11.5395
▁dispense	-11.5395
▁patrol	-11.5412
▁analyzing	-11.5413
▁irrigation	-11.5413
▁cancellation	-11.5413
▁graduation	-11.5422
▁decree	-11.5424
▁argentine	-11.5431
▁comparable	-11.5431
▁promising	-11.5431
▁diminish	-11.5449
▁obstruct	-11.5454
▁explosive	-11.5458
▁elevation	-11.5458
slav	-11.546
▁undoubtedly	-11.5472
▁buddha	-11.5472
▁corridor	-11.5476
▁mosaic	-11.5476
▁shareholders	-11.5476
▁democrat	-11.548
▁venice	-11.5484
ñ	-11.5486
▁columbia	-11.549
▁revised	-11.5491
▁analytical	-11.5499
▁conjunction	-11.5504
▁conviction	-11.5508
▁computing	-11.5513
▁struggling	-11.5522
▁invasion	-11.5522
▁marijuana	-11.5536
▁assurance	-11.5536
▁synonym	-11.5541
▁tariff	-11.5541
▁ambient	-11.5545
▁whisper	-11.5545
▁resemble	-11.5554
▁houston	-11.5554
▁appreciation	-11.5559
▁contamination	-11.5559
▁dubai	-11.5559
▁corrupt	-11.5569
▁boutique	-11.5582
▁tractor	-11.5582
▁collaborative	-11.56
▁remedy	-11.5605
▁testimony	-11.5614
▁sandals	-11.5618
▁asthma	-11.5635
▁violate	-11.5657
century	-11.5663
▁welcoming	-11.5665
▁translator	-11.5679
•	-12.0567
£	-12.085
©	-12.8003
