<unk>	0
<s>	0
</s>	0
<0x00>	0
<0x01>	0
<0x02>	0
<0x03>	0
<0x04>	0
<0x05>	0
<0x06>	0
<0x07>	0
<0x08>	0
<0x09>	0
<0x0A>	0
<0x0B>	0
<0x0C>	0
<0x0D>	0
<0x0E>	0
<0x0F>	0
<0x10>	0
<0x11>	0
<0x12>	0
<0x13>	0
<0x14>	0
<0x15>	0
<0x16>	0
<0x17>	0
<0x18>	0
<0x19>	0
<0x1A>	0
<0x1B>	0
<0x1C>	0
<0x1D>	0
<0x1E>	0
<0x1F>	0
<0x20>	0
<0x21>	0
<0x22>	0
<0x23>	0
<0x24>	0
<0x25>	0
<0x26>	0
<0x27>	0
<0x28>	0
<0x29>	0
<0x2A>	0
<0x2B>	0
<0x2C>	0
<0x2D>	0
<0x2E>	0
<0x2F>	0
<0x30>	0
<0x31>	0
<0x32>	0
<0x33>	0
<0x34>	0
<0x35>	0
<0x36>	0
<0x37>	0
<0x38>	0
<0x39>	0
<0x3A>	0
<0x3B>	0
<0x3C>	0
<0x3D>	0
<0x3E>	0
<0x3F>	0
<0x40>	0
<0x41>	0
<0x42>	0
<0x43>	0
<0x44>	0
<0x45>	0
<0x46>	0
<0x47>	0
<0x48>	0
<0x49>	0
<0x4A>	0
<0x4B>	0
<0x4C>	0
<0x4D>	0
<0x4E>	0
<0x4F>	0
<0x50>	0
<0x51>	0
<0x52>	0
<0x53>	0
<0x54>	0
<0x55>	0
<0x56>	0
<0x57>	0
<0x58>	0
<0x59>	0
<0x5A>	0
<0x5B>	0
<0x5C>	0
<0x5D>	0
<0x5E>	0
<0x5F>	0
<0x60>	0
<0x61>	0
<0x62>	0
<0x63>	0
<0x64>	0
<0x65>	0
<0x66>	0
<0x67>	0
<0x68>	0
<0x69>	0
<0x6A>	0
<0x6B>	0
<0x6C>	0
<0x6D>	0
<0x6E>	0
<0x6F>	0
<0x70>	0
<0x71>	0
<0x72>	0
<0x73>	0
<0x74>	0
<0x75>	0
<0x76>	0
<0x77>	0
<0x78>	0
<0x79>	0
<0x7A>	0
<0x7B>	0
<0x7C>	0
<0x7D>	0
<0x7E>	0
<0x7F>	0
<0x80>	0
<0x81>	0
<0x82>	0
<0x83>	0
<0x84>	0
<0x85>	0
<0x86>	0
<0x87>	0
<0x88>	0
<0x89>	0
<0x8A>	0
<0x8B>	0
<0x8C>	0
<0x8D>	0
<0x8E>	0
<0x8F>	0
<0x90>	0
<0x91>	0
<0x92>	0
<0x93>	0
<0x94>	0
<0x95>	0
<0x96>	0
<0x97>	0
<0x98>	0
<0x99>	0
<0x9A>	0
<0x9B>	0
<0x9C>	0
<0x9D>	0
<0x9E>	0
<0x9F>	0
<0xA0>	0
<0xA1>	0
<0xA2>	0
<0xA3>	0
<0xA4>	0
<0xA5>	0
<0xA6>	0
<0xA7>	0
<0xA8>	0
<0xA9>	0
<0xAA>	0
<0xAB>	0
<0xAC>	0
<0xAD>	0
<0xAE>	0
<0xAF>	0
<0xB0>	0
<0xB1>	0
<0xB2>	0
<0xB3>	0
<0xB4>	0
<0xB5>	0
<0xB6>	0
<0xB7>	0
<0xB8>	0
<0xB9>	0
<0xBA>	0
<0xBB>	0
<0xBC>	0
<0xBD>	0
<0xBE>	0
<0xBF>	0
<0xC0>	0
<0xC1>	0
<0xC2>	0
<0xC3>	0
<0xC4>	0
<0xC5>	0
<0xC6>	0
<0xC7>	0
<0xC8>	0
<0xC9>	0
<0xCA>	0
<0xCB>	0
<0xCC>	0
<0xCD>	0
<0xCE>	0
<0xCF>	0
<0xD0>	0
<0xD1>	0
<0xD2>	0
<0xD3>	0
<0xD4>	0
<0xD5>	0
<0xD6>	0
<0xD7>	0
<0xD8>	0
<0xD9>	0
<0xDA>	0
<0xDB>	0
<0xDC>	0
<0xDD>	0
<0xDE>	0
<0xDF>	0
<0xE0>	0
<0xE1>	0
<0xE2>	0
<0xE3>	0
<0xE4>	0
<0xE5>	0
<0xE6>	0
<0xE7>	0
<0xE8>	0
<0xE9>	0
<0xEA>	0
<0xEB>	0
<0xEC>	0
<0xED>	0
<0xEE>	0
<0xEF>	0
<0xF0>	0
<0xF1>	0
<0xF2>	0
<0xF3>	0
<0xF4>	0
<0xF5>	0
<0xF6>	0
<0xF7>	0
<0xF8>	0
<0xF9>	0
<0xFA>	0
<0xFB>	0
<0xFC>	0
<0xFD>	0
<0xFE>	0
<0xFF>	0
▁de	-3.03208
s	-3.40108
.	-3.446
,	-3.57259
▁	-3.80434
▁la	-3.9047
▁en	-4.13538
▁y	-4.1439
▁a	-4.28646
▁el	-4.2985
▁que	-4.31717
▁los	-4.82206
▁con	-4.90959
▁para	-4.93508
▁un	-4.93647
r	-4.94063
▁se	-4.97556
n	-4.98965
0	-5.00627
▁del	-5.05966
1	-5.08543
▁una	-5.14021
▁es	-5.30251
2	-5.34229
▁las	-5.36683
▁por	-5.42199
▁su	-5.47237
▁no	-5.55482
es	-5.60028
do	-5.60438
:	-5.74145
▁o	-5.75461
▁(	-5.80125
▁al	-5.83963
a	-5.88663
▁más	-5.90192
3	-5.90585
5	-5.93374
▁El	-5.93944
▁La	-5.94722
▁lo	-5.96777
▁como	-6.01825
▁A	-6.01965
da	-6.02077
ción	-6.0407
-	-6.04715
4	-6.0765
o	-6.13147
9	-6.14223
)	-6.1512
e	-6.17378
6	-6.27403
l	-6.28309
8	-6.30835
▁re	-6.39599
7	-6.41218
mente	-6.41324
ta	-6.45297
?	-6.47585
to	-6.50771
▁En	-6.52873
y	-6.55956
t	-6.57188
te	-6.58003
▁sobre	-6.61681
▁¿	-6.64706
▁sus	-6.6508
▁puede	-6.65213
ndo	-6.65735
▁ha	-6.68418
se	-6.69228
mos	-6.71679
dos	-6.71895
▁Los	-6.72709
▁son	-6.73367
la	-6.75644
▁si	-6.76149
▁"	-6.76288
▁está	-6.76712
▁este	-6.77247
lo	-6.77254
ra	-6.77844
▁-	-6.78653
▁in	-6.78907
▁De	-6.81304
▁esta	-6.82919
ciones	-6.83928
le	-6.85618
/	-6.86011
▁e	-6.86293
na	-6.86805
ca	-6.88435
p	-6.88634
i	-6.90292
▁pero	-6.9171
ma	-6.9197
▁le	-6.92101
d	-6.92412
de	-6.92786
▁Se	-6.94086
m	-6.94684
▁me	-6.95133
;	-6.95141
no	-6.95557
▁S	-6.95577
ba	-6.97148
▁ser	-6.98064
u	-6.99235
▁mi	-7.01266
c	-7.02676
▁Si	-7.03281
▁“	-7.03382
▁también	-7.04058
co	-7.04139
▁No	-7.04175
▁E	-7.05182
g	-7.0724
sa	-7.10793
▁tu	-7.11206
▁sin	-7.11794
das	-7.12215
ce	-7.13074
A	-7.17187
▁entre	-7.17387
ga	-7.17391
ron	-7.18405
me	-7.18879
er	-7.18944
▁cuando	-7.1949
á	-7.20042
re	-7.20526
▁tiene	-7.21846
▁todo	-7.22437
▁fue	-7.23049
▁te	-7.23115
▁muy	-7.23304
nte	-7.24605
ro	-7.24635
!	-7.24687
ó	-7.25119
en	-7.25376
).	-7.25698
▁C	-7.26176
"	-7.27012
▁tiempo	-7.27119
▁O	-7.27689
▁forma	-7.30708
rse	-7.30783
rá	-7.31154
▁Re	-7.32335
▁Con	-7.32752
▁dos	-7.3278
pa	-7.33758
▁Es	-7.33762
so	-7.34329
mo	-7.34491
ti	-7.34633
ar	-7.3537
x	-7.35374
S	-7.35408
dor	-7.35794
▁Las	-7.36605
▁todos	-7.37373
go	-7.40126
▁años	-7.40142
b	-7.40915
mi	-7.41043
ci	-7.41425
que	-7.42038
▁pueden	-7.43033
é	-7.43835
▁parte	-7.4605
▁durante	-7.46089
z	-7.46254
▁P	-7.46298
▁vez	-7.47011
▁solo	-7.47216
▁hacer	-7.47243
li	-7.47555
í	-7.48619
▁desde	-7.49115
▁Y	-7.49226
di	-7.50075
vi	-7.50217
▁hasta	-7.51315
D	-7.51407
▁Por	-7.51587
▁Para	-7.51843
▁cada	-7.52161
in	-7.52261
an	-7.53073
▁di	-7.54628
C	-7.55194
ía	-7.55331
je	-7.55531
h	-7.56138
ve	-7.56924
▁gran	-7.57655
▁están	-7.58087
▁ya	-7.58445
▁¡	-7.59086
▁vida	-7.59569
k	-7.59958
▁Al	-7.60632
▁Ma	-7.60776
tu	-7.61576
▁ca	-7.61754
B	-7.6189
cu	-7.61988
▁I	-7.62306
f	-7.62697
les	-7.62874
▁trabajo	-7.62878
va	-7.63519
ne	-7.6477
▁hay	-7.64856
P	-7.66862
▁Ca	-7.67026
▁Su	-7.67154
▁mejor	-7.67179
▁lugar	-7.67271
▁personas	-7.67423
▁ver	-7.69022
▁T	-7.69281
idad	-7.69356
▁F	-7.70085
F	-7.70493
▁era	-7.71107
▁M	-7.71622
▁ex	-7.71733
▁G	-7.71779
▁han	-7.72175
▁bien	-7.7244
▁B	-7.73147
el	-7.73188
al	-7.73417
▁Me	-7.74657
ver	-7.74991
on	-7.75451
▁uno	-7.75697
▁información	-7.76441
▁co	-7.7672
ri	-7.77398
▁pro	-7.77874
▁cuenta	-7.77935
▁debe	-7.78201
ría	-7.78277
ja	-7.7864
▁tanto	-7.79004
▁dijo	-7.79055
▁esto	-7.79507
▁Esta	-7.79591
ble	-7.79847
▁otros	-7.79863
▁agua	-7.80312
▁Un	-7.80374
V	-7.80445
▁día	-7.81884
T	-7.82339
▁después	-7.8269
▁contra	-7.82967
v	-7.83077
bo	-7.83459
G	-7.83713
pe	-7.8418
▁Este	-7.84191
▁mismo	-7.85122
▁sistema	-7.85248
za	-7.85248
▁pa	-7.85821
▁mundo	-7.85987
▁datos	-7.86364
▁D	-7.86772
▁antes	-7.86774
▁Una	-7.87124
▁año	-7.88113
▁mucho	-7.88217
un	-7.88677
▁pre	-7.88724
E	-7.8901
▁qué	-7.89354
be	-7.89421
dores	-7.89684
...	-7.90186
▁cualquier	-7.90784
▁In	-7.91409
tas	-7.9144
▁Sin	-7.91481
▁casa	-7.91987
▁así	-7.92322
ck	-7.92607
▁Mi	-7.92661
▁menos	-7.92683
qui	-7.92883
”	-7.93115
▁Lo	-7.93215
ado	-7.93909
'	-7.94385
▁hace	-7.94624
▁mayor	-7.94804
▁embargo	-7.94826
N	-7.9506
cha	-7.95265
tos	-7.96298
▁Pero	-7.96469
▁tipo	-7.96911
nos	-7.97277
▁manera	-7.9744
▁per	-7.97566
ntes	-7.97782
▁tan	-7.98109
▁Le	-7.98316
▁tener	-7.98646
▁Pa	-7.98861
ter	-7.99119
gu	-7.99325
▁Co	-7.99401
▁donde	-7.99936
▁L	-8.00119
po	-8.00258
▁estos	-8.00314
w	-8.01233
H	-8.01261
▁nuevo	-8.02053
▁estaba	-8.02153
▁p	-8.02295
vo	-8.0231
lla	-8.02911
bi	-8.03089
▁sea	-8.03213
▁Bo	-8.03233
ten	-8.03801
),	-8.03806
▁momento	-8.04438
▁eso	-8.04482
▁todas	-8.0479
▁había	-8.0515
os	-8.05214
▁tienen	-8.05401
%	-8.05763
fa	-8.05774
ng	-8.05851
rio	-8.06006
▁través	-8.0655
▁tra	-8.06744
tó	-8.06967
lu	-8.07024
▁porque	-8.07222
tar	-8.07288
▁estado	-8.07653
tro	-8.07772
▁uso	-8.07925
▁ahora	-8.08466
▁otro	-8.08513
gi	-8.09404
ni	-8.09499
U	-8.09597
▁tres	-8.09763
O	-8.09879
sión	-8.10316
".	-8.10634
si	-8.10864
▁R	-8.11082
▁Te	-8.11139
▁mientras	-8.11769
▁sido	-8.12144
fi	-8.12526
▁ejemplo	-8.12878
▁algo	-8.13359
▁cómo	-8.13374
▁poco	-8.13486
▁Ba	-8.13491
che	-8.13541
jo	-8.13552
ge	-8.13634
▁hacia	-8.14809
▁primera	-8.14926
ria	-8.1515
▁También	-8.15182
R	-8.15297
ven	-8.15364
ido	-8.15449
▁va	-8.15495
▁nuestro	-8.15557
res	-8.16016
ch	-8.16146
miento	-8.16862
▁U	-8.17154
man	-8.17446
▁hecho	-8.17627
▁V	-8.17776
M	-8.1797
▁ma	-8.18154
▁ni	-8.18236
▁bajo	-8.18301
▁Li	-8.18311
▁Esto	-8.18721
sta	-8.18771
▁N	-8.18942
▁H	-8.19728
tra	-8.19793
▁Mo	-8.20255
ya	-8.20322
▁Vi	-8.20459
▁nuestra	-8.21033
▁Cuando	-8.21039
▁siempre	-8.21042
▁niños	-8.2149
▁ra	-8.21502
▁posible	-8.21681
▁alta	-8.21792
zo	-8.21967
L	-8.22049
▁equipo	-8.22537
▁usar	-8.22714
los	-8.22841
ha	-8.23032
com	-8.23038
▁él	-8.2304
▁ve	-8.23457
ban	-8.23553
▁estar	-8.24143
▁importante	-8.24392
▁vi	-8.2514
▁DE	-8.2536
ña	-8.25428
▁Di	-8.25549
▁K	-8.25863
ll	-8.2596
▁nivel	-8.25997
▁calidad	-8.2613
▁caso	-8.26267
▁diseño	-8.26402
án	-8.26742
▁algunos	-8.26765
W	-8.26947
▁he	-8.26977
tiva	-8.27322
▁ciudad	-8.27511
▁línea	-8.277
era	-8.28389
▁productos	-8.2853
▁otras	-8.28597
▁[	-8.28798
as	-8.28801
▁Ha	-8.29636
▁historia	-8.29747
ada	-8.30044
▁#	-8.30172
K	-8.30206
tal	-8.30257
▁aquí	-8.30284
▁otra	-8.30284
▁programa	-8.30386
▁muchos	-8.30621
▁Ra	-8.30641
is	-8.30808
▁servicio	-8.30867
▁ese	-8.31186
▁general	-8.31571
▁Po	-8.31757
”,	-8.31799
]	-8.31904
▁ayuda	-8.32613
▁podría	-8.32953
",	-8.33099
fe	-8.33228
pre	-8.33301
ur	-8.33444
▁diferentes	-8.33535
▁Ro	-8.3391
ú	-8.34469
▁proceso	-8.34609
▁seguridad	-8.34709
▁color	-8.34712
Y	-8.34826
us	-8.34967
▁días	-8.3505
ke	-8.35325
las	-8.35342
rán	-8.35433
▁primer	-8.3555
▁desarrollo	-8.35766
pi	-8.36434
nes	-8.36502
▁experiencia	-8.37043
▁control	-8.37137
▁muestra	-8.37596
▁cosas	-8.37765
cho	-8.37863
▁$	-8.38724
▁dentro	-8.39016
▁base	-8.39018
▁largo	-8.39286
▁Sa	-8.39831
▁juego	-8.39956
I	-8.4033
▁número	-8.40413
▁pe	-8.40602
ir	-8.4062
▁Además	-8.41077
▁luego	-8.4119
▁ro	-8.41339
▁veces	-8.41379
▁nos	-8.41403
▁da	-8.41894
▁grupo	-8.42767
Qué	-8.42818
encia	-8.43131
▁servicios	-8.4353
ación	-8.43567
▁valor	-8.43569
ing	-8.43584
ida	-8.43732
con	-8.43856
bra	-8.44018
th	-8.44297
▁personal	-8.44461
du	-8.44471
siones	-8.44651
▁persona	-8.44715
▁hombre	-8.44819
▁punto	-8.44866
▁W	-8.44914
▁decir	-8.45156
▁medio	-8.45161
▁nueva	-8.45436
nd	-8.45503
▁To	-8.45826
▁producto	-8.46027
▁blanco	-8.46268
▁ellos	-8.46369
▁nombre	-8.46565
▁final	-8.46646
▁dis	-8.46738
▁estas	-8.46905
▁fondo	-8.46953
▁Dios	-8.47055
ru	-8.47734
hi	-8.47835
tura	-8.47843
▁bo	-8.4793
▁sol	-8.49057
▁nuestros	-8.49074
▁mar	-8.49088
▁ven	-8.49295
▁ella	-8.493
▁cuerpo	-8.49544
▁mujeres	-8.49638
▁/	-8.49806
▁–	-8.49846
nda	-8.50176
▁libre	-8.50362
▁ba	-8.50678
men	-8.50728
▁mayoría	-8.5099
▁ti	-8.51243
ho	-8.51301
▁incluso	-8.51451
▁Como	-8.5151
▁dice	-8.51523
▁sitio	-8.51624
▁empresa	-8.51939
il	-8.51944
▁cu	-8.52043
llo	-8.52093
▁problemas	-8.52348
ero	-8.52361
▁fuera	-8.52459
▁poder	-8.52546
▁web	-8.52548
▁aire	-8.52593
ste	-8.52677
▁espacio	-8.52846
▁salud	-8.53116
▁centro	-8.5317
▁Ho	-8.53295
▁necesita	-8.53305
tor	-8.53454
ró	-8.53698
tivo	-8.53921
cer	-8.53927
son	-8.54003
▁sub	-8.54483
ista	-8.54489
▁gente	-8.54635
▁so	-8.54809
▁par	-8.54833
▁li	-8.55014
▁obtener	-8.55263
▁sal	-8.55387
X	-8.5545
ka	-8.55838
iendo	-8.5591
▁sí	-8.56059
▁pantalla	-8.5609
▁i	-8.56118
▁Pro	-8.56383
▁'	-8.56404
xi	-8.56679
▁modo	-8.56685
fo	-8.56718
gar	-8.56814
▁Car	-8.56824
▁problema	-8.56862
▁papel	-8.56863
▁mercado	-8.56961
▁según	-8.57268
▁encontrar	-8.57404
▁noche	-8.57442
▁toda	-8.57448
ismo	-8.57609
▁mujer	-8.57726
▁Na	-8.57783
or	-8.57889
ton	-8.58082
▁grandes	-8.58132
▁ofrece	-8.58364
▁muchas	-8.5841
▁Da	-8.58749
▁marca	-8.58791
▁mu	-8.589
▁fueron	-8.58993
▁mal	-8.59129
▁cerca	-8.59268
▁misma	-8.59376
▁principal	-8.59402
▁mano	-8.59421
▁pi	-8.59676
▁Ta	-8.59697
▁algunas	-8.59922
▁carga	-8.59946
st	-8.59998
rro	-8.6
▁estilo	-8.60415
▁sa	-8.60525
▁Do	-8.6107
▁haber	-8.6113
gue	-8.6131
▁deben	-8.61327
”.	-8.61482
▁archivo	-8.62101
▁familia	-8.62328
▁acuerdo	-8.62395
▁Pe	-8.62501
▁nada	-8.6259
ño	-8.62626
J	-8.62684
▁esa	-8.62792
per	-8.63021
ber	-8.63098
▁casi	-8.63114
▁>	-8.63388
▁cambio	-8.63514
▁toma	-8.63631
▁imagen	-8.63781
j	-8.63784
▁sólo	-8.63822
▁lista	-8.63893
ry	-8.64495
▁He	-8.64514
▁auto	-8.64861
▁semana	-8.65061
▁tus	-8.65359
▁X	-8.66073
▁car	-8.66118
▁estudio	-8.66258
▁Hay	-8.66439
▁nunca	-8.66464
…	-8.66516
▁resultados	-8.66656
▁realmente	-8.6714
nas	-8.67179
▁país	-8.6731
▁proyecto	-8.674
▁aplicación	-8.6748
tri	-8.67535
▁siguiente	-8.67704
dora	-8.67795
▁será	-8.67802
▁usted	-8.68147
▁Estados	-8.68164
▁permite	-8.68229
▁Ni	-8.68362
▁tratamiento	-8.684
▁millones	-8.68615
▁buena	-8.6881
▁J	-8.68848
▁total	-8.68941
▁les	-8.68995
ncia	-8.69026
bles	-8.69313
ización	-8.69349
remos	-8.69493
▁pu	-8.69498
▁Ga	-8.69572
▁varios	-8.69711
▁tamaño	-8.69743
▁Tra	-8.69926
▁luz	-8.69944
▁inter	-8.69945
▁fin	-8.70257
▁aún	-8.70664
car	-8.70681
▁—	-8.70923
▁tal	-8.71005
▁Cu	-8.71022
▁So	-8.71053
dio	-8.71095
▁necesario	-8.71108
sis	-8.71223
▁fácil	-8.71283
▁Puede	-8.71523
▁clientes	-8.71683
▁tenía	-8.71851
gra	-8.71922
mu	-8.71962
▁fi	-8.7198
▁fe	-8.72133
▁acceso	-8.72246
▁realizar	-8.72268
▁cuatro	-8.73076
gre	-8.73101
▁cual	-8.73211
▁serie	-8.73346
▁parece	-8.73448
▁m	-8.7362
▁tecnología	-8.73686
ré	-8.73802
▁cantidad	-8.7382
cion	-8.74006
ger	-8.74127
▁energía	-8.74212
bilidad	-8.74222
▁Mu	-8.74388
▁alto	-8.74633
▁Ex	-8.74714
sh	-8.74989
▁Ka	-8.75024
▁Mar	-8.75214
▁grande	-8.75339
cos	-8.75505
tica	-8.75508
▁horas	-8.7569
▁encuentra	-8.76122
▁ayudar	-8.76142
▁proporciona	-8.76374
▁países	-8.76406
wa	-8.76483
▁trata	-8.76945
tina	-8.77245
por	-8.77259
▁significa	-8.77296
cción	-8.77341
▁•	-8.77391
cia	-8.774
▁nosotros	-8.77477
▁desea	-8.7749
▁Bu	-8.77771
▁precio	-8.77785
▁mejores	-8.78052
▁minutos	-8.78297
et	-8.78335
▁área	-8.78353
▁capacidad	-8.78447
pro	-8.78499
▁compra	-8.78627
ente	-8.7874
▁atención	-8.78901
▁crear	-8.78997
ad	-8.79138
▁red	-8.79573
▁negro	-8.79582
nt	-8.7969
▁medida	-8.79946
▁mediante	-8.79993
có	-8.8007
▁alrededor	-8.80216
▁bu	-8.80415
▁esté	-8.80551
▁causa	-8.80634
▁Ja	-8.80797
▁relación	-8.80894
▁yo	-8.81133
▁Lu	-8.81136
▁ta	-8.81322
der	-8.81406
▁baja	-8.81543
ol	-8.81594
▁po	-8.81627
▁prueba	-8.8172
▁ir	-8.819
ros	-8.8212
he	-8.82149
▁pasado	-8.82311
▁Ver	-8.82378
▁campo	-8.82401
▁modelo	-8.82407
▁Fi	-8.82495
ran	-8.82556
No	-8.82652
▁superior	-8.82862
▁lleva	-8.82875
▁media	-8.82949
▁u	-8.83245
▁estudiantes	-8.8329
▁comida	-8.83312
▁San	-8.83413
▁sino	-8.83427
▁investigación	-8.83524
▁Pi	-8.8364
▁indica	-8.8365
ki	-8.83651
▁g	-8.83721
▁Unidos	-8.83811
▁bi	-8.8404
▁utiliza	-8.84158
dera	-8.84218
sion	-8.84225
▁gusta	-8.84243
▁utilizar	-8.84304
▁plan	-8.84505
▁entrada	-8.84597
▁Ju	-8.84816
▁Fa	-8.85064
▁teléfono	-8.85218
▁vista	-8.8524
▁Va	-8.8532
▁Pre	-8.8534
La	-8.85495
mina	-8.85558
▁función	-8.85596
▁clic	-8.85686
▁mis	-8.85707
▁considera	-8.85904
▁estructura	-8.86035
ic	-8.8606
▁piel	-8.86123
gan	-8.86129
▁resultado	-8.86135
yo	-8.86331
cal	-8.86348
▁anti	-8.86411
_	-8.86441
▁Después	-8.86472
▁Jo	-8.86611
▁completo	-8.86635
▁presenta	-8.86646
▁unos	-8.86701
tin	-8.86818
▁condiciones	-8.86829
▁Ri	-8.87181
▁mí	-8.87373
▁seguro	-8.87495
nal	-8.87644
it	-8.87647
▁hoy	-8.8766
▁dinero	-8.88026
▁objetivo	-8.88228
izado	-8.88342
ul	-8.88421
▁hombres	-8.88514
▁entonces	-8.8869
▁pregunta	-8.88883
▁An	-8.88942
▁empresas	-8.89093
▁igual	-8.89105
▁dar	-8.89137
ando	-8.89142
▁emp	-8.8923
▁usa	-8.89362
sas	-8.89597
▁camino	-8.89634
▁espera	-8.89634
▁aunque	-8.89693
▁Ci	-8.89704
▁funciona	-8.89801
▁cor	-8.89829
Es	-8.89923
▁contenido	-8.90354
▁real	-8.90833
cio	-8.90999
▁The	-8.91086
dad	-8.91127
bu	-8.91131
cas	-8.91153
ER	-8.91245
▁imágenes	-8.91263
▁tierra	-8.91288
tado	-8.91314
▁gobierno	-8.91428
gui	-8.91471
▁tomar	-8.91534
▁arte	-8.91592
▁interior	-8.91631
ed	-8.91737
tion	-8.91812
▁producción	-8.91833
▁meses	-8.91875
ces	-8.91924
▁hora	-8.91974
mp	-8.92095
▁respuesta	-8.92176
▁página	-8.92181
▁pasa	-8.92297
▁cabeza	-8.92417
▁«	-8.9247
▁riesgo	-8.92787
cre	-8.93067
rte	-8.93092
mb	-8.9333
▁ad	-8.93336
wi	-8.93369
▁público	-8.9342
ue	-8.93502
▁amor	-8.93537
▁última	-8.93568
▁fa	-8.93814
via	-8.9388
▁buen	-8.94022
gen	-8.94064
dia	-8.94189
▁incluye	-8.94195
pu	-8.94716
▁com	-8.94731
▁haya	-8.94922
▁cocina	-8.94931
ón	-8.94941
ita	-8.94976
▁mantener	-8.95058
▁junto	-8.95096
▁bastante	-8.95186
ras	-8.95285
▁pacientes	-8.95308
den	-8.957
fu	-8.95778
▁quien	-8.95792
▁único	-8.95815
▁azul	-8.95863
▁segundo	-8.95897
ina	-8.95911
▁especial	-8.95924
cen	-8.96005
▁na	-8.96272
▁estoy	-8.96273
▁diferencia	-8.96402
▁paso	-8.96477
▁Foto	-8.96501
▁actividades	-8.96575
bri	-8.96597
▁local	-8.96601
▁hi	-8.96738
til	-8.96808
▁debido	-8.9694
▁Com	-8.97084
▁Hi	-8.97153
ifica	-8.97198
▁amplia	-8.9723
▁miembros	-8.9746
AR	-8.97563
▁Be	-8.97573
▁completa	-8.97611
▁rápido	-8.97731
▁movimiento	-8.9774
▁demasiado	-8.97767
▁electrónico	-8.97783
▁ce	-8.97881
▁pueda	-8.9791
▁ante	-8.97935
emos	-8.98011
▁derecho	-8.98023
▁gra	-8.98084
▁nuevos	-8.98253
▁disponible	-8.98347
▁frente	-8.9866
▁mo	-8.98753
OS	-8.98824
▁social	-8.99108
▁usuario	-8.99215
▁varias	-8.99225
mento	-8.99259
▁trans	-8.99322
▁acerca	-8.99558
▁puntos	-8.99643
▁hizo	-8.99655
▁alguna	-8.99668
ine	-8.99706
▁zona	-8.99738
▁be	-8.99795
▁éxito	-8.9984
▁escuela	-8.99898
ia	-9.00233
▁Más	-9.00253
ctor	-9.00319
▁orden	-9.00385
▁clave	-9.00473
ex	-9.00535
▁casos	-9.00545
▁Hu	-9.00669
nia	-9.00681
tre	-9.00724
>	-9.0074
▁cinco	-9.00743
ji	-9.00744
iza	-9.00822
▁contacto	-9.00884
chi	-9.00974
(	-9.01018
▁llama	-9.01133
▁Ti	-9.01412
menta	-9.01772
▁Man	-9.01833
▁viaje	-9.01884
mas	-9.01978
▁Cha	-9.02033
▁principales	-9.0213
▁observa	-9.02139
▁presente	-9.02173
▁debería	-9.02511
▁puedes	-9.02511
▁pequeño	-9.02678
ut	-9.02855
▁temperatura	-9.02873
▁ob	-9.02917
ales	-9.03092
▁queda	-9.03131
▁Ahora	-9.03145
▁efecto	-9.03522
▁c	-9.03547
dica	-9.03898
▁ho	-9.03908
sos	-9.04361
nce	-9.04414
▁madera	-9.04673
tes	-9.04705
▁Que	-9.04759
▁natural	-9.04785
▁futuro	-9.04864
▁cambiar	-9.04946
▁realidad	-9.04949
▁siguientes	-9.05194
▁ri	-9.05232
▁material	-9.05291
▁velocidad	-9.05335
rra	-9.05468
Cómo	-9.05602
▁análisis	-9.05678
▁cara	-9.05684
▁edad	-9.05856
bla	-9.05954
istas	-9.06096
▁conjunto	-9.06228
ano	-9.06335
am	-9.06493
▁crea	-9.06509
▁video	-9.0653
▁difícil	-9.06616
▁carrera	-9.06634
▁idea	-9.06696
▁Wi	-9.06736
▁Ne	-9.06786
▁foto	-9.0681
El	-9.06826
ados	-9.06885
▁fuerte	-9.07225
▁cliente	-9.07293
▁artículo	-9.07308
cional	-9.07366
▁to	-9.07392
io	-9.07404
▁simplemente	-9.07422
▁tri	-9.07531
can	-9.07549
▁sabe	-9.07555
▁película	-9.07611
▁activa	-9.07749
▁sentido	-9.07789
▁disponibles	-9.07841
▁informa	-9.07921
▁mejora	-9.08067
▁Estos	-9.0807
▁Tu	-9.08085
enta	-9.08136
▁crecimiento	-9.08161
▁clase	-9.08315
▁hotel	-9.0832
AS	-9.08475
▁política	-9.08584
ff	-9.0862
▁todavía	-9.08629
bor	-9.0866
▁ciento	-9.08705
▁Per	-9.08751
lia	-9.08751
ana	-9.08774
rlo	-9.08888
▁dirección	-9.09044
ster	-9.09069
▁menudo	-9.09086
▁alguien	-9.09123
su	-9.09216
▁dispositivo	-9.09227
▁&	-9.09271
▁conocimiento	-9.09277
▁Ar	-9.09305
▁saber	-9.09342
▁Nueva	-9.09438
▁hu	-9.09442
▁niño	-9.09577
▁gas	-9.09723
▁baño	-9.09797
▁hogar	-9.09862
▁industria	-9.09902
▁dolor	-9.09987
▁realiza	-9.09998
▁ne	-9.10215
▁texto	-9.10324
▁último	-9.10334
ig	-9.10376
fer	-9.10694
▁correo	-9.10734
nza	-9.10868
▁ojos	-9.10898
▁siendo	-9.10935
▁d	-9.10979
▁mejorar	-9.11074
▁man	-9.11086
▁partir	-9.11114
▁acción	-9.11182
▁corazón	-9.11205
mer	-9.11255
▁Todos	-9.11321
▁fo	-9.11379
▁lado	-9.11421
▁excelente	-9.11503
▁nuevas	-9.11632
cto	-9.11653
ura	-9.11708
▁busca	-9.11816
port	-9.1183
▁palabras	-9.12047
▁multi	-9.1212
▁tema	-9.12278
puesta	-9.12281
▁única	-9.123
▁simple	-9.12312
▁stock	-9.12317
▁amigos	-9.1236
▁sur	-9.12363
▁sistemas	-9.12381
▁Pu	-9.12386
▁cambios	-9.12406
▁llegar	-9.12426
▁música	-9.12533
▁for	-9.12574
▁peso	-9.12584
▁opción	-9.12713
▁ningún	-9.12772
rre	-9.1287
pen	-9.13162
▁representa	-9.13169
▁actual	-9.13217
at	-9.13328
▁Cor	-9.13346
▁especialmente	-9.13383
lar	-9.13462
▁verde	-9.13474
▁cuidado	-9.13522
▁incluyen	-9.13555
▁haga	-9.13569
▁gen	-9.13594
tación	-9.13642
fec	-9.13756
▁muerte	-9.13827
▁eran	-9.13935
▁libro	-9.13983
ju	-9.14057
cciones	-9.1406
ye	-9.14481
▁cámara	-9.14513
cur	-9.14516
mar	-9.1457
▁evitar	-9.14642
▁puedo	-9.14779
▁niveles	-9.14939
rios	-9.14956
▁ru	-9.15035
▁recursos	-9.15058
▁cable	-9.15071
tan	-9.15088
▁fuerza	-9.15124
fre	-9.15166
▁Así	-9.15178
able	-9.15286
ec	-9.15362
»	-9.15378
▁podemos	-9.15414
▁mezcla	-9.15688
cía	-9.15733
▁can	-9.15874
▁hijo	-9.15893
▁llevar	-9.15986
ly	-9.16052
▁trabajar	-9.16239
tera	-9.16499
▁of	-9.16517
▁continuación	-9.16656
▁cama	-9.16736
▁Go	-9.16769
▁tarde	-9.16867
AL	-9.16988
▁comunidad	-9.17013
ple	-9.17142
land	-9.17216
ite	-9.17273
mbre	-9.17313
ieron	-9.17354
▁ambiente	-9.17427
▁Ac	-9.17469
ica	-9.17599
um	-9.1761
ner	-9.17648
▁madre	-9.17778
▁importa	-9.17825
▁favor	-9.17882
▁apoyo	-9.17995
▁superficie	-9.1805
▁visita	-9.18107
iva	-9.18152
lle	-9.18351
▁fecha	-9.18425
▁grupos	-9.18755
▁usuarios	-9.18767
▁allí	-9.18789
mba	-9.18799
▁período	-9.18841
▁suficiente	-9.18841
▁gana	-9.18847
mon	-9.18935
▁ci	-9.19016
▁motor	-9.19031
▁colores	-9.19076
▁aplicaciones	-9.19112
nder	-9.19198
▁san	-9.19229
▁Je	-9.19252
▁temporada	-9.19394
▁estaban	-9.19412
▁haciendo	-9.19434
▁tenga	-9.19511
▁volver	-9.19535
▁imp	-9.19539
▁efectos	-9.1978
▁nuestras	-9.19896
▁común	-9.19927
▁etc	-9.20164
torio	-9.20172
Por	-9.20252
id	-9.20329
tivos	-9.20398
▁+	-9.20431
▁*	-9.20477
▁derechos	-9.20527
▁Du	-9.20542
▁elementos	-9.20612
gó	-9.20621
min	-9.20679
▁diferente	-9.20697
em	-9.20745
▁cre	-9.20753
▁pequeña	-9.2083
▁anterior	-9.20949
▁máquina	-9.21031
▁corta	-9.21042
▁opciones	-9.21071
amiento	-9.21075
▁joven	-9.21136
▁actividad	-9.21212
▁además	-9.21256
▁presión	-9.21291
▁Ke	-9.21313
▁Ru	-9.2132
▁particular	-9.2133
▁respecto	-9.21425
▁Del	-9.21441
▁original	-9.21494
▁doble	-9.21513
stru	-9.21536
▁propia	-9.21566
lí	-9.21577
▁oportunidad	-9.21611
van	-9.21673
▁lucha	-9.21742
▁%	-9.21748
té	-9.21767
▁protección	-9.21793
▁mas	-9.21918
▁pueblo	-9.21973
lan	-9.22101
ér	-9.22133
▁solución	-9.2219
▁partes	-9.22357
pla	-9.22546
ció	-9.22619
dra	-9.22666
rd	-9.22752
▁pasar	-9.22893
▁f	-9.22922
▁propio	-9.23204
▁ju	-9.23205
▁situación	-9.2331
ían	-9.23394
bre	-9.23509
▁versión	-9.23531
▁salida	-9.23531
▁cal	-9.23624
gado	-9.2366
▁dio	-9.2374
▁algún	-9.23755
eo	-9.23767
▁Entonces	-9.23807
▁Ya	-9.23811
▁Cada	-9.23835
▁suelo	-9.23879
▁nacional	-9.23886
▁precios	-9.23956
ador	-9.23979
▁playa	-9.24001
▁estudios	-9.24026
▁bar	-9.24094
sti	-9.24216
▁falta	-9.24231
▁pie	-9.24281
dió	-9.24305
porte	-9.24321
▁construcción	-9.24389
im	-9.24398
▁tipos	-9.24591
▁x	-9.24629
▁rendimiento	-9.2464
▁puerta	-9.24648
▁aumenta	-9.24663
par	-9.2473
tero	-9.24837
▁entrega	-9.24867
▁tenemos	-9.24872
▁b	-9.24959
▁primero	-9.2519
▁compañía	-9.25195
pp	-9.25208
tt	-9.25212
RA	-9.25234
▁ninguna	-9.25307
adas	-9.25348
▁necesidades	-9.25355
▁posición	-9.25461
ko	-9.25519
ie	-9.25526
▁sería	-9.25529
▁tras	-9.25539
ario	-9.25542
▁frecuencia	-9.25545
ones	-9.25785
▁resulta	-9.2581
▁genera	-9.25815
ual	-9.2583
gas	-9.25832
▁ropa	-9.25896
ld	-9.26014
▁curso	-9.26044
tió	-9.26275
▁dejar	-9.26422
▁negocio	-9.26612
▁fuente	-9.2662
tivas	-9.2666
ac	-9.26682
▁caja	-9.26692
tá	-9.26759
▁Fue	-9.2681
▁extra	-9.26842
▁propiedad	-9.26921
▁código	-9.26943
▁sociales	-9.27183
▁unidad	-9.27233
Z	-9.27244
▁aplica	-9.27299
tada	-9.27354
▁variedad	-9.27368
▁Bar	-9.27369
▁naturaleza	-9.27391
▁coche	-9.27529
▁gestión	-9.27539
▁sala	-9.2761
▁combina	-9.27887
▁aceite	-9.27993
▁Cla	-9.28008
▁completamente	-9.28066
▁cree	-9.28116
▁suave	-9.28133
pon	-9.28146
▁fotos	-9.28201
▁Sal	-9.28209
nu	-9.28225
rea	-9.28395
▁|	-9.28396
▁mensaje	-9.28499
▁cierto	-9.28508
cido	-9.28523
és	-9.28525
val	-9.28585
día	-9.286
rme	-9.28605
▁habla	-9.28607
 	-9.28651
ty	-9.28786
▁habitación	-9.28942
▁sigue	-9.28947
duc	-9.28953
lin	-9.29013
▁Está	-9.29065
▁seguir	-9.29108
▁plazo	-9.29143
▁pago	-9.2916
▁mostrar	-9.29167
▁normal	-9.29305
▁For	-9.29308
▁mesa	-9.2932
▁distancia	-9.29367
tón	-9.29428
▁Aunque	-9.29441
mor	-9.29631
▁oficina	-9.29631
ide	-9.29648
▁corte	-9.29656
cimiento	-9.29664
▁rojo	-9.29776
cta	-9.29886
▁Luego	-9.29887
▁estamos	-9.30013
▁col	-9.30086
▁qui	-9.30091
nde	-9.302
▁directamente	-9.30213
TA	-9.3024
▁enfoque	-9.303
lá	-9.30361
▁áreas	-9.3038
rí	-9.30414
▁juegos	-9.30549
▁Fe	-9.30557
▁valores	-9.30573
▁bebé	-9.30596
▁demás	-9.30611
▁tengo	-9.30632
▁Gran	-9.30643
▁padre	-9.30844
▁encanta	-9.309
▁importantes	-9.30907
▁enfermedad	-9.30937
hu	-9.30952
▁Todo	-9.31132
▁reserva	-9.31136
tí	-9.31283
▁configuración	-9.31301
▁planta	-9.31313
▁gracias	-9.3134
pare	-9.31368
stra	-9.31507
▁du	-9.3169
toria	-9.31747
▁central	-9.31825
▁educación	-9.3183
▁calle	-9.31897
▁software	-9.32078
▁tasa	-9.32092
▁características	-9.3232
bia	-9.32398
▁bueno	-9.32519
IS	-9.32557
▁sociedad	-9.32595
▁hijos	-9.32624
▁mm	-9.3268
gri	-9.32751
▁Dis	-9.32758
▁reducir	-9.3278
▁podrá	-9.32954
▁internacional	-9.33061
▁Desde	-9.33101
▁reco	-9.33272
▁EE	-9.33279
AN	-9.3346
▁programas	-9.33548
una	-9.33567
▁concepto	-9.33591
▁necesidad	-9.3363
▁podía	-9.3371
▁Durante	-9.33926
▁profesional	-9.33952
▁alimentos	-9.33995
sor	-9.34002
▁segunda	-9.34009
▁comercial	-9.34038
▁hemos	-9.34089
▁manos	-9.34207
▁comprar	-9.34367
ivo	-9.34373
eza	-9.34452
▁materiales	-9.34495
ez	-9.34498
▁padres	-9.34522
clu	-9.34559
mática	-9.34666
▁ventana	-9.34689
▁ambos	-9.35031
▁mucha	-9.3506
dó	-9.35094
▁diseñado	-9.35111
▁referencia	-9.35251
ante	-9.35328
▁potencial	-9.35432
▁ocupa	-9.35434
▁hablar	-9.35437
▁larga	-9.35514
▁independiente	-9.35539
▁China	-9.35553
▁botón	-9.35566
idades	-9.3558
▁venta	-9.35702
▁exterior	-9.3581
▁Wa	-9.35859
▁adapta	-9.35977
op	-9.36056
▁Son	-9.36094
▁puesto	-9.36216
▁claro	-9.36268
cua	-9.36341
▁método	-9.36353
▁requiere	-9.36407
▁ley	-9.36489
▁organización	-9.36502
▁siglo	-9.36521
mpa	-9.36713
▁médico	-9.36717
stro	-9.36741
▁llega	-9.36796
mbi	-9.36862
rt	-9.36893
SA	-9.36911
▁interés	-9.36949
▁vol	-9.37022
▁hacerlo	-9.37179
▁=	-9.37186
▁pública	-9.37218
gua	-9.37273
ight	-9.37347
TO	-9.37373
▁acciones	-9.37413
▁poner	-9.37575
sco	-9.37644
▁St	-9.37759
▁comp	-9.37858
▁quiere	-9.38079
pri	-9.381
▁pérdida	-9.38168
▁capa	-9.38202
▁hacen	-9.38211
▁demanda	-9.38224
▁funciones	-9.38289
▁proyectos	-9.38376
OR	-9.38455
▁herramientas	-9.38468
▁v	-9.38535
para	-9.38608
NA	-9.38611
▁cabo	-9.38667
▁Tiene	-9.38669
gos	-9.38797
rina	-9.38841
aba	-9.38938
▁experimenta	-9.39013
▁razón	-9.39054
▁deja	-9.3906
▁aumento	-9.39073
▁inferior	-9.39082
▁Cal	-9.39125
▁acepta	-9.3918
▁entorno	-9.39207
▁figura	-9.39233
▁verano	-9.39288
▁búsqueda	-9.39516
tribu	-9.3953
▁mañana	-9.39558
▁pesar	-9.39615
▁conexión	-9.39673
▁visto	-9.39676
▁impacto	-9.39718
dy	-9.39733
▁pequeños	-9.39827
jó	-9.39896
ren	-9.39902
De	-9.39975
▁[...]	-9.40184
▁super	-9.40197
▁escala	-9.40214
▁células	-9.4029
▁cha	-9.4037
▁informe	-9.40415
▁últimos	-9.40545
▁transporte	-9.40582
liza	-9.40641
▁increíble	-9.40651
▁paquete	-9.40684
▁gratis	-9.40811
▁Ella	-9.41154
▁Ve	-9.41207
by	-9.41229
▁Gi	-9.41278
▁moda	-9.41325
▁mundial	-9.41438
▁archivos	-9.41541
tico	-9.41662
▁lugares	-9.41794
▁dicho	-9.41866
▁soporte	-9.4187
▁jóvenes	-9.41887
▁afecta	-9.41888
dida	-9.42057
▁seis	-9.42138
shi	-9.42359
▁práctica	-9.42415
▁modifica	-9.42435
▁humanos	-9.42439
ley	-9.42443
pó	-9.42543
▁fiesta	-9.42611
▁animales	-9.42617
Re	-9.42673
▁duda	-9.42693
▁verdad	-9.42709
▁lu	-9.42711
://	-9.42762
▁global	-9.42793
▁tarjeta	-9.42832
▁cuanto	-9.43031
▁opera	-9.43083
▁capital	-9.43083
▁disco	-9.43105
nio	-9.43109
▁banda	-9.43117
▁Z	-9.43275
▁dura	-9.43457
▁pla	-9.43481
▁beneficios	-9.4355
▁evento	-9.43574
▁Nacional	-9.4367
vis	-9.43721
▁principio	-9.43746
▁medios	-9.43923
ON	-9.43939
▁aproximadamente	-9.43991
jas	-9.44005
▁ejercicio	-9.44011
uel	-9.44055
▁cargo	-9.44084
▁locales	-9.44201
▁estándar	-9.4422
ud	-9.44222
▁h	-9.44225
▁Internet	-9.44286
cle	-9.44296
▁regalo	-9.44327
ética	-9.44378
TE	-9.44577
RE	-9.44642
CE	-9.44724
uda	-9.44733
▁conocido	-9.44757
om	-9.44771
▁oferta	-9.44787
lación	-9.44854
▁formas	-9.44892
ES	-9.449
▁tienda	-9.44936
▁partido	-9.44965
▁pared	-9.45082
Ma	-9.45243
cla	-9.45261
=	-9.45271
IN	-9.45365
▁Europa	-9.45366
▁rápida	-9.45572
▁Nuestro	-9.45589
▁inicial	-9.45592
▁cosa	-9.45616
▁obliga	-9.45639
▁Yo	-9.45648
TI	-9.45724
▁cambia	-9.45769
+	-9.45785
▁explica	-9.45805
stre	-9.45837
Q	-9.45875
mbra	-9.45878
ándose	-9.45885
forma	-9.46021
tener	-9.46053
▁fra	-9.46121
▁sector	-9.46126
cida	-9.46196
▁medidas	-9.46202
▁habitaciones	-9.46214
▁guerra	-9.46358
▁Des	-9.46498
▁detalles	-9.4654
▁existe	-9.46571
▁menor	-9.46643
▁Ki	-9.46697
rica	-9.46721
▁comunicación	-9.46828
▁pan	-9.46874
eros	-9.46945
tir	-9.46965
Se	-9.47011
▁región	-9.47033
ear	-9.4727
osa	-9.47281
▁LA	-9.47332
▁enviar	-9.47366
▁resto	-9.47428
▁celebra	-9.47429
▁Or	-9.4747
▁Universidad	-9.47667
mbo	-9.4767
▁ajuste	-9.47676
SO	-9.47681
▁sean	-9.4776
tiendo	-9.47787
oso	-9.47815
▁enfrenta	-9.47842
rico	-9.47884
▁acero	-9.47924
▁adecuada	-9.48011
▁Eso	-9.48022
▁lograr	-9.48079
▁arriba	-9.48142
▁Vector	-9.48144
▁pruebas	-9.48258
▁rápidamente	-9.48309
ología	-9.48313
we	-9.48314
▁preguntas	-9.48381
▁Bi	-9.48398
pas	-9.48405
▁sección	-9.48425
▁batería	-9.48483
▁tuvo	-9.48717
rri	-9.48763
cul	-9.48804
▁equipos	-9.48825
▁negocios	-9.48908
ft	-9.48921
▁palabra	-9.48925
▁adicional	-9.48946
▁pies	-9.48981
▁presidente	-9.4908
▁Él	-9.4909
▁sonido	-9.49139
zar	-9.49411
▁corto	-9.4951
Á	-9.49514
▁director	-9.49609
rias	-9.49672
▁dia	-9.49721
▁eventos	-9.49748
▁encuentran	-9.49769
▁<	-9.50013
▁EN	-9.50138
▁sangre	-9.50142
▁...	-9.50247
▁obra	-9.50266
▁cer	-9.50276
LO	-9.50285
▁tienes	-9.50324
▁supuesto	-9.50329
▁trabaja	-9.50508
▁adecuado	-9.50513
DA	-9.50568
▁servidor	-9.50665
▁esos	-9.5071
▁consulta	-9.50735
▁población	-9.50738
▁inteligente	-9.50749
▁Can	-9.5075
▁dispositivos	-9.50754
▁vestido	-9.50782
cept	-9.50831
tch	-9.50834
des	-9.50879
nó	-9.5099
▁marco	-9.50995
▁plataforma	-9.51003
LE	-9.51049
lio	-9.51307
▁sé	-9.51323
izar	-9.51438
illo	-9.51478
▁recibir	-9.51485
▁utilizando	-9.51551
▁flujo	-9.51582
▁instalación	-9.51621
nea	-9.51729
▁computadora	-9.51806
▁cultura	-9.51814
▁creo	-9.51893
▁sentir	-9.519
▁aparece	-9.5193
ería	-9.51933
▁voz	-9.51994
EC	-9.5204
▁usando	-9.52211
▁fu	-9.5223
▁York	-9.52238
▁nu	-9.52276
▁década	-9.52328
▁redes	-9.52465
▁micro	-9.52485
▁contiene	-9.52559
▁fácilmente	-9.5257
▁Estado	-9.52591
▁John	-9.52596
▁cabello	-9.52619
▁rosa	-9.52673
▁comerciales	-9.52695
▁máximo	-9.52848
mpi	-9.52976
eta	-9.53028
MA	-9.53249
ula	-9.53269
▁brillante	-9.5328
▁costo	-9.53431
au	-9.53433
▁Mientras	-9.53437
▁res	-9.53476
▁lanza	-9.53494
lógica	-9.53556
gres	-9.53743
▁mor	-9.53805
ct	-9.53805
▁Aquí	-9.53823
▁Ad	-9.5383
▁tendrá	-9.53907
▁Gra	-9.53997
▁abierto	-9.54037
aje	-9.54058
▁copia	-9.5412
fini	-9.54195
br	-9.54216
titu	-9.54239
▁etiqueta	-9.54385
ris	-9.54396
▁probablemente	-9.54511
▁título	-9.54582
▁comenzar	-9.54608
▁cadena	-9.54637
▁habían	-9.54677
ard	-9.54866
▁artículos	-9.54947
▁desarrolla	-9.55099
tía	-9.55112
’	-9.55148
▁arma	-9.55198
▁Solo	-9.55343
tur	-9.55381
ito	-9.55492
▁post	-9.55558
▁presencia	-9.55625
▁próximo	-9.55637
▁perfecto	-9.55697
▁Fondo	-9.55786
▁ideal	-9.55812
sen	-9.55868
ible	-9.55908
cin	-9.55923
▁piezas	-9.55963
▁herramienta	-9.55982
cina	-9.56088
▁responsabilidad	-9.56178
▁CA	-9.562
▁jugar	-9.56227
▁poli	-9.56244
▁relaciones	-9.56268
qué	-9.56369
▁Estas	-9.56422
▁antiguo	-9.56449
▁Sha	-9.56494
▁continua	-9.56506
▁elegir	-9.56702
▁cierta	-9.56716
▁España	-9.56726
▁conoce	-9.56734
▁sueño	-9.56783
▁ja	-9.56878
▁meta	-9.56898
PS	-9.56984
▁Ko	-9.57005
cor	-9.571
ena	-9.57237
▁desarrollar	-9.57244
▁organiza	-9.57316
▁pareja	-9.5735
▁tro	-9.57386
▁Auto	-9.57436
▁debajo	-9.57461
amos	-9.57551
▁señal	-9.57568
bel	-9.57587
▁inglés	-9.57634
▁produce	-9.5767
▁conocer	-9.57686
▁Según	-9.57695
IA	-9.57715
▁responsable	-9.57761
▁Hotel	-9.57831
▁tenido	-9.57853
▁bio	-9.57873
gon	-9.57876
mia	-9.5794
leta	-9.58031
▁términos	-9.58052
▁chica	-9.5826
▁física	-9.58368
▁Entre	-9.58392
▁objeto	-9.58478
▁potencia	-9.58685
▁resistencia	-9.58715
UN	-9.58827
▁menú	-9.58855
▁nadie	-9.58965
▁dado	-9.59027
▁pensar	-9.59044
rnos	-9.59046
▁presta	-9.59058
DI	-9.59086
▁feliz	-9.59258
▁formación	-9.59271
▁Q	-9.59271
▁ubicación	-9.59417
▁manual	-9.59567
▁primeros	-9.59597
▁mayores	-9.59615
▁segura	-9.59645
▁licencia	-9.5966
▁policía	-9.5974
▁depende	-9.59745
cien	-9.59753
▁semanas	-9.59787
LA	-9.59794
▁aumentar	-9.59974
lado	-9.60073
idos	-9.60113
▁paciente	-9.60114
▁guía	-9.60142
▁similar	-9.60145
puesto	-9.60276
▁llena	-9.60283
▁podrían	-9.60285
ph	-9.60309
én	-9.60311
AM	-9.60327
▁Centro	-9.60348
▁reciente	-9.60352
▁piso	-9.60356
▁New	-9.60363
▁Plan	-9.6038
CI	-9.60384
▁plantas	-9.60425
▁digital	-9.60429
▁Sí	-9.60451
▁vino	-9.60502
▁llamado	-9.60503
mático	-9.60589
dieron	-9.60652
®	-9.60783
▁aprender	-9.60802
▁oficial	-9.60815
▁ga	-9.60952
▁modelos	-9.61086
▁factores	-9.6114
culo	-9.61161
▁caliente	-9.61236
▁Her	-9.61274
▁Google	-9.61352
lina	-9.61378
▁registro	-9.61419
▁asigna	-9.61479
¡	-9.61521
▁útil	-9.61657
RO	-9.61683
cel	-9.61697
▁compara	-9.6174
–	-9.61743
▁edificio	-9.61798
▁aquellos	-9.61843
▁comportamiento	-9.6186
▁sola	-9.61913
▁mitad	-9.61929
mó	-9.61931
▁enlace	-9.61952
▁proporcionar	-9.61953
▁principios	-9.62003
▁importancia	-9.62098
Ca	-9.62128
▁Bri	-9.62145
▁utilizado	-9.62177
ot	-9.62244
hor	-9.62332
Con	-9.62348
vir	-9.62379
RI	-9.62406
▁siente	-9.62447
▁India	-9.62598
est	-9.62625
▁objetivos	-9.62683
▁económico	-9.62696
▁disfrutar	-9.62699
▁error	-9.62784
volv	-9.62865
CA	-9.62876
fil	-9.62905
▁vivo	-9.62918
▁español	-9.62957
▁tabla	-9.62977
▁corre	-9.62987
▁abajo	-9.62992
ino	-9.63067
cro	-9.63103
▁barra	-9.63145
▁significativa	-9.63265
ín	-9.63326
▁habilidades	-9.63339
▁t	-9.63349
▁Fo	-9.63363
▁Debe	-9.63386
▁fuego	-9.63389
▁costos	-9.63405
▁miembro	-9.6341
ler	-9.63481
▁cuales	-9.63512
▁comienza	-9.63631
table	-9.63779
▁inicio	-9.63803
▁familiar	-9.63855
▁compartir	-9.63877
▁banco	-9.6393
feri	-9.63942
tima	-9.63986
dero	-9.63988
cé	-9.64072
▁plano	-9.64095
▁firma	-9.64142
▁llamada	-9.64155
▁hospital	-9.64211
▁categoría	-9.64228
▁Sus	-9.64276
▁consecuencia	-9.6431
esta	-9.64376
cial	-9.64408
▁gira	-9.64441
▁memoria	-9.64458
▁chi	-9.64499
ment	-9.6452
rían	-9.64533
▁radio	-9.64573
MI	-9.64582
pul	-9.64609
▁posterior	-9.64662
▁pronto	-9.64712
lidad	-9.64732
▁blanca	-9.6474
▁come	-9.64786
rie	-9.64873
▁evaluación	-9.649
*	-9.64955
▁cita	-9.64961
▁funda	-9.65
▁políticas	-9.65007
izada	-9.6502
—	-9.65053
▁vía	-9.65089
▁ventaja	-9.65111
Te	-9.65127
▁intenta	-9.65136
icia	-9.6516
▁puerto	-9.65203
▁go	-9.65214
presión	-9.65231
▁decisión	-9.65287
IC	-9.65296
uro	-9.65316
pica	-9.65324
▁carta	-9.65353
diendo	-9.65391
www	-9.65504
▁piscina	-9.65576
▁técnica	-9.65628
▁ataque	-9.65661
▁privado	-9.65665
▁profesionales	-9.65689
▁jugadores	-9.65697
quí	-9.65714
▁ingresos	-9.65773
ético	-9.65885
ificación	-9.65886
lógico	-9.65983
int	-9.65988
▁hermosa	-9.65994
▁empleados	-9.66002
▁isla	-9.66006
▁Windows	-9.66011
▁económica	-9.66071
▁mil	-9.66072
▁pintura	-9.66191
▁soy	-9.66199
▁propósito	-9.6631
▁Fre	-9.66407
ás	-9.66424
▁etapa	-9.66534
▁im	-9.66655
▁Che	-9.6677
▁tales	-9.66777
tel	-9.66784
dura	-9.66846
▁Algunos	-9.66888
▁hermano	-9.66904
▁and	-9.67083
▁RE	-9.6711
▁norte	-9.67112
▁perfil	-9.67123
▁Ce	-9.67236
▁descarga	-9.67261
fri	-9.67271
▁principalmente	-9.67302
▁IN	-9.6744
teo	-9.67472
▁CON	-9.67539
cra	-9.67624
}	-9.67626
Si	-9.67627
peti	-9.67673
▁Chi	-9.6773
▁agrega	-9.67815
▁salir	-9.67891
▁Color	-9.67898
clo	-9.67943
▁flores	-9.67962
sper	-9.68018
▁humano	-9.68044
▁calor	-9.6805
▁metal	-9.68118
▁destino	-9.68199
▁regular	-9.68282
▁pasos	-9.68313
▁iglesia	-9.68345
▁indi	-9.68363
▁piedra	-9.68459
................	-9.68522
▁probable	-9.68581
SI	-9.68597
▁afirma	-9.68625
ker	-9.68739
▁ofrecer	-9.68795
nar	-9.68816
▁generalmente	-9.6884
▁buscar	-9.68947
▁revela	-9.68995
mentos	-9.69055
▁oro	-9.69086
ñe	-9.69109
▁mes	-9.6912
▁vivir	-9.69126
▁General	-9.69162
▁Dr	-9.69227
▁Diseño	-9.6936
▁costa	-9.69417
cie	-9.69502
lé	-9.6952
▁amigo	-9.69521
mm	-9.69548
▁economía	-9.69585
▁pedido	-9.6961
cí	-9.69628
▁eliminar	-9.69637
▁Par	-9.69651
ico	-9.69672
▁coloca	-9.69676
socia	-9.69696
▁altura	-9.69745
▁parque	-9.69745
ect	-9.69759
▁requisitos	-9.69886
▁Sta	-9.69891
▁leer	-9.69903
▁van	-9.69928
▁café	-9.69936
▁Inter	-9.70057
▁implica	-9.70113
▁bolsa	-9.7019
▁Pla	-9.70196
▁comenzó	-9.70241
▁idioma	-9.70243
ático	-9.70291
▁compa	-9.70301
ducción	-9.70359
▁adicionales	-9.7039
EN	-9.70499
▁incorpora	-9.70503
▁tratar	-9.70526
▁río	-9.70558
ham	-9.7058
▁Sol	-9.7065
bro	-9.70706
▁grado	-9.7079
ego	-9.70895
▁esas	-9.70905
▁operaciones	-9.70926
▁popular	-9.70967
▁pagar	-9.70967
art	-9.71006
▁almacenamiento	-9.7111
▁crédito	-9.71162
▁sesión	-9.71186
ral	-9.71446
▁junio	-9.71459
dí	-9.7153
▁incluir	-9.71559
▁ideas	-9.71618
▁peligro	-9.71632
▁administración	-9.71748
▁cri	-9.7176
En	-9.71767
▁registra	-9.71902
vin	-9.72028
▁soluciones	-9.72042
▁Cómo	-9.72106
tic	-9.72136
▁Imágenes	-9.72142
▁ello	-9.72157
▁participación	-9.72175
▁México	-9.72199
ST	-9.72212
▁allá	-9.72245
▁fija	-9.72311
ió	-9.72379
▁funcionamiento	-9.72423
▁Imagen	-9.72429
▁totalmente	-9.72437
▁Tal	-9.72462
▁tejido	-9.72482
▁fundamental	-9.72506
▁flor	-9.7252
▁pequeñas	-9.72567
▁mayo	-9.72591
▁Jesús	-9.72645
▁contrato	-9.72664
▁ilustración	-9.72673
rado	-9.7272
zca	-9.72742
blo	-9.7276
▁Gu	-9.72764
▁vuelve	-9.72781
▁socio	-9.72793
▁preocupa	-9.72837
▁derecha	-9.72845
posición	-9.72867
▁provoca	-9.72935
▁interesante	-9.73009
▁expresa	-9.73066
▁volumen	-9.73068
cado	-9.73154
▁fase	-9.7318
cular	-9.73211
▁gama	-9.7326
▁procesos	-9.73278
CH	-9.73281
▁mantenimiento	-9.73378
▁actualiza	-9.73415
▁selección	-9.73481
▁elemento	-9.73508
▁ganar	-9.73538
▁restaurante	-9.73572
▁cm	-9.73589
Me	-9.73623
▁cuadro	-9.73624
dro	-9.73633
Ha	-9.73678
▁eje	-9.73695
▁cielo	-9.73705
▁consumo	-9.73732
sal	-9.73739
▁determinar	-9.73746
illa	-9.73765
q	-9.73775
ona	-9.73831
lli	-9.73933
▁corriente	-9.73975
plica	-9.73981
dido	-9.74046
▁organizaciones	-9.74057
▁acu	-9.7409
▁Har	-9.74113
ici	-9.74125
icio	-9.74201
▁quiero	-9.74374
▁mantiene	-9.74399
ial	-9.745
bio	-9.74503
mica	-9.74519
▁aspecto	-9.7457
▁temas	-9.74689
▁múltiples	-9.7476
▁elegante	-9.74831
▁Reino	-9.74848
tino	-9.74911
ice	-9.74955
dri	-9.75003
▁grave	-9.75029
itario	-9.75049
▁montaña	-9.75072
▁trabajadores	-9.75104
▁aprendizaje	-9.75121
▁pensamiento	-9.75161
▁estima	-9.752
tend	-9.75234
▁decisiones	-9.75329
▁necesaria	-9.75357
sin	-9.75376
▁abierta	-9.754
han	-9.75517
▁boca	-9.75535
pos	-9.75565
struc	-9.75624
ME	-9.7566
▁cáncer	-9.75693
▁Tri	-9.75821
bur	-9.75844
▁promedio	-9.75864
▁anual	-9.75907
ller	-9.75941
▁Au	-9.75944
▁km	-9.75944
▁componentes	-9.75945
MP	-9.7597
▁icono	-9.76003
▁duro	-9.76025
▁her	-9.76069
▁CO	-9.76129
sia	-9.76305
▁mínimo	-9.76334
▁permitir	-9.76339
▁metros	-9.76351
▁establecer	-9.76377
▁gráfico	-9.76407
▁paga	-9.76415
▁humana	-9.76422
▁operación	-9.76466
▁compromiso	-9.76486
▁formato	-9.76545
fina	-9.76656
▁Señor	-9.76701
▁escrito	-9.76706
▁comparación	-9.76709
▁placa	-9.76768
▁América	-9.76823
BA	-9.76966
▁publica	-9.76978
▁mapa	-9.77007
▁campaña	-9.77045
tec	-9.77132
▁vehículo	-9.77141
sign	-9.77142
▁tendencia	-9.77191
▁Gracias	-9.77202
lón	-9.7726
▁sitios	-9.77322
▁líneas	-9.77407
▁moderno	-9.77429
▁confianza	-9.77446
▁maestro	-9.7746
▁libros	-9.77475
nica	-9.77483
▁ruta	-9.77534
cora	-9.77556
▁bro	-9.77562
▁competencia	-9.77594
chu	-9.7768
▁jardín	-9.77688
IO	-9.7769
▁Bra	-9.77752
▁plástico	-9.77761
▁comer	-9.77852
▁puedan	-9.77853
nge	-9.77862
and	-9.77884
▁encima	-9.77887
▁adelante	-9.77923
▁móvil	-9.77936
▁contrario	-9.78
▁proteger	-9.78027
cri	-9.78077
▁izquierda	-9.78085
▁inversión	-9.78085
▁creación	-9.78095
▁posibilidad	-9.7815
▁entra	-9.78166
▁visión	-9.78177
▁resolución	-9.78206
tric	-9.78232
vio	-9.78245
▁basa	-9.78287
cli	-9.78294
aria	-9.78386
vas	-9.78469
▁Fotos	-9.78492
▁Fu	-9.78646
▁desafío	-9.7868
▁Ilustración	-9.78748
▁confirma	-9.78748
▁limpia	-9.78782
▁abrir	-9.78834
▁bomba	-9.78843
▁fotografía	-9.78967
▁tren	-9.78979
▁dónde	-9.78995
▁métodos	-9.78998
▁termina	-9.79091
fra	-9.79092
▁ciclo	-9.79128
▁político	-9.7914
▁unidades	-9.79216
▁prepara	-9.79244
▁especiales	-9.79253
▁especifica	-9.79254
MS	-9.79278
º	-9.79285
▁complejo	-9.79361
▁amenaza	-9.79442
iente	-9.79467
endo	-9.7952
▁Nuestra	-9.79525
mino	-9.7954
▁instalaciones	-9.7959
jado	-9.79595
sumi	-9.79713
▁Comp	-9.79781
tuvieron	-9.79816
▁pelo	-9.79885
▁serán	-9.79898
line	-9.79902
IT	-9.79942
▁anteriores	-9.79943
▁viene	-9.79965
▁Sr	-9.80038
▁tor	-9.80074
▁hermoso	-9.8015
fica	-9.80173
▁Crea	-9.80197
proba	-9.80218
ela	-9.80252
▁remo	-9.8037
spe	-9.80386
▁efectivo	-9.80404
▁emb	-9.80476
▁eres	-9.80516
▁ten	-9.80597
▁detrás	-9.80758
▁salva	-9.80769
▁similares	-9.80791
▁basado	-9.80793
▁agregar	-9.8083
▁regula	-9.80837
▁enorme	-9.80841
▁Sur	-9.80891
▁Uno	-9.80915
▁borde	-9.80924
▁personales	-9.80935
cru	-9.80988
rió	-9.80997
▁conseguir	-9.81215
ato	-9.81221
AC	-9.81252
bli	-9.81265
▁esfuerzo	-9.81332
▁adultos	-9.81399
▁Mon	-9.81402
idas	-9.81421
▁Casa	-9.81457
▁incluida	-9.8147
aciones	-9.81474
▁cubierta	-9.81495
▁Super	-9.81532
▁recibe	-9.81578
▁hija	-9.81619
▁inspira	-9.81644
▁pone	-9.81661
▁entrenamiento	-9.81704
▁alimentación	-9.81856
▁hubiera	-9.81857
▁deberá	-9.81912
▁profesor	-9.81933
▁libertad	-9.81948
▁plato	-9.81975
▁extremo	-9.81986
▁solicitud	-9.82006
▁juntos	-9.82024
wn	-9.82066
▁mismos	-9.82074
vie	-9.82096
▁carne	-9.82138
volu	-9.82139
▁agradable	-9.82195
▁dólares	-9.8225
▁documento	-9.8227
▁quienes	-9.82274
▁eleva	-9.82292
▁Fotografía	-9.82316
▁Pin	-9.82328
▁asegura	-9.82369
▁estrategia	-9.82384
▁escenario	-9.82388
▁EL	-9.82428
anza	-9.82441
▁técnico	-9.82461
▁esposa	-9.8247
▁masa	-9.82477
▁Pen	-9.82489
▁Mujer	-9.82515
▁perder	-9.82533
▁longitud	-9.82539
▁relacionados	-9.82581
▁cuadra	-9.82584
▁marzo	-9.8263
▁arre	-9.82668
▁compuesto	-9.82718
mite	-9.82777
▁variable	-9.82797
▁deseo	-9.82819
▁vuelta	-9.82835
▁UU	-9.82846
▁enfermedades	-9.82889
▁Consejo	-9.82986
▁muestran	-9.83033
tador	-9.83033
nado	-9.83065
▁propiedades	-9.83078
▁internacionales	-9.83084
▁centra	-9.83092
▁k	-9.83111
▁Incluso	-9.83111
▁cumplir	-9.83146
for	-9.83168
len	-9.8322
▁invita	-9.83228
▁envío	-9.83258
▁ventas	-9.83275
▁motivo	-9.83301
▁garantizar	-9.83344
zu	-9.83347
▁combinación	-9.83411
▁médica	-9.83417
tenta	-9.83429
dge	-9.8343
▁fabricante	-9.8345
gio	-9.83479
DE	-9.8352
▁quieres	-9.83521
▁mala	-9.83523
tró	-9.83533
▁escena	-9.83558
▁sabor	-9.83568
rla	-9.83655
▁quién	-9.8368
▁origen	-9.83695
▁PC	-9.83784
▁televisión	-9.83876
ua	-9.83906
▁Qui	-9.83906
lica	-9.83915
Pa	-9.83956
pone	-9.83964
▁tercer	-9.83974
▁finalmente	-9.83977
▁tradicional	-9.8404
▁We	-9.84041
fusión	-9.84143
tida	-9.8415
fund	-9.84157
▁Col	-9.84163
▁mental	-9.84215
▁justo	-9.8432
▁asistencia	-9.84327
▁actualmente	-9.84437
▁fines	-9.8445
▁Unido	-9.84461
▁Hombre	-9.84614
▁esperar	-9.84655
▁destaca	-9.84693
▁máxima	-9.84698
▁procedimiento	-9.84718
▁abril	-9.84728
Com	-9.84733
▁cuarto	-9.84735
▁antigua	-9.84736
▁generación	-9.84772
▁próxima	-9.84777
▁negra	-9.84809
▁civil	-9.84818
ienda	-9.84902
▁comentarios	-9.84921
ificado	-9.84933
▁constante	-9.85024
Co	-9.85079
nie	-9.85096
imos	-9.85108
▁conserva	-9.85117
nova	-9.85143
EL	-9.85149
▁pulgadas	-9.85172
▁presentar	-9.85231
zado	-9.85255
▁septiembre	-9.85276
▁básica	-9.85283
ega	-9.85313
▁pal	-9.85316
▁determina	-9.8538
▁eléctrica	-9.85411
ima	-9.85413
▁pena	-9.85439
dición	-9.8545
udi	-9.85463
▁producir	-9.85494
▁tira	-9.85506
▁oportunidades	-9.85532
▁vacaciones	-9.8563
chos	-9.85648
▁propuesta	-9.85661
▁relaja	-9.85724
▁deriva	-9.85741
▁desarrollado	-9.85743
▁miedo	-9.8575
▁reloj	-9.85782
▁tenían	-9.85794
▁individual	-9.85815
como	-9.85857
▁Ge	-9.85876
▁Tre	-9.85891
UR	-9.85957
verso	-9.86031
▁asegurar	-9.86044
▁fondos	-9.86103
▁cristal	-9.86112
dul	-9.86127
▁probar	-9.86152
▁Gar	-9.86155
▁polvo	-9.86176
nk	-9.86193
▁decoración	-9.86258
▁Stock	-9.86334
ndi	-9.8639
yu	-9.86421
PI	-9.86447
zi	-9.86522
▁escribir	-9.86574
▁Art	-9.8658
dita	-9.86634
▁vio	-9.86709
neo	-9.86713
IL	-9.86783
▁trabajando	-9.86826
▁almacena	-9.86832
▁distribución	-9.86836
▁ciencia	-9.86863
ige	-9.86926
▁participa	-9.8696
ok	-9.86995
▁bloque	-9.87008
▁Comisión	-9.87018
▁SE	-9.87142
▁materia	-9.87149
▁necesitan	-9.8725
tis	-9.87272
▁ácido	-9.87336
▁golpe	-9.87368
▁Mundial	-9.87437
▁mono	-9.87489
▁dulce	-9.87568
▁realizado	-9.87595
▁convierte	-9.87658
lmente	-9.87661
▁vistas	-9.87701
este	-9.87713
▁directo	-9.87743
▁octubre	-9.87748
▁Pri	-9.87769
▁comercio	-9.87786
ora	-9.87842
▁fre	-9.87842
▁elabora	-9.87875
▁quería	-9.87923
▁investiga	-9.87932
▁mira	-9.87999
▁canal	-9.88002
▁bosque	-9.88009
▁pista	-9.88026
▁julio	-9.88046
▁incluido	-9.88049
gro	-9.88093
▁monta	-9.88096
▁respira	-9.88252
▁marcha	-9.88273
▁impre	-9.88274
▁pat	-9.88349
▁vector	-9.88379
▁apartamento	-9.88464
▁premio	-9.88534
▁evidencia	-9.88659
▁fruta	-9.88663
▁asunto	-9.88676
°	-9.88697
▁@	-9.88713
▁estará	-9.88729
▁portátil	-9.88742
▁equi	-9.88889
siste	-9.88935
▁eco	-9.89042
mpl	-9.89083
▁lujo	-9.89102
rás	-9.89122
let	-9.89135
▁traje	-9.89141
▁estrellas	-9.89177
▁reunión	-9.892
▁suministro	-9.89267
▁diciembre	-9.89305
▁daño	-9.89404
▁síntomas	-9.89411
▁básico	-9.89415
▁rango	-9.89434
▁contexto	-9.8945
▁impresión	-9.89518
▁eléctrico	-9.89547
▁flu	-9.8957
▁the	-9.89588
▁asi	-9.89626
▁TV	-9.89649
▁libera	-9.89702
▁universidad	-9.89804
▁ofrecen	-9.89844
▁saludable	-9.89886
pedi	-9.899
▁sensor	-9.8992
col	-9.89989
▁tono	-9.89998
▁naturales	-9.90085
▁entrevista	-9.90217
ular	-9.90234
ento	-9.90251
▁prácticas	-9.90261
jar	-9.9028
▁escucha	-9.90308
▁Internacional	-9.9042
dón	-9.90478
▁Medi	-9.90544
▁fuentes	-9.90553
▁estre	-9.90637
ológico	-9.90641
my	-9.90665
rlos	-9.90685
▁sexual	-9.90703
▁participantes	-9.90764
▁junta	-9.90777
▁construir	-9.9078
▁Otra	-9.90867
pia	-9.90892
▁Vol	-9.90944
▁interna	-9.90971
▁describe	-9.91025
vid	-9.91079
ló	-9.91099
pli	-9.91119
EM	-9.9115
gráfica	-9.91151
▁hojas	-9.9116
▁Mc	-9.91229
▁barco	-9.91288
▁Trans	-9.9132
▁alcance	-9.91419
▁estén	-9.91427
▁autor	-9.91449
▁LED	-9.91456
▁Grupo	-9.91502
▁Nuevo	-9.91525
▁et	-9.91562
rilla	-9.91562
▁perro	-9.91571
);	-9.91581
▁cro	-9.91609
var	-9.91635
▁colección	-9.91702
ónico	-9.91717
her	-9.91776
vel	-9.9178
▁listo	-9.91807
▁ben	-9.91808
▁gris	-9.91838
▁ensayo	-9.91846
ku	-9.91853
gió	-9.91873
versa	-9.91936
▁Era	-9.91949
▁técnicas	-9.91968
▁levanta	-9.91969
gina	-9.92045
▁resistente	-9.92052
▁dispone	-9.92063
▁hoja	-9.92077
▁geo	-9.92085
damente	-9.92145
▁juguete	-9.92191
In	-9.922
▁NO	-9.92216
▁aislado	-9.92239
▁acceder	-9.92332
OL	-9.92368
gada	-9.92404
To	-9.92437
▁captura	-9.92489
▁objetos	-9.92496
tales	-9.92636
▁tarea	-9.92644
▁asociado	-9.92698
▁utilizan	-9.92717
ferencia	-9.92811
▁Sistema	-9.92854
eron	-9.92859
fia	-9.92878
misión	-9.92893
▁género	-9.92907
▁legal	-9.92921
diciones	-9.92958
grado	-9.92962
ivos	-9.93006
▁limpieza	-9.93009
rge	-9.93017
▁Ab	-9.9303
tante	-9.93031
▁bicicleta	-9.93033
ang	-9.93051
dic	-9.93053
▁transmisión	-9.93056
ngo	-9.93078
▁Estoy	-9.93091
▁enseña	-9.931
▁aspectos	-9.93195
▁Todas	-9.93231
▁perspectiva	-9.93236
▁familias	-9.93242
▁Bueno	-9.93262
^	-9.93291
spec	-9.934
▁siete	-9.93444
cue	-9.93472
doras	-9.93485
ant	-9.93494
▁atrás	-9.93499
▁mecanismo	-9.93504
▁Ob	-9.93514
▁alternativa	-9.93548
▁exposición	-9.93551
pira	-9.93665
▁Alemania	-9.93677
▁divertido	-9.93715
LI	-9.93732
món	-9.93734
▁escuchar	-9.93755
cub	-9.93801
curri	-9.9382
▁oscuro	-9.93827
▁financiera	-9.93866
▁Reco	-9.93874
▁carretera	-9.93937
▁estudiante	-9.93944
▁privada	-9.93945
del	-9.93952
▁vuelo	-9.94009
erra	-9.9409
▁enero	-9.94168
▁planes	-9.94176
▁tubo	-9.94208
▁clases	-9.94331
▁panel	-9.94363
▁elimina	-9.94395
sible	-9.94403
vió	-9.94489
▁perfecta	-9.94495
▁opinión	-9.94516
PA	-9.94556
AP	-9.94605
antes	-9.9463
▁elección	-9.94706
▁Control	-9.94714
▁jugador	-9.94815
▁estable	-9.94816
▁positivo	-9.9482
▁regla	-9.94852
▁creado	-9.94893
▁dan	-9.94993
cito	-9.94999
▁seguimiento	-9.9501
▁árbol	-9.95056
gia	-9.95072
IM	-9.95122
▁boda	-9.95171
▁buscando	-9.95205
▁revisión	-9.95216
▁señala	-9.95217
cidad	-9.95235
▁Ben	-9.95255
▁columna	-9.95274
▁imagina	-9.95314
▁selecciona	-9.95334
▁líquido	-9.95362
ell	-9.95457
▁estación	-9.95508
scend	-9.95556
scar	-9.95587
▁convertir	-9.95593
▁diez	-9.9561
▁laboral	-9.95614
▁verdadera	-9.95669
fen	-9.95697
▁clima	-9.95711
iga	-9.95759
▁controlar	-9.95776
Cuál	-9.95786
▁propietario	-9.95844
bar	-9.95851
▁identificar	-9.95865
▁informes	-9.95869
▁bal	-9.95914
▁Op	-9.9593
▁favorito	-9.9594
▁Hace	-9.95942
▁escolar	-9.95946
▁influencia	-9.95949
ze	-9.95967
▁cau	-9.95993
▁niña	-9.96027
ts	-9.9603
mue	-9.96035
plo	-9.9606
ent	-9.96062
&	-9.96064
▁aplicar	-9.96111
▁US	-9.96138
▁concentra	-9.96151
▁instrucciones	-9.96231
gente	-9.96236
má	-9.96241
▁gratuita	-9.96247
▁cualquiera	-9.96254
▁disfruta	-9.96292
▁comunes	-9.96344
▁separa	-9.96368
▁pieza	-9.96376
▁asiento	-9.9639
▁noviembre	-9.96393
▁diario	-9.96397
▁razones	-9.96417
▁dibujos	-9.96476
ctua	-9.96558
▁Francia	-9.96566
ting	-9.96679
▁Norte	-9.9669
▁ocurre	-9.96721
▁ama	-9.96725
▁tarifa	-9.96734
▁invierno	-9.9675
▁Ley	-9.96807
▁sab	-9.96869
VA	-9.96879
▁lejos	-9.96932
cita	-9.9698
ática	-9.97013
▁automáticamente	-9.9704
ui	-9.97058
▁médicos	-9.97076
ví	-9.971
pto	-9.97104
▁publicación	-9.97144
bul	-9.97165
▁audio	-9.97192
▁Wo	-9.97233
cord	-9.97253
▁instalar	-9.97272
▁limita	-9.97287
▁físico	-9.97304
▁existen	-9.9741
fle	-9.97488
yer	-9.97539
▁pos	-9.97554
▁amplio	-9.97566
▁documentos	-9.97592
▁punta	-9.97696
▁anteriormente	-9.9773
ure	-9.97745
▁entender	-9.97753
▁líder	-9.97772
▁MA	-9.9778
▁presentación	-9.9781
▁paz	-9.97829
▁ahí	-9.97855
rito	-9.97861
¿	-9.97888
posit	-9.9789
▁vivienda	-9.97903
gencia	-9.97903
▁acompaña	-9.97911
▁símbolo	-9.97927
▁exactamente	-9.97939
▁Cer	-9.98026
▁pega	-9.98108
▁letra	-9.98147
tividad	-9.9816
use	-9.98176
▁hará	-9.98202
▁Nota	-9.98228
▁Ali	-9.98249
▁Haga	-9.98265
▁complica	-9.98293
▁películas	-9.98325
▁club	-9.98395
DO	-9.98412
▁expresión	-9.98459
▁solicita	-9.98493
terior	-9.98529
ciendo	-9.98576
▁cola	-9.9859
bili	-9.98595
Í	-9.98641
▁tele	-9.98651
▁belleza	-9.98678
cera	-9.98725
▁Figura	-9.98745
▁resolver	-9.98754
▁vídeo	-9.98761
https	-9.98806
mero	-9.98818
▁vectorial	-9.98826
▁Navidad	-9.98828
▁estuvo	-9.98846
▁dominio	-9.98858
▁autoriza	-9.98883
▁vidrio	-9.98887
▁sabía	-9.98976
NE	-9.98977
▁secuencia	-9.99012
media	-9.99067
▁incluidos	-9.99101
▁moderna	-9.99189
▁II	-9.99198
▁Antes	-9.99214
▁chico	-9.99218
▁cuello	-9.99236
▁Siempre	-9.99268
▁recientemente	-9.99294
▁habría	-9.99322
lea	-9.99358
net	-9.99367
▁fibra	-9.99381
ún	-9.99398
▁USB	-9.99437
▁señor	-9.99456
▁anima	-9.99519
US	-9.99617
▁individuo	-9.99661
▁considerar	-9.99704
cente	-9.99773
▁filtro	-9.99813
▁tú	-9.99817
):	-9.99818
▁roja	-9.99878
mé	-9.99895
▁cla	-9.99903
side	-10.0005
▁combustible	-10.0006
▁refleja	-10.0007
▁cuestión	-10.0009
▁menciona	-10.0014
▁individuales	-10.0025
▁acaba	-10.0028
up	-10.0031
CO	-10.0032
▁refiere	-10.0036
ate	-10.0039
▁teoría	-10.0051
CU	-10.0057
▁Juego	-10.0057
ndar	-10.0058
▁fabrica	-10.0059
▁proveedores	-10.006
▁sirve	-10.007
UE	-10.0073
▁correcto	-10.0076
▁calcula	-10.0077
▁sucede	-10.0089
▁esencial	-10.009
▁accesorios	-10.009
▁gratuito	-10.0091
yendo	-10.0097
▁techo	-10.0098
▁lectura	-10.0101
▁adopta	-10.0104
▁rodea	-10.0109
▁breve	-10.0112
▁coste	-10.0115
▁garantiza	-10.0124
Fi	-10.0131
ther	-10.0133
jes	-10.0141
▁interno	-10.0144
▁Producto	-10.0145
▁Creo	-10.0146
▁incluyendo	-10.0149
clusión	-10.0152
▁ES	-10.0153
pra	-10.0155
zos	-10.0161
▁agosto	-10.0163
▁acto	-10.0165
kin	-10.0169
▁Puedes	-10.0174
▁alimenta	-10.0175
▁entrar	-10.0184
scrib	-10.0185
ps	-10.0185
▁patrón	-10.019
ejo	-10.0197
▁camina	-10.0199
▁retro	-10.0207
▁clara	-10.0207
▁grasa	-10.0208
▁correcta	-10.0212
▁condición	-10.0218
idez	-10.022
NI	-10.0221
▁nota	-10.0223
▁Programa	-10.0224
ak	-10.0225
▁Libre	-10.0225
▁gato	-10.0233
▁IP	-10.024
▁‘	-10.0246
▁efectiva	-10.0246
▁medicamentos	-10.026
▁apoya	-10.0263
Mi	-10.0267
▁califica	-10.027
prim	-10.0271
▁adolescente	-10.0274
▁Wal	-10.0277
$	-10.0278
▁nacionales	-10.0284
▁sexo	-10.0285
▁conecta	-10.0291
▁caballo	-10.0291
▁min	-10.0293
RES	-10.0296
▁agencia	-10.0297
eno	-10.0298
▁basada	-10.0307
▁dormitorio	-10.031
lega	-10.0314
▁Día	-10.0315
bol	-10.0316
tru	-10.0317
▁Iglesia	-10.0325
▁cine	-10.0329
▁reducción	-10.0331
▁pinta	-10.0337
tores	-10.0347
▁exporta	-10.0348
▁obras	-10.0349
CC	-10.035
▁llegó	-10.0351
▁seleccionar	-10.0354
▁Arte	-10.0354
rón	-10.036
▁Web	-10.0365
cula	-10.0366
▁circula	-10.037
▁cerebro	-10.0372
▁Ven	-10.038
trato	-10.0381
▁carácter	-10.0383
▁Bro	-10.0385
ore	-10.0394
SE	-10.0396
▁zonas	-10.0397
lie	-10.0417
▁cierre	-10.042
▁conocida	-10.0428
▁cuero	-10.0429
blemente	-10.0436
▁época	-10.0436
libra	-10.0436
▁armas	-10.0439
▁frecuente	-10.0441
tiza	-10.0444
zó	-10.0446
mana	-10.0449
▁brinda	-10.0455
▁solar	-10.046
jos	-10.0463
▁conflicto	-10.0464
▁empleo	-10.0465
▁empezar	-10.0466
cultura	-10.047
▁Red	-10.0472
▁esfuerzos	-10.0474
▁lateral	-10.0481
▁activos	-10.0484
▁vehículos	-10.0485
PO	-10.0492
▁configura	-10.0496
▁transforma	-10.0497
ny	-10.0498
▁contar	-10.0508
▁tareas	-10.0512
▁Italia	-10.0517
▁viejo	-10.0521
▁módulo	-10.0524
▁alcanzar	-10.0525
▁Amazon	-10.0527
iz	-10.0527
mano	-10.0528
▁celular	-10.0528
▁conductor	-10.0529
▁leche	-10.053
▁correspondiente	-10.0533
▁muerto	-10.0539
▁Londres	-10.0542
tención	-10.0543
▁mensajes	-10.0545
▁extranjero	-10.0548
riendo	-10.0552
uta	-10.0555
▁usan	-10.0555
▁sujeto	-10.0562
grafía	-10.0564
▁Salud	-10.0565
▁estadounidense	-10.0569
▁parecía	-10.0577
▁febrero	-10.0582
▁verdadero	-10.0582
▁genial	-10.0584
É	-10.0586
▁cruza	-10.0587
uelo	-10.0589
AT	-10.0589
SP	-10.0593
▁Camp	-10.0593
americano	-10.0597
▁Ban	-10.0599
▁pues	-10.0599
▁especies	-10.0601
▁especializa	-10.0612
▁pudiera	-10.0614
▁falla	-10.0624
▁monitor	-10.0624
▁fri	-10.0626
▁especie	-10.0627
▁HD	-10.063
SC	-10.0635
▁Fin	-10.0638
▁reglas	-10.0639
mera	-10.0644
▁emplea	-10.0645
▁participar	-10.0646
▁ajusta	-10.0647
▁transmi	-10.065
▁administra	-10.0653
entes	-10.0667
▁familiares	-10.0669
▁personaje	-10.067
▁compatible	-10.068
▁fútbol	-10.0682
▁tiendas	-10.0684
▁Algunas	-10.0684
▁encuesta	-10.0684
▁departamento	-10.0686
▁separado	-10.07
▁positiva	-10.0702
▁logra	-10.0704
tú	-10.0705
Di	-10.0709
▁factor	-10.0716
▁estás	-10.0719
rena	-10.0722
▁ocho	-10.0726
▁Ste	-10.0731
▁ciudades	-10.0734
▁víctima	-10.0735
▁buenos	-10.0737
▁mon	-10.0738
▁Ten	-10.0739
▁sentimiento	-10.0741
▁finales	-10.0741
▁convertido	-10.0743
▁errores	-10.0748
mal	-10.0749
mes	-10.0756
▁utilizada	-10.0756
▁Vo	-10.0761
▁cuyo	-10.0762
▁permiten	-10.077
▁retira	-10.0772
zz	-10.0776
▁Ber	-10.0779
EX	-10.078
ii	-10.0781
mple	-10.0785
▁duración	-10.0786
ár	-10.0786
peri	-10.0794
ancia	-10.0796
▁continúa	-10.0796
▁gustaría	-10.0797
tz	-10.0806
▁quiera	-10.0807
IV	-10.082
▁regional	-10.0823
▁reduce	-10.0824
▁cultivo	-10.0825
▁Departamento	-10.0828
▁Archivo	-10.0838
▁terreno	-10.0838
scrito	-10.0842
▁pierna	-10.0843
▁obten	-10.0844
▁signo	-10.0846
dencia	-10.0847
distribu	-10.0849
▁batalla	-10.0849
cent	-10.0849
▁Funda	-10.0853
▁paisaje	-10.0855
▁visual	-10.0861
Los	-10.0861
AD	-10.0865
▁Usa	-10.0866
▁eficiente	-10.0867
▁tapa	-10.0871
▁propios	-10.0871
Esta	-10.0872
jero	-10.0872
ólogo	-10.0874
▁capaz	-10.0875
fort	-10.0885
bó	-10.0886
eño	-10.0887
Ó	-10.0891
▁involucra	-10.0892
tilla	-10.0899
▁buenas	-10.0904
].	-10.0904
▁gal	-10.0908
▁cena	-10.0909
bina	-10.0912
▁crisis	-10.0919
▁tela	-10.0924
▁aeropuerto	-10.0936
▁bru	-10.0947
▁Mari	-10.0948
eña	-10.095
cti	-10.095
pensa	-10.0952
tio	-10.0953
FA	-10.0955
▁normas	-10.096
ADO	-10.0963
tiene	-10.0966
ticos	-10.0967
▁precisión	-10.0968
▁Vista	-10.0972
▁camiseta	-10.0973
ibilidad	-10.0973
wo	-10.098
ál	-10.0989
▁jefe	-10.0991
▁diagnóstico	-10.0992
▁inicia	-10.0993
▁Santa	-10.0994
bus	-10.1002
▁comunidades	-10.1005
So	-10.1008
▁receta	-10.1012
▁manten	-10.1015
▁lleno	-10.1015
mado	-10.1019
▁dosis	-10.1019
ED	-10.102
▁directa	-10.1024
▁permanente	-10.1034
▁Im	-10.1035
ónica	-10.1041
▁lanzamiento	-10.1043
▁ruido	-10.1044
▁garantía	-10.1047
▁domina	-10.1048
cil	-10.106
▁mini	-10.1064
▁riesgos	-10.1068
FI	-10.1076
▁autoridades	-10.1077
ion	-10.1079
▁convirtió	-10.1079
▁nube	-10.1083
▁correctamente	-10.1092
▁cura	-10.1099
▁psico	-10.1103
cieron	-10.1104
▁abre	-10.1108
▁Muchos	-10.1117
▁electro	-10.1119
▁Dos	-10.1119
▁personajes	-10.1124
ET	-10.1126
▁infantil	-10.1127
▁acumula	-10.113
▁ellas	-10.1132
▁cuál	-10.1134
▁temporal	-10.1137
lico	-10.1138
▁manga	-10.1139
▁Park	-10.1143
one	-10.1149
▁California	-10.115
Lo	-10.115
NO	-10.1156
▁continuar	-10.1158
▁esperanza	-10.1161
▁Información	-10.1168
▁sencillo	-10.1173
▁comprender	-10.1174
aron	-10.1179
ión	-10.1186
▁escuelas	-10.1187
ist	-10.1187
▁cap	-10.1188
ling	-10.1197
▁Bel	-10.1199
▁impresionante	-10.1201
lly	-10.1204
▁seleccione	-10.1208
▁beneficia	-10.1213
adores	-10.1213
grama	-10.1218
▁secundaria	-10.122
▁segundos	-10.1221
izo	-10.1223
▁activo	-10.1224
▁Hoy	-10.1226
▁DEL	-10.123
tano	-10.1232
▁dona	-10.1232
▁emergencia	-10.1234
▁pudo	-10.1238
tiende	-10.1241
uri	-10.1244
parti	-10.1247
▁Ciudad	-10.1248
gel	-10.1249
▁tráfico	-10.1252
▁toque	-10.1258
▁límite	-10.1259
▁sugiere	-10.1261
form	-10.1262
▁She	-10.1269
bal	-10.1273
▁explora	-10.1277
▁conferencia	-10.1277
▁nuevamente	-10.1277
?"	-10.1282
▁toca	-10.1286
▁png	-10.1287
▁Gobierno	-10.1288
▁virtual	-10.1288
▁discu	-10.1292
▁victoria	-10.1297
GA	-10.1298
▁visitar	-10.1301
▁anillo	-10.1302
ete	-10.1303
▁crítica	-10.1303
▁diferencias	-10.1303
IR	-10.131
▁comodidad	-10.1312
habilita	-10.1317
tario	-10.1317
rup	-10.1319
samente	-10.1326
ACIÓN	-10.1329
▁siquiera	-10.1336
▁evaluar	-10.1337
▁fresco	-10.1347
▁Mor	-10.1349
▁fiscal	-10.135
spi	-10.1356
▁nave	-10.1361
▁suerte	-10.1377
sha	-10.1384
▁sensación	-10.1386
▁estrella	-10.1388
▁Otros	-10.1391
▁accidente	-10.1391
tter	-10.1395
▁Cristo	-10.1396
itos	-10.1396
ciente	-10.1401
ceso	-10.1404
grada	-10.1407
▁Za	-10.1409
▁amarillo	-10.141
▁recuerdo	-10.141
▁Nu	-10.141
▁somos	-10.1417
▁Flor	-10.142
▁practica	-10.142
▁controlador	-10.142
glo	-10.1422
▁obtiene	-10.1423
tern	-10.1426
▁dicha	-10.1439
▁Mac	-10.1442
pan	-10.1443
▁sustancia	-10.1449
tom	-10.145
▁negocia	-10.1451
Fig	-10.1451
cionales	-10.1452
xo	-10.1453
▁silla	-10.146
▁altos	-10.1464
▁clásico	-10.1466
▁dieta	-10.1467
▁botella	-10.147
▁establecido	-10.1479
ah	-10.1481
▁árboles	-10.1487
▁vale	-10.1489
ense	-10.1492
▁posee	-10.1492
logía	-10.1493
vier	-10.1498
▁ancho	-10.1498
▁conectar	-10.1501
▁diaria	-10.1502
▁inmediatamente	-10.1504
elo	-10.1505
▁establece	-10.1508
mine	-10.1512
▁interpreta	-10.1516
▁responder	-10.1516
▁alcanza	-10.1518
.”	-10.1519
ecto	-10.1524
scripción	-10.1526
qu	-10.1529
fí	-10.1532
▁coordina	-10.1534
▁cumpleaños	-10.1539
▁transferencia	-10.1541
▁Servicio	-10.1544
ológica	-10.1552
▁anuncia	-10.1553
▁abogado	-10.1559
▁frío	-10.156
▁procedimientos	-10.1569
tería	-10.1573
▁desayuno	-10.158
▁violencia	-10.158
▁vincula	-10.1581
log	-10.1584
▁números	-10.1592
▁noticias	-10.1593
▁cinta	-10.1596
▁laboratorio	-10.1596
▁recuperación	-10.16
▁presupuesto	-10.1602
▁pase	-10.1604
tados	-10.1604
▁líderes	-10.1607
▁Tipo	-10.1608
▁viento	-10.1609
▁distrito	-10.1609
▁histórico	-10.1612
ñó	-10.162
dd	-10.1631
▁instituciones	-10.1639
▁predi	-10.1646
▁salón	-10.1647
▁denomina	-10.1647
ndido	-10.1655
▁restaura	-10.1656
▁impulsa	-10.1657
▁animados	-10.166
▁edición	-10.1664
▁huevo	-10.167
▁posibles	-10.1676
▁Nunca	-10.1681
▁moneda	-10.1695
▁guarda	-10.1696
▁Ed	-10.1697
▁mente	-10.1698
org	-10.1698
▁controla	-10.17
▁planea	-10.1701
▁Comité	-10.1701
alamy	-10.1706
Ã	-10.1708
ood	-10.1709
▁cobertura	-10.1711
▁transparente	-10.1714
▁otorga	-10.1715
▁use	-10.1716
▁suma	-10.1716
itaria	-10.1726
ifique	-10.173
▁respuestas	-10.1732
tín	-10.1736
▁identidad	-10.1737
▁azúcar	-10.1746
▁At	-10.175
timo	-10.1753
ring	-10.1756
▁Air	-10.1757
ney	-10.1758
▁circuito	-10.1767
▁claramente	-10.1767
▁intento	-10.1771
▁suficientemente	-10.1773
▁Dra	-10.1773
▁canción	-10.1774
▁blog	-10.1779
ículo	-10.178
▁musical	-10.1782
▁condado	-10.1791
▁llave	-10.1792
▁gastos	-10.1792
▁Emp	-10.1798
▁encontrado	-10.1802
▁Dia	-10.1805
▁formulario	-10.1806
▁War	-10.1806
nico	-10.1815
▁Tierra	-10.1816
▁renta	-10.1821
▁virus	-10.1825
▁espiritual	-10.1833
tando	-10.1833
▁estudia	-10.1835
tones	-10.1836
▁siento	-10.184
▁comienzo	-10.184
▁Cre	-10.1842
▁Android	-10.1843
▁ejecuta	-10.1847
▁iba	-10.1847
▁comando	-10.1849
▁AliExpress	-10.1851
▁pesa	-10.1853
taria	-10.1853
▁eficiencia	-10.1862
ID	-10.1866
▁término	-10.1867
way	-10.1868
rones	-10.1871
▁hubo	-10.1891
▁fabricación	-10.1891
▁pobre	-10.1892
▁Zo	-10.1898
▁recibió	-10.1901
ola	-10.1902
▁Real	-10.1903
▁capítulo	-10.1906
▁empleado	-10.1909
▁aluminio	-10.191
▁reacción	-10.1923
▁expertos	-10.1927
▁acelera	-10.193
llar	-10.1937
▁certificado	-10.1945
oma	-10.1946
▁usado	-10.1946
ccion	-10.1947
▁hermana	-10.1947
carga	-10.1956
▁Shi	-10.1958
▁silencio	-10.196
iéndose	-10.196
▁enemigo	-10.1965
IP	-10.1968
▁peor	-10.1969
▁iniciar	-10.1971
▁espíritu	-10.1972
▁habitual	-10.1973
ducida	-10.1975
cy	-10.1976
▁iniciativa	-10.1978
▁recibido	-10.1981
▁©	-10.1986
\	-10.1986
▁llamar	-10.1992
diente	-10.1992
▁PRO	-10.1996
▁llevó	-10.1997
▁aporta	-10.1998
▁marketing	-10.2
gg	-10.2002
▁páginas	-10.2003
▁Japón	-10.2004
▁hecha	-10.2006
▁personalizado	-10.2007
cara	-10.2007
▁piensa	-10.2015
▁audiencia	-10.202
▁puertas	-10.2022
▁interfaz	-10.2027
▁distintos	-10.2031
TU	-10.2034
icos	-10.2034
▁pocos	-10.2037
cómo	-10.2041
▁marcas	-10.2043
▁inmediato	-10.2045
▁CD	-10.2045
▁ritmo	-10.2052
▁automóvil	-10.2053
▁defensa	-10.2055
iones	-10.2057
▁animal	-10.206
▁ubicado	-10.2064
rías	-10.2064
SS	-10.2079
▁automático	-10.2086
▁perros	-10.209
▁zapatos	-10.2095
MO	-10.2099
▁examina	-10.211
USD	-10.2112
▁precisa	-10.2115
▁tarjetas	-10.2118
▁Nombre	-10.2121
▁recon	-10.2123
▁cómodo	-10.2129
▁configurar	-10.2134
▁analiza	-10.2136
▁inclu	-10.2137
▁chino	-10.2143
▁plantilla	-10.2146
cero	-10.2149
▁operativo	-10.2155
▁estatal	-10.2158
▁espalda	-10.2164
▁externo	-10.2165
▁integra	-10.217
tive	-10.218
▁restaurantes	-10.2181
▁profundo	-10.2183
iana	-10.219
▁organismo	-10.2192
▁Val	-10.2193
▁Mira	-10.2199
▁pelea	-10.2206
▁nutri	-10.2207
▁implementación	-10.2208
▁ángulo	-10.2211
▁Retrato	-10.2211
▁préstamo	-10.2214
▁recomienda	-10.2216
▁leyes	-10.2217
▁Cro	-10.2218
▁pedir	-10.2218
▁taza	-10.2232
ity	-10.2241
▁tratando	-10.2244
zón	-10.2248
▁exige	-10.225
▁mover	-10.225
▁mascota	-10.2255
▁David	-10.2263
dir	-10.2271
▁ambas	-10.2278
▁fuerzas	-10.2286
▁intereses	-10.2292
▁ejecución	-10.2293
▁trasera	-10.2295
▁neuro	-10.2297
▁encontró	-10.2297
titud	-10.23
▁malo	-10.2307
▁cercano	-10.2308
CT	-10.2311
▁tiro	-10.2313
▁viernes	-10.2317
▁conciencia	-10.2319
Ú	-10.2321
▁clínica	-10.2329
▁cifra	-10.2331
▁pin	-10.2333
iera	-10.2334
▁pasó	-10.2335
tista	-10.2338
▁pesca	-10.2343
ford	-10.2348
▁misión	-10.2359
▁hombro	-10.2361
enti	-10.2363
▁Star	-10.2364
poli	-10.2369
lización	-10.2373
▁lluvia	-10.2378
▁sólido	-10.2379
PE	-10.2387
▁eficaz	-10.2387
duce	-10.2389
▁diversos	-10.239
▁deberían	-10.2403
▁intro	-10.2405
▁normalmente	-10.2405
▁fábrica	-10.2411
▁profundidad	-10.2413
▁Brasil	-10.2415
xa	-10.2416
▁particularmente	-10.2417
▁Debido	-10.2426
▁canales	-10.2427
▁miles	-10.2428
▁álbum	-10.2429
▁relevante	-10.2437
▁arena	-10.244
▁luces	-10.2441
ub	-10.2442
orienta	-10.2442
▁significado	-10.2447
▁humo	-10.2454
▁Han	-10.2455
▁recién	-10.2455
▁exclusiva	-10.2456
vil	-10.2465
if	-10.2466
TER	-10.2469
▁firme	-10.2473
▁estadounidenses	-10.2478
▁Gal	-10.248
▁Servicios	-10.2481
▁Estamos	-10.2482
▁disposición	-10.2483
▁terminar	-10.2485
▁conectado	-10.2486
▁Facebook	-10.2487
▁Sobre	-10.2487
▁extraño	-10.249
▁declara	-10.249
ning	-10.2492
▁w	-10.2497
▁rey	-10.2497
mita	-10.2498
▁empresarial	-10.2499
▁alma	-10.25
▁darle	-10.2502
llado	-10.2502
▁índice	-10.2506
▁alcohol	-10.2518
▁impuestos	-10.252
▁Ku	-10.252
▁»	-10.2522
▁nombres	-10.2529
▁biblioteca	-10.2529
tieron	-10.2532
tracción	-10.2533
▁planeta	-10.2537
inas	-10.2538
▁descargar	-10.2538
▁servir	-10.2538
▁debemos	-10.254
▁diversas	-10.2542
pie	-10.2545
▁brindar	-10.2546
▁proveedor	-10.2547
▁voy	-10.2548
▁Parte	-10.255
▁prensa	-10.255
gráfico	-10.2551
▁menores	-10.2553
▁móviles	-10.2556
▁vacío	-10.2558
▁generar	-10.2559
▁rea	-10.2559
▁declaración	-10.2559
▁Bal	-10.2561
▁específico	-10.2562
{	-10.2569
▁norma	-10.2573
▁permi	-10.2578
▁identifica	-10.258
fla	-10.2587
CIÓN	-10.2587
▁Gen	-10.2589
▁Australia	-10.2592
▁mercados	-10.2594
▁interesa	-10.2597
▁Canadá	-10.2599
▁definición	-10.26
▁presiona	-10.2603
▁parámetros	-10.2603
▁sosten	-10.2604
▁preparación	-10.2612
▁puente	-10.2619
▁facilita	-10.262
BI	-10.2623
▁quieren	-10.2629
▁lenguaje	-10.2635
▁Microsoft	-10.2635
▁recordar	-10.2637
▁depósito	-10.2638
▁periodo	-10.2646
MB	-10.2646
▁campos	-10.2648
NU	-10.2649
▁Tom	-10.2655
psi	-10.2661
SD	-10.267
▁carbono	-10.2677
▁Sho	-10.2679
▁avance	-10.268
▁relacionadas	-10.2683
▁hicieron	-10.2683
gna	-10.2683
▁Hasta	-10.2685
▁É	-10.2685
egi	-10.2687
▁dientes	-10.2688
▁escritorio	-10.269
dé	-10.2691
lf	-10.2692
flu	-10.2692
▁propias	-10.2694
vista	-10.2695
▁vertical	-10.2697
▁tengan	-10.2698
▁tensión	-10.27
▁curva	-10.2701
▁obstante	-10.2702
▁fila	-10.2703
▁convertirse	-10.2704
▁alojamiento	-10.2704
▁completar	-10.2705
mini	-10.2706
▁dé	-10.2706
arios	-10.271
camp	-10.271
▁horario	-10.2712
▁manejo	-10.2715
▁reforma	-10.2715
▁procesa	-10.2721
▁estrés	-10.2732
▁Cualquier	-10.2739
▁pastel	-10.274
fro	-10.2747
cencia	-10.2748
part	-10.275
prohibi	-10.2751
die	-10.2755
▁receptor	-10.2755
▁representante	-10.2756
NC	-10.2759
▁PA	-10.2759
▁secreto	-10.2759
tia	-10.2759
box	-10.2766
mada	-10.2767
duras	-10.2769
mico	-10.2777
▁viajes	-10.2779
▁solamente	-10.278
ICA	-10.2798
▁cuya	-10.2799
▁situaciones	-10.28
▁existencia	-10.2805
activo	-10.2807
▁alumnos	-10.2823
ienta	-10.2829
▁específicos	-10.2829
▁válvula	-10.2831
▁sencilla	-10.2835
mentación	-10.2837
▁militar	-10.2839
▁requieren	-10.2842
ire	-10.2843
[	-10.2849
IF	-10.2856
ografía	-10.286
▁registros	-10.2861
▁videos	-10.2868
▁viola	-10.2868
lares	-10.2874
▁ducha	-10.2876
▁aventura	-10.2877
▁ayudará	-10.2886
▁revista	-10.2893
▁acondicionado	-10.2897
▁medicina	-10.29
▁Esa	-10.2901
har	-10.2904
lice	-10.2906
III	-10.291
▁gusto	-10.2915
▁generales	-10.2916
▁Alamy	-10.2917
parte	-10.2934
▁agentes	-10.2936
▁hechos	-10.2943
espera	-10.2943
ev	-10.2943
▁dicen	-10.2946
▁estrategias	-10.2948
▁Tur	-10.2953
▁Fran	-10.2956
▁Muchas	-10.296
▁parcial	-10.2962
▁descon	-10.2965
lip	-10.2969
▁Unión	-10.297
▁actuales	-10.2974
▁preparar	-10.298
▁cirugía	-10.298
».	-10.2985
ctu	-10.2989
▁motiva	-10.299
quilla	-10.2995
▁extremadamente	-10.2995
▁encuentro	-10.2996
▁caracteriza	-10.2998
IE	-10.3003
imiento	-10.3004
▁hablando	-10.3005
Está	-10.3005
▁vota	-10.3006
tamina	-10.3008
▁enfoca	-10.3009
▁perdido	-10.3011
▁Vestido	-10.3015
visor	-10.3016
▁compensa	-10.3016
Mo	-10.3019
▁encontrará	-10.3019
▁descripción	-10.3021
▁UE	-10.3023
▁reales	-10.3027
▁matrimonio	-10.303
▁estimula	-10.3032
▁famoso	-10.3033
▁descubrir	-10.304
▁colabora	-10.3043
▁negativo	-10.3044
▁Bre	-10.3046
osas	-10.3049
▁textura	-10.305
vuelto	-10.3051
▁seleccionado	-10.3052
▁Usted	-10.3056
▁inoxidable	-10.3064
stitución	-10.3067
gno	-10.3072
▁Porque	-10.3075
king	-10.3077
▁significativo	-10.3079
▁rostro	-10.3083
▁Pan	-10.3085
▁desempeño	-10.3086
▁contribuye	-10.3088
TRA	-10.3089
▁Hab	-10.3092
▁avanza	-10.3093
▁espectáculo	-10.3093
▁investigadores	-10.3094
lino	-10.3096
▁constituye	-10.3097
▁seguros	-10.3099
▁bienes	-10.3099
▁ligero	-10.3101
▁Director	-10.3106
▁actualización	-10.3109
▁Rusia	-10.3116
char	-10.3118
▁atractivo	-10.3119
▁caída	-10.3122
▁Israel	-10.3124
duzca	-10.3127
activa	-10.3129
▁sacar	-10.3133
mato	-10.3135
▁té	-10.3138
QUE	-10.314
▁nieve	-10.3142
▁amable	-10.3147
▁niñas	-10.3151
@	-10.3154
ier	-10.3156
▁secundario	-10.316
▁Finalmente	-10.3163
▁tercera	-10.3167
▁intentar	-10.3171
UL	-10.3178
▁West	-10.3179
▁Isla	-10.318
▁vaya	-10.3182
▁profunda	-10.3184
▁corresponde	-10.3185
▁olvida	-10.3188
▁episodio	-10.3193
▁domingo	-10.3201
▁flota	-10.3202
▁talento	-10.3204
mitir	-10.3208
▁diálogo	-10.3214
▁imper	-10.3214
sistencia	-10.322
▁honor	-10.3226
▁primavera	-10.323
▁alquiler	-10.3233
▁beneficio	-10.3235
▁agente	-10.3237
▁Page	-10.3239
▁comprensión	-10.3239
▁flexible	-10.3241
▁juicio	-10.3242
▁externa	-10.3243
▁limpio	-10.3248
▁VI	-10.3251
▁transporta	-10.3255
▁iPhone	-10.3256
▁epi	-10.3257
CR	-10.3257
▁Cri	-10.3263
▁cumple	-10.3266
▁factura	-10.3272
BC	-10.3272
▁terapia	-10.3273
ñi	-10.3273
▁Otro	-10.3275
▁dibujo	-10.3276
▁Gri	-10.3278
▁interesado	-10.3281
bé	-10.329
▁optimiza	-10.3294
▁sale	-10.3296
Quién	-10.3301
▁cuánto	-10.3305
▁innovador	-10.3311
%)	-10.3312
Pod	-10.3313
illas	-10.3315
▁insta	-10.3316
▁detalle	-10.3316
▁Guerra	-10.3319
▁dibuja	-10.332
varia	-10.332
▁lunes	-10.3323
▁probabilidad	-10.3325
▁únicamente	-10.3328
▁Derecho	-10.3333
▁Muy	-10.3333
just	-10.3339
▁Sch	-10.3341
▁causar	-10.3347
▁fuertes	-10.3348
ej	-10.3348
▁ataca	-10.335
▁hidro	-10.3351
▁regiones	-10.3352
izó	-10.3355
▁tribunal	-10.3356
▁tomó	-10.3357
▁sábado	-10.3358
pero	-10.3361
TR	-10.3363
▁dispara	-10.3371
▁publicado	-10.3371
▁examen	-10.3377
▁permiso	-10.3379
▁apoyar	-10.3382
▁tampoco	-10.3385
▁vive	-10.3393
▁Blanco	-10.3398
▁millas	-10.3401
▁montaje	-10.3407
▁liga	-10.3408
▁músculo	-10.3409
▁prioridad	-10.3413
▁recuperar	-10.3415
▁llamadas	-10.3416
▁colocar	-10.342
▁equilibrio	-10.3422
tamos	-10.3424
gh	-10.3427
▁pon	-10.3427
IG	-10.3428
▁populares	-10.3431
▁Aplica	-10.3434
▁vea	-10.3436
▁mirar	-10.3437
▁determinado	-10.3438
▁Pie	-10.3438
▁apertura	-10.3438
▁Sólo	-10.3444
▁dispuesto	-10.3445
▁rico	-10.3451
▁razonable	-10.3451
▁consejos	-10.3455
▁habrá	-10.3455
▁infraestructura	-10.3459
▁SU	-10.3461
▁estados	-10.3463
deo	-10.3463
ture	-10.3464
▁administrador	-10.3464
▁límites	-10.3468
▁arco	-10.3471
▁tecla	-10.3473
▁Apple	-10.3473
▁industrial	-10.3473
▁evalua	-10.3477
▁establecimiento	-10.348
▁hiper	-10.3481
▁escapa	-10.3482
▁"¿	-10.3483
gica	-10.3485
▁podrán	-10.3487
▁Insta	-10.3492
▁entrenador	-10.3492
▁relativamente	-10.35
tha	-10.35
dico	-10.3501
▁fun	-10.3503
▁pescado	-10.3505
▁intercambio	-10.3524
▁Forma	-10.3529
▁ejército	-10.3531
▁integrado	-10.3533
▁territorio	-10.3538
▁extensión	-10.3541
VI	-10.3547
▁componente	-10.3547
nic	-10.355
GO	-10.3551
▁rol	-10.3555
▁evita	-10.3563
▁posibilidades	-10.3564
▁Artículo	-10.3565
▁Europea	-10.3566
▁colaboración	-10.3568
▁automática	-10.3569
▁explo	-10.3571
ólica	-10.3579
▁previa	-10.3583
▁tradicionales	-10.3586
tral	-10.3588
▁protector	-10.3591
▁arquitectura	-10.3593
▁fan	-10.3595
▁lavado	-10.3597
▁reuniones	-10.3602
▁europeo	-10.361
▁terraza	-10.361
▁cultural	-10.3612
▁iluminación	-10.3615
▁parecen	-10.3619
▁caza	-10.3623
monio	-10.3626
▁bloquea	-10.363
▁cumplimiento	-10.3634
▁ahorra	-10.3639
ducido	-10.3639
▁dijeron	-10.3641
▁negativa	-10.3644
▁comunica	-10.3647
▁identificación	-10.3647
▁consumidores	-10.3648
▁demostr	-10.3649
MC	-10.3652
▁pod	-10.3654
UU	-10.3654
▁uniforme	-10.3657
▁estadística	-10.3661
▁guardar	-10.3664
vesti	-10.3667
▁contraseña	-10.3672
▁Roma	-10.3673
front	-10.3674
▁AL	-10.3678
▁Mag	-10.3682
▁borra	-10.3683
▁Derechos	-10.3689
▁tanta	-10.3689
▁juega	-10.3692
▁apaga	-10.3698
▁sombra	-10.3701
mental	-10.3704
▁Desarrollo	-10.3708
tillo	-10.3709
RS	-10.371
▁Juan	-10.3714
▁Paul	-10.3714
▁conducir	-10.3717
▁lesiones	-10.3717
lector	-10.3723
▁vibra	-10.3727
▁integral	-10.3733
disciplina	-10.3735
▁lengua	-10.3742
articula	-10.3743
tán	-10.3744
▁ejecutivo	-10.3745
iento	-10.3756
▁Inglaterra	-10.3758
▁distintas	-10.3759
pé	-10.376
▁vende	-10.3761
▁ubica	-10.3761
visión	-10.3762
▁daños	-10.3764
▁característica	-10.3766
vía	-10.3766
chó	-10.3767
▁capacitación	-10.3773
▁crítico	-10.3775
▁reconocimiento	-10.378
osos	-10.3783
▁supone	-10.3784
CP	-10.3785
▁Mal	-10.3788
llen	-10.3789
iste	-10.3795
▁magn	-10.3797
▁visitantes	-10.3799
▁hierba	-10.3799
▁estándares	-10.3801
▁África	-10.3801
▁sienta	-10.3811
ductor	-10.3812
▁Venta	-10.3812
ville	-10.3815
▁vitamina	-10.3818
▁edificios	-10.3823
▁específicas	-10.3829
rada	-10.3829
▁desee	-10.383
ñ	-10.3831
▁actitud	-10.3835
Le	-10.3846
▁señales	-10.3847
nuncia	-10.3848
▁Black	-10.3848
▁Uni	-10.385
▁operador	-10.3858
▁ordenador	-10.3858
lum	-10.386
▁provincia	-10.3868
▁Trump	-10.3873
lva	-10.3884
▁aprecia	-10.3885
▁Seleccione	-10.3885
▁soldado	-10.3886
▁DHgate	-10.3889
▁vamos	-10.389
▁República	-10.3894
▁www	-10.3898
▁apariencia	-10.3899
▁abandona	-10.3899
▁artista	-10.3899
▁complementa	-10.391
▁Sea	-10.3912
▁oficiales	-10.3918
▁Parque	-10.3922
▁bienestar	-10.3925
NS	-10.3925
▁Imp	-10.3926
▁luna	-10.3936
▁recuerda	-10.3938
▁hielo	-10.3939
GB	-10.3941
▁preparado	-10.3941
▁Asia	-10.3942
▁limitado	-10.3943
▁Descripción	-10.395
▁otoño	-10.395
tén	-10.396
▁ingredientes	-10.396
PR	-10.3972
venta	-10.3973
ordina	-10.3974
ística	-10.3974
▁cálculo	-10.3978
▁justicia	-10.3982
▁actuar	-10.3984
▁compañeros	-10.3985
quisi	-10.3988
EST	-10.3991
▁·	-10.3992
▁química	-10.3992
▁abs	-10.3997
▁francés	-10.3997
igu	-10.4
<	-10.4002
▁facilitar	-10.4006
▁alarma	-10.4008
dilla	-10.4009
▁deportivo	-10.4011
métrica	-10.4019
▁vapor	-10.4019
▁Bru	-10.4022
▁supera	-10.4027
ram	-10.4028
ult	-10.4029
▁ruedas	-10.4032
▁grados	-10.4035
▁esquina	-10.4042
▁terror	-10.4044
HO	-10.4044
▁porcentaje	-10.405
▁carpeta	-10.405
▁drogas	-10.405
▁presentan	-10.4051
▁dormir	-10.4052
geno	-10.4054
ientes	-10.4057
▁Museo	-10.4058
ENT	-10.4062
▁consciente	-10.4073
oides	-10.4074
▁diseñada	-10.4074
itis	-10.4084
▁amiga	-10.4089
low	-10.4094
berg	-10.4095
▁taller	-10.4102
terra	-10.4106
IB	-10.4108
▁profe	-10.4111
▁Estaba	-10.4111
▁hierro	-10.4112
clasifica	-10.4113
▁promover	-10.4118
▁funcionar	-10.412
bert	-10.4121
▁pose	-10.4124
▁canciones	-10.4127
▁ultra	-10.413
▁planificación	-10.4133
▁tratado	-10.4133
▁regreso	-10.4137
▁William	-10.4138
▁trastorno	-10.4141
▁http	-10.4142
▁Grand	-10.4148
cker	-10.4149
cú	-10.4151
▁cómoda	-10.4152
Necesita	-10.4152
mula	-10.4154
▁habilidad	-10.4154
▁vender	-10.4155
Al	-10.4157
▁siguen	-10.416
ector	-10.4167
▁ganado	-10.417
▁cerrar	-10.418
▁Chris	-10.4181
▁dije	-10.4192
Su	-10.4193
script	-10.4194
▁Negro	-10.4195
▁AC	-10.4197
▁Tengo	-10.4203
▁creciente	-10.4207
▁consulte	-10.4213
▁Bur	-10.4213
gor	-10.4215
▁bandera	-10.4217
▁perfectamente	-10.4218
OC	-10.4235
▁ámbito	-10.4238
▁candidato	-10.4239
▁situado	-10.4241
pin	-10.4242
dre	-10.4253
▁hayan	-10.4257
▁emocional	-10.426
▁atrapa	-10.4264
▁°	-10.4272
▁invención	-10.4273
▁autoridad	-10.4274
▁plata	-10.4277
ill	-10.4278
mul	-10.4278
▁ustedes	-10.4279
▁aleja	-10.4279
▁acabado	-10.4284
▁mirada	-10.4284
▁pocas	-10.4291
▁ocasiones	-10.4296
▁ejecutar	-10.4297
▁rota	-10.43
▁federal	-10.4302
espec	-10.4307
▁realizó	-10.4308
▁rompe	-10.4309
▁consejo	-10.4309
▁paredes	-10.431
▁imposible	-10.431
▁torre	-10.4313
▁algodón	-10.432
▁Barcelona	-10.4327
▁Tenemos	-10.4328
▁define	-10.4328
▁{	-10.4329
▁Fer	-10.433
▁mg	-10.4337
RC	-10.4339
▁volvió	-10.4349
▁Había	-10.4361
ciencia	-10.4366
iano	-10.4367
▁vaso	-10.4368
Ho	-10.4372
▁pasada	-10.4379
▁sostenible	-10.4389
▁quitar	-10.4391
Pro	-10.4397
melo	-10.4402
ífico	-10.4403
livia	-10.4403
▁City	-10.4404
▁Oficina	-10.4407
▁Material	-10.4407
cura	-10.4408
▁Compre	-10.4416
▁Compra	-10.4419
▁altera	-10.442
▁teniendo	-10.4421
▁brazo	-10.4421
▁naranja	-10.4422
▁limitada	-10.4424
▁trasero	-10.4426
▁rural	-10.4426
nomía	-10.4429
ENTE	-10.4429
▁progreso	-10.443
▁paseo	-10.443
▁notas	-10.4433
▁descuento	-10.4433
wer	-10.4434
▁plana	-10.4438
▁procesamiento	-10.4439
▁amar	-10.4445
▁instrumentos	-10.4447
fal	-10.4448
▁designa	-10.4452
▁Nos	-10.4455
▁bola	-10.4456
▁presentado	-10.4457
▁onda	-10.4468
▁recopila	-10.4471
▁contienen	-10.448
▁Escuela	-10.4482
ándolo	-10.4484
▁intención	-10.4486
▁demostrado	-10.4491
BS	-10.4491
▁proteínas	-10.4497
▁Especial	-10.4506
▁poca	-10.4508
▁limpiar	-10.451
▁concentración	-10.4512
▁Código	-10.4512
güe	-10.4514
▁escritura	-10.4516
▁notifica	-10.4517
▁cubre	-10.4519
▁demostrar	-10.452
▁elevado	-10.4521
▁específica	-10.4522
▁recorrido	-10.4527
▁infección	-10.4527
▁patio	-10.4531
▁sujeta	-10.4533
▁financieros	-10.4537
Cu	-10.4539
ding	-10.454
ttle	-10.4543
▁ambiental	-10.4547
public	-10.4549
▁mirando	-10.4551
▁incrementa	-10.4556
▁viajar	-10.4559
▁avión	-10.4569
~	-10.4578
▁cerveza	-10.458
▁crema	-10.458
ieran	-10.4582
▁círculo	-10.4588
▁Media	-10.4595
▁simula	-10.4597
▁Actualmente	-10.46
▁interruptor	-10.46
▁oído	-10.4611
▁plantea	-10.4613
migra	-10.4615
STA	-10.4617
▁patrones	-10.462
▁Seguridad	-10.4625
tipo	-10.4626
▁caminar	-10.4635
bier	-10.4638
eja	-10.4638
▁corporal	-10.4638
▁molde	-10.4639
▁primaria	-10.464
ferente	-10.4643
▁tanque	-10.4647
▁difíciles	-10.4651
ü	-10.4652
▁teclado	-10.4655
▁sentado	-10.4655
▁Inicio	-10.4657
▁realizada	-10.4662
▁online	-10.4667
▁Central	-10.4674
▁pecado	-10.4678
▁lente	-10.4679
▁Mini	-10.4679
▁filtra	-10.4685
▁electrónica	-10.4686
▁innovación	-10.4687
▁My	-10.4688
▁instancia	-10.4689
▁Cap	-10.4689
▁impresora	-10.4689
▁MO	-10.469
▁triste	-10.4696
inter	-10.47
▁suele	-10.4707
▁artistas	-10.4714
▁Compar	-10.4717
▁bolsillo	-10.472
▁prevenir	-10.4723
▁hueso	-10.4725
▁Public	-10.4726
▁Corre	-10.473
▁humedad	-10.4732
▁enseñanza	-10.4734
▁James	-10.4735
▁pendiente	-10.4735
▁inde	-10.4736
▁Washington	-10.4738
▁Ch	-10.474
▁piloto	-10.4743
▁debate	-10.475
leo	-10.4752
▁kit	-10.4753
▁localiza	-10.4757
lito	-10.4761
▁baila	-10.4762
▁aceptar	-10.4763
▁existentes	-10.4765
▁horno	-10.4765
▁anuncios	-10.4769
▁esquema	-10.4772
▁asistente	-10.4773
▁bebidas	-10.4774
▁cerrado	-10.4775
pina	-10.4776
▁explicar	-10.4776
▁agrícola	-10.4779
▁roca	-10.4781
▁expectativa	-10.4786
ball	-10.4787
▁consiste	-10.4788
▁soporta	-10.479
▁novia	-10.4791
▁medición	-10.4791
▁frontera	-10.4792
▁cobra	-10.48
▁Club	-10.48
▁brazos	-10.4801
▁diciendo	-10.4803
▁composición	-10.4808
▁haz	-10.4813
™	-10.4819
▁versiones	-10.4823
▁golpea	-10.4837
LL	-10.4845
▁aquella	-10.4847
▁Inc	-10.4847
▁asociación	-10.4849
▁lámpara	-10.485
▁conduce	-10.4856
▁revisa	-10.4857
▁impulso	-10.4857
▁Natural	-10.486
▁oculta	-10.486
éis	-10.4861
▁And	-10.4864
▁procede	-10.4869
grade	-10.4872
▁cancela	-10.4873
red	-10.4876
▁criterios	-10.4881
▁Tarjeta	-10.4882
▁comi	-10.4886
▁llegado	-10.4886
▁Ese	-10.4887
▁temprano	-10.4888
▁Gre	-10.4891
EA	-10.4892
px	-10.4895
▁cá	-10.4898
▁cooperación	-10.4901
ducir	-10.4907
ómetro	-10.4909
▁Medio	-10.491
ik	-10.4917
ence	-10.4919
▁cercana	-10.4922
▁ilustra	-10.4923
▁terminal	-10.4925
▁vital	-10.4926
▁excepto	-10.4939
▁nueve	-10.4941
milla	-10.4945
▁€	-10.4949
▁envía	-10.4953
menda	-10.4954
▁corona	-10.4958
▁PARA	-10.4963
TS	-10.4975
▁sabemos	-10.4977
▁Street	-10.4983
▁Fun	-10.4984
▁Tenga	-10.4985
▁remoto	-10.4986
▁publicaciones	-10.4989
▁ajustar	-10.499
▁órgano	-10.4994
ile	-10.4998
FC	-10.5001
tismo	-10.5005
▁utilice	-10.5005
▁cubierto	-10.5005
▁universal	-10.5011
▁hoteles	-10.5017
gru	-10.5024
▁museo	-10.5034
ponga	-10.5039
▁cumpli	-10.504
▁estrecha	-10.5041
▁seguido	-10.5042
▁suelen	-10.5043
▁realización	-10.5045
ícula	-10.5047
▁solicitar	-10.505
▁extraña	-10.505
▁avanzada	-10.5053
▁cero	-10.5057
rigi	-10.5058
▁hilo	-10.5058
▁mineral	-10.506
▁Anti	-10.5063
▁Modelo	-10.5064
▁quizás	-10.5065
▁sensible	-10.5066
▁camisa	-10.5071
Quiere	-10.5071
▁bloqueo	-10.5074
▁ligeramente	-10.5083
▁detección	-10.5083
OM	-10.5083
capacita	-10.5086
▁regresa	-10.5095
▁Santo	-10.5102
▁fórmula	-10.5103
▁defecto	-10.5104
EG	-10.5108
Po	-10.5109
▁atrae	-10.5113
tine	-10.5113
▁Utiliza	-10.5116
▁capacidades	-10.5116
▁ignora	-10.5121
óxido	-10.5127
▁apropiado	-10.5129
▁integración	-10.5132
▁alinea	-10.5133
▁circunstancias	-10.5137
ómica	-10.5138
LC	-10.5141
▁resumen	-10.515
▁tornillo	-10.5156
▁voluntad	-10.516
▁partida	-10.5161
mí	-10.5162
▁ID	-10.5169
▁infla	-10.517
▁manejar	-10.517
preci	-10.5172
▁escribió	-10.5173
▁gestiona	-10.5174
ómico	-10.5175
▁ojo	-10.5179
II	-10.5179
▁liderazgo	-10.5181
▁Puerto	-10.5182
▁pregunt	-10.5182
▁cultiva	-10.5182
eado	-10.5183
▁personalidad	-10.519
▁viven	-10.5191
▁tendría	-10.5191
▁Conjunto	-10.5191
▁pantalones	-10.5191
▁moral	-10.5192
▁Paso	-10.5194
ish	-10.5195
▁controles	-10.5196
▁Spa	-10.5198
DS	-10.5201
▁artificial	-10.5201
▁Madrid	-10.5204
▁barato	-10.5207
ánico	-10.522
bit	-10.5235
▁formula	-10.5246
▁cubrir	-10.5247
▁apunta	-10.5247
▁brillo	-10.5248
▁escalera	-10.5251
▁asociada	-10.5251
▁instala	-10.5254
TC	-10.5255
rendi	-10.5258
▁viaja	-10.5259
▁embarazo	-10.5261
**	-10.5262
▁núcleo	-10.5265
▁altamente	-10.5269
CS	-10.5269
▁futura	-10.5271
▁pila	-10.5273
▁clasificación	-10.5274
▁Sam	-10.5276
▁instrumento	-10.528
LU	-10.5283
▁Personal	-10.5286
cepcion	-10.5289
nega	-10.529
▁Fal	-10.5291
▁lindo	-10.5291
▁experimento	-10.5292
▁reconoce	-10.5295
▁eficacia	-10.5296
▁Robert	-10.5297
▁gigante	-10.5305
▁Dibujo	-10.5307
▁Icono	-10.5309
▁puso	-10.531
ástica	-10.5311
ificó	-10.5311
▁representan	-10.5311
▁París	-10.5311
▁chocolate	-10.5312
▁autobús	-10.5313
▁Primero	-10.5314
▁Tan	-10.5315
▁fresca	-10.5315
▁plena	-10.5319
▁ciudadanos	-10.5321
▁sonrisa	-10.5328
▁talla	-10.533
▁gerente	-10.5333
▁abordar	-10.5335
▁permitirá	-10.5342
pido	-10.5345
▁Pra	-10.5353
▁débil	-10.5357
▁dificultades	-10.536
▁evolución	-10.5369
▁mate	-10.537
úl	-10.5373
▁conector	-10.5375
▁Presidente	-10.5375
▁pertenece	-10.5376
▁Sub	-10.5389
▁dinámica	-10.539
▁llegada	-10.54
▁Merc	-10.5404
serv	-10.5406
▁medir	-10.5408
▁científicos	-10.541
tiles	-10.541
▁presu	-10.542
▁movi	-10.5424
▁esposo	-10.5427
TP	-10.5432
▁argumento	-10.5434
tle	-10.5437
▁conmigo	-10.5438
▁funcionarios	-10.5439
▁mamá	-10.544
fici	-10.5443
▁estuviera	-10.5449
▁muebles	-10.5452
GU	-10.5456
▁visible	-10.5457
▁prima	-10.5458
▁Haz	-10.5458
▁vistazo	-10.5464
▁dará	-10.5471
▁reproducción	-10.5474
▁relacionado	-10.5475
elec	-10.5475
▁occidental	-10.5476
▁segmento	-10.548
iales	-10.548
cón	-10.5481
garra	-10.5484
▁robot	-10.5484
ident	-10.5484
▁ahorro	-10.5484
▁incendio	-10.5485
▁delante	-10.5485
▁Costa	-10.5487
▁Hola	-10.5488
▁Mejor	-10.5489
Que	-10.5491
▁vacuna	-10.5494
▁Bajo	-10.5497
▁explota	-10.5497
tificación	-10.5505
▁afectado	-10.5506
▁pollo	-10.5507
▁verá	-10.551
▁asegurarse	-10.5515
▁nacimiento	-10.5515
▁comprende	-10.5525
▁cruce	-10.5525
▁elegido	-10.5534
▁comun	-10.5539
▁desliza	-10.5542
▁inclina	-10.5543
▁previo	-10.5547
▁Padre	-10.5552
cada	-10.5552
▁suministra	-10.5553
▁culpa	-10.5554
▁asesor	-10.5557
▁expansión	-10.5564
rial	-10.5564
▁ganador	-10.5565
gico	-10.5565
▁máscara	-10.5571
▁placer	-10.5575
▁semillas	-10.5575
▁Naciones	-10.5575
▁sorprendente	-10.5577
mpo	-10.5577
▁Cree	-10.5579
ótico	-10.5582
▁disponibilidad	-10.5586
Puede	-10.5586
▁finaliza	-10.5589
▁respalda	-10.5591
▁pensando	-10.5592
isla	-10.5599
▁conveniente	-10.5605
▁útiles	-10.5606
▁definitivamente	-10.5611
uch	-10.5618
▁logro	-10.562
▁permanece	-10.562
NG	-10.5622
americana	-10.5625
▁oeste	-10.5633
▁residentes	-10.5634
ección	-10.5636
ístico	-10.5639
▁detallada	-10.5651
▁cantidades	-10.5651
entre	-10.5656
▁Corte	-10.5657
▁esperando	-10.5658
▁notable	-10.5662
▁hacía	-10.5663
▁marrón	-10.5665
▁Banco	-10.5674
mber	-10.5678
▁huéspedes	-10.5679
▁Dar	-10.5682
▁rara	-10.5683
uela	-10.5685
▁convencional	-10.5685
ugh	-10.5692
▁conexiones	-10.5692
plan	-10.5698
▁Clo	-10.5702
▁documenta	-10.5705
▁Tabla	-10.5706
▁frontal	-10.5706
Cuáles	-10.5706
financia	-10.5709
▁motores	-10.5709
▁cuerda	-10.571
▁titular	-10.5712
▁protocolo	-10.5714
▁King	-10.5715
▁traer	-10.572
cioso	-10.5721
▁Don	-10.5731
▁descanso	-10.5732
▁promoción	-10.5732
▁definir	-10.574
▁maravilloso	-10.5742
▁funcional	-10.5743
▁murió	-10.5748
▁diámetro	-10.575
▁pestaña	-10.5753
▁XX	-10.5756
▁orientación	-10.5758
Ex	-10.5762
▁Play	-10.5763
▁Instituto	-10.5765
▁conducta	-10.5765
crea	-10.5765
▁publicidad	-10.5771
▁personalizada	-10.5779
▁Michael	-10.578
▁histórica	-10.5783
▁Rey	-10.5789
▁conversación	-10.5791
manifest	-10.5796
▁prolonga	-10.5798
Pero	-10.5798
▁preocupación	-10.5798
mail	-10.58
▁pasando	-10.58
▁regresar	-10.5801
dina	-10.5806
▁dando	-10.5807
IDAD	-10.5809
▁direcciones	-10.5814
▁superar	-10.5815
KB	-10.5817
▁baile	-10.5822
▁aparato	-10.5824
▁top	-10.5824
▁raza	-10.583
▁digitales	-10.5832
▁PNG	-10.5834
▁Ze	-10.5834
NT	-10.5834
▁reclama	-10.5836
▁demuestra	-10.5837
€	-10.5842
▁encarga	-10.5842
▁presione	-10.5843
▁comparte	-10.5844
▁privacidad	-10.5847
vita	-10.5851
▁Dado	-10.5852
▁mínima	-10.5852
▁logotipo	-10.5859
▁ilumina	-10.586
▁pecho	-10.5865
▁encuentre	-10.5865
▁crecer	-10.5871
▁correr	-10.5871
▁explorar	-10.5878
▁cuestiones	-10.5879
▁Home	-10.5879
▁producido	-10.5881
▁analizar	-10.5882
▁divertida	-10.5883
▁absoluto	-10.5887
BO	-10.5894
▁libras	-10.5903
play	-10.5906
▁continuo	-10.5906
▁frase	-10.5912
▁salvaje	-10.5913
▁educa	-10.5913
lita	-10.5914
html	-10.5926
▁elecciones	-10.5928
▁botones	-10.5929
▁eliminación	-10.593
fiere	-10.5931
▁Ofrece	-10.5944
▁rechaza	-10.5945
▁apenas	-10.5946
Hay	-10.5949
ound	-10.5949
!!	-10.5951
face	-10.5951
▁Power	-10.5955
lencia	-10.5956
▁posteriores	-10.5959
▁aprovechar	-10.5961
▁relativa	-10.5964
▁agregó	-10.5966
▁actualidad	-10.5966
Persona	-10.5973
ilu	-10.5976
the	-10.5982
!!!	-10.5984
▁ganó	-10.5984
▁secreta	-10.5985
▁Estudio	-10.5985
filia	-10.599
▁respeto	-10.599
PER	-10.5993
▁intra	-10.5994
▁Hemos	-10.5994
▁Camiseta	-10.5995
><	-10.6004
▁agujero	-10.6005
▁espacial	-10.6007
▁considerado	-10.6007
Puedo	-10.6007
▁deberán	-10.6008
▁Gui	-10.601
▁constantemente	-10.6011
▁preferencia	-10.6011
▁clínico	-10.6013
▁evidente	-10.6016
▁Número	-10.6022
▁vendedor	-10.6023
▁sólida	-10.6024
▁verificar	-10.6024
viv	-10.6032
▁Hol	-10.6032
▁decidir	-10.6034
▁recomendaciones	-10.6036
▁Kit	-10.604
▁carro	-10.6045
▁invitados	-10.6051
▁amante	-10.6053
ástico	-10.6057
▁periódico	-10.6057
Dónde	-10.6058
▁jueves	-10.6067
▁rutina	-10.6074
▁presentó	-10.6079
▁espejo	-10.6081
▁misterio	-10.6082
▁facilidad	-10.6084
▁cuestiona	-10.6087
▁Toma	-10.6087
▁American	-10.609
▁anticipa	-10.6093
▁minuto	-10.6094
▁Proyecto	-10.6094
▁vegetal	-10.6095
▁Villa	-10.6097
pula	-10.61
▁matar	-10.6103
▁cambiado	-10.6104
▁muñeca	-10.6105
▁Gua	-10.6106
▁recepción	-10.6109
▁fanáticos	-10.6113
▁cata	-10.6113
jada	-10.6118
▁estudiar	-10.612
▁Junta	-10.612
▁Bea	-10.6124
▁satisfacer	-10.6127
▁construido	-10.6129
▁derrota	-10.6131
▁Temp	-10.6134
quero	-10.6137
▁Personalizacion	-10.6138
▁Soy	-10.6139
▁terminado	-10.6139
▁combate	-10.6139
▁Social	-10.614
nny	-10.6141
▁superiores	-10.6141
sky	-10.6145
▁Bla	-10.6148
▁ligera	-10.6156
▁estaría	-10.6157
▁vela	-10.6159
mán	-10.6159
▁multitud	-10.616
▁plaza	-10.6163
▁Ministerio	-10.6169
▁martes	-10.6172
▁sectores	-10.6172
▁reparación	-10.6172
▁favorita	-10.6178
▁creer	-10.6179
▁respectivamente	-10.618
EP	-10.6181
▁esperaba	-10.6182
▁mostró	-10.6186
RM	-10.6188
genera	-10.619
isto	-10.6192
▁fui	-10.6196
▁responde	-10.6198
▁Parece	-10.6199
▁dirige	-10.62
uca	-10.62
▁preguntó	-10.62
▁You	-10.6203
▁manipula	-10.6205
▁tumor	-10.6214
▁existente	-10.622
▁proteína	-10.6221
▁Contra	-10.6222
lín	-10.6222
▁Tro	-10.6231
▁creencia	-10.6231
▁afuera	-10.6231
▁acce	-10.6232
pita	-10.6234
▁cristiano	-10.6234
▁rama	-10.6239
VO	-10.6249
RT	-10.625
▁herida	-10.625
▁cuesta	-10.6256
DU	-10.6258
cino	-10.6262
▁Unidas	-10.6264
▁discurso	-10.6264
▁canta	-10.6265
figura	-10.6271
▁fáciles	-10.6273
volucion	-10.6277
▁tocar	-10.628
▁Utilice	-10.6288
▁estabilidad	-10.6289
vul	-10.6289
▁específicamente	-10.6296
▁Peter	-10.63
▁originales	-10.6301
▁incidente	-10.631
▁ronda	-10.6313
▁navegador	-10.6323
idio	-10.6324
▁comedor	-10.6324
▁Configuración	-10.6329
▁Ropa	-10.6335
▁nacido	-10.634
▁Ambos	-10.6344
▁implementar	-10.6365
▁tatuaje	-10.6375
▁tomando	-10.6376
pila	-10.638
▁tendrán	-10.6383
▁financiero	-10.6386
▁respeta	-10.6386
▁vaca	-10.6395
▁unión	-10.6395
▁láser	-10.6405
▁Precio	-10.6409
▁caer	-10.6411
▁aspira	-10.6412
▁legales	-10.6412
▁Equipo	-10.6413
rum	-10.6419
▁hallazgo	-10.6426
▁compren	-10.6427
▁horizontal	-10.6427
SM	-10.6428
▁Group	-10.643
▁discusión	-10.6432
▁George	-10.6435
▁equipada	-10.6439
▁Sab	-10.6439
▁pobreza	-10.644
▁considerable	-10.6445
Tiene	-10.6446
▁educativo	-10.6456
▁construye	-10.6458
▁exceso	-10.6459
▁confiable	-10.646
▁éste	-10.6462
▁ninguno	-10.6466
ich	-10.6467
▁izquierdo	-10.6474
▁aves	-10.6482
▁equipado	-10.6484
▁contigo	-10.6485
▁cartel	-10.6489
ware	-10.6492
▁Encuentra	-10.6499
▁terceros	-10.65
LAS	-10.65
▁direc	-10.6502
▁narra	-10.6508
▁llev	-10.6512
pí	-10.6514
colec	-10.6522
▁varía	-10.6523
▁excepcional	-10.6527
PL	-10.6527
▁ml	-10.6535
▁teatro	-10.6535
▁Uso	-10.6536
▁especialista	-10.6537
▁dueño	-10.6538
▁fría	-10.6541
▁registrado	-10.6542
▁Asociación	-10.6545
bajo	-10.6546
▁hipo	-10.6548
▁cuán	-10.6548
▁llevado	-10.6556
▁programación	-10.6566
▁mando	-10.657
LAN	-10.6573
▁estancia	-10.6586
▁Trabajo	-10.6592
▁Ejemplo	-10.6596
▁trabajan	-10.6599
▁ocasiona	-10.6603
▁codifica	-10.6603
▁instalado	-10.6603
▁detecta	-10.6608
▁enviado	-10.6611
▁Ger	-10.6611
▁Empresa	-10.6618
vertido	-10.6618
▁necesite	-10.6619
▁World	-10.6626
▁barrio	-10.6634
▁compro	-10.6647
▁salario	-10.6656
▁exclusivo	-10.6657
▁reconocer	-10.6657
▁deportes	-10.6659
▁doctor	-10.666
▁salió	-10.6663
▁peligroso	-10.6664
▁administrar	-10.6664
▁vieja	-10.6674
▁lineal	-10.6681
▁Educación	-10.6688
▁crece	-10.669
▁complemento	-10.6694
▁Año	-10.6696
▁Opera	-10.6699
▁cabe	-10.6703
▁gimnasio	-10.6707
▁miércoles	-10.6707
▁vínculo	-10.6711
vascular	-10.6716
▁record	-10.6716
hop	-10.6717
▁vienen	-10.6721
▁editor	-10.6723
GE	-10.6723
▁mancha	-10.6731
▁admite	-10.6732
bú	-10.6735
▁Simplemente	-10.6735
▁Corea	-10.6736
▁consola	-10.6741
▁inteligencia	-10.6745
▁actuación	-10.6746
▁pico	-10.675
▁estarán	-10.6751
▁golf	-10.6755
▁olor	-10.6757
▁vuelva	-10.6757
admi	-10.676
▁ADN	-10.6762
▁oración	-10.6764
▁Guía	-10.6766
▁María	-10.6767
▁revisar	-10.6768
▁ministro	-10.6772
▁relaciona	-10.6772
▁Asegúrese	-10.6773
▁Hy	-10.6774
tología	-10.6778
ólico	-10.6778
▁justifica	-10.6788
▁Ayuda	-10.6788
▁comenta	-10.6791
▁lento	-10.6792
▁judío	-10.6795
▁Colombia	-10.6796
▁regalías	-10.6796
▁permita	-10.6798
▁ingeniería	-10.6798
▁anuncio	-10.6799
▁pesado	-10.6802
▁Green	-10.6802
CL	-10.6803
▁aparecen	-10.6805
ótica	-10.6805
▁actúa	-10.6808
BR	-10.6808
▁transición	-10.6811
Li	-10.6815
qua	-10.6817
▁voto	-10.6817
▁Patri	-10.682
▁petróleo	-10.682
▁creativo	-10.6822
▁pulsa	-10.6824
▁infra	-10.6824
posicion	-10.6824
Ro	-10.6825
marca	-10.6827
▁mata	-10.6828
mérica	-10.6829
▁determinada	-10.6829
▁kg	-10.6831
▁pulse	-10.6833
▁voluntario	-10.6843
▁investigaciones	-10.6845
▁gubernamental	-10.6866
▁Cho	-10.6867
RU	-10.6875
▁prevención	-10.6876
▁Cuenta	-10.6876
▁Rosa	-10.6878
tendi	-10.6881
▁pol	-10.6883
▁Argentina	-10.6885
cket	-10.6888
▁potente	-10.6895
▁condena	-10.6905
▁Espero	-10.6906
▁Serie	-10.6907
▁raíces	-10.6908
▁académico	-10.6911
▁desempeña	-10.6918
Mu	-10.6919
▁esenciales	-10.6921
cesión	-10.6929
▁inversiones	-10.6932
▁rod	-10.6939
▁representación	-10.6939
zer	-10.6943
▁obtenido	-10.6944
▁poderoso	-10.6949
OP	-10.6951
▁montón	-10.6954
▁ausencia	-10.6955
▁europea	-10.6965
▁fenómeno	-10.6965
▁implementa	-10.6967
DR	-10.6968
▁giro	-10.6969
▁clásica	-10.697
▁científica	-10.6972
▁Bill	-10.6973
▁moto	-10.6975
▁Gold	-10.6975
▁salsa	-10.6979
▁Cámara	-10.6979
color	-10.6979
circ	-10.6979
▁espero	-10.6987
▁intensidad	-10.699
▁subir	-10.6993
pot	-10.6995
▁sofá	-10.6997
▁organizado	-10.7002
▁indicador	-10.7002
▁dedicado	-10.7005
▁apropiada	-10.7009
▁sexy	-10.7012
IDA	-10.7012
▁escritor	-10.7012
▁tranquilo	-10.7014
▁sombrero	-10.7023
▁bonito	-10.7023
▁pierde	-10.7025
▁mensual	-10.7026
lismo	-10.703
▁humanidad	-10.7031
▁comentario	-10.7031
▁vectores	-10.7033
▁tuve	-10.7034
tabiliza	-10.7034
▁freno	-10.7036
▁kilómetros	-10.7036
ction	-10.7044
burgo	-10.7046
▁mecánica	-10.705
▁hice	-10.7053
▁ilegal	-10.7053
▁literatura	-10.7055
▁Florida	-10.7057
▁casco	-10.7058
▁intervención	-10.7058
MEN	-10.7059
▁arroz	-10.7066
goberna	-10.7066
▁concreto	-10.7068
▁equivalente	-10.7071
▁informó	-10.7072
▁recicla	-10.7074
▁Quiero	-10.708
▁femenino	-10.7082
▁jugando	-10.7082
▁Texas	-10.7087
▁reemplaza	-10.7089
río	-10.7089
▁rueda	-10.7093
PC	-10.7093
▁aprobación	-10.7097
Busca	-10.7097
▁autores	-10.7097
tenedor	-10.7103
▁jugo	-10.7111
dela	-10.7113
▁alegría	-10.7116
▁añadir	-10.712
field	-10.7124
▁Bien	-10.713
fico	-10.7132
▁nuclear	-10.7133
▁ingreso	-10.7138
metría	-10.7144
▁recupera	-10.7156
▁tradición	-10.7158
▁host	-10.7161
FE	-10.7162
▁Capítulo	-10.7166
▁gasta	-10.7168
▁merece	-10.7168
▁euros	-10.7169
▁densidad	-10.7173
▁One	-10.719
▁práctico	-10.719
ffe	-10.719
▁Top	-10.7194
▁involucrado	-10.7208
▁intervalo	-10.7209
▁aquel	-10.721
▁tropical	-10.7211
▁goma	-10.7212
text	-10.7213
neu	-10.7217
▁querido	-10.7217
juga	-10.7219
▁división	-10.722
out	-10.7225
▁interpretación	-10.7232
CM	-10.7233
▁utilidad	-10.724
puta	-10.7241
▁interacción	-10.7244
▁templo	-10.7244
pela	-10.7245
▁absolutamente	-10.7247
▁Chile	-10.7248
▁Prote	-10.7251
▁relacionada	-10.7251
▁ambientales	-10.7251
▁Win	-10.7255
▁avanzado	-10.7257
▁Existen	-10.7262
▁Casi	-10.7274
▁concierto	-10.7275
▁labios	-10.7275
▁maneja	-10.7278
▁bonita	-10.7279
▁verduras	-10.7279
▁Use	-10.728
▁reducido	-10.7282
▁Rock	-10.7282
▁Mujeres	-10.7284
▁Twitter	-10.7289
▁prácticamente	-10.7297
▁ésta	-10.7301
▁sorpresa	-10.7308
▁rodilla	-10.7318
ecta	-10.732
▁salta	-10.7324
▁Informe	-10.7324
▁reporta	-10.7324
▁Monta	-10.7326
CION	-10.7328
▁decidió	-10.7332
▁calma	-10.7332
▁cuándo	-10.7334
▁dirigido	-10.7334
▁entidad	-10.7338
▁abuso	-10.734
▁religión	-10.7343
▁encontramos	-10.7343
▁navegación	-10.7345
▁dorado	-10.7349
▁tolera	-10.7353
▁británico	-10.7355
▁opcional	-10.7356
▁calendario	-10.7359
▁Trabaja	-10.7359
▁permanecer	-10.736
mentario	-10.736
▁Azul	-10.736
▁Fra	-10.7361
▁morir	-10.7361
▁recompensa	-10.7367
▁diversidad	-10.7369
▁muscular	-10.7371
▁llegue	-10.7375
▁internet	-10.7378
▁Marco	-10.7378
▁opiniones	-10.7381
▁cuchara	-10.7396
▁probado	-10.7396
▁identificado	-10.7397
▁alerta	-10.7399
▁recurso	-10.7404
tula	-10.7405
▁aborda	-10.7407
cribir	-10.7407
presa	-10.741
▁perfora	-10.741
▁Tribunal	-10.7411
lló	-10.7412
▁Tamaño	-10.7415
▁raíz	-10.7418
cionado	-10.742
▁intelectual	-10.7422
▁régimen	-10.7431
SH	-10.7432
▁Todavía	-10.7432
▁dimensiones	-10.7432
▁destacado	-10.7433
TRO	-10.744
▁necesitaba	-10.7445
▁pura	-10.7448
▁mol	-10.7451
▁Consulte	-10.7452
SL	-10.7454
cilia	-10.7454
▁electricidad	-10.7455
▁bienvenida	-10.7457
▁Congreso	-10.7457
▁legislación	-10.7458
▁partículas	-10.7461
▁Incluye	-10.7466
▁pulg	-10.7472
#	-10.7472
▁calificación	-10.7474
▁Tenía	-10.7474
▁Espec	-10.748
▁nervio	-10.7484
▁sorprendi	-10.7487
▁nación	-10.7487
▁Valle	-10.7494
▁informado	-10.7497
▁diamante	-10.7498
▁ayudarlo	-10.75
▁maravillosa	-10.7501
▁aplicable	-10.7502
▁Política	-10.7503
▁residencia	-10.7505
▁solicitudes	-10.7506
▁barrera	-10.7507
▁Spe	-10.7508
▁festival	-10.7509
bió	-10.752
ette	-10.7522
▁fijo	-10.7523
▁saca	-10.7523
▁químicos	-10.7528
▁aviso	-10.7528
▁Monte	-10.7536
▁automatiza	-10.7539
▁tarda	-10.7539
▁actores	-10.7544
▁voltaje	-10.7548
▁detectar	-10.7549
▁emociones	-10.755
órica	-10.755
GRA	-10.755
pio	-10.7551
▁posiciones	-10.7551
▁alemán	-10.7552
▁Espíritu	-10.7553
▁sugerencia	-10.7557
▁masaje	-10.7561
▁italiano	-10.7562
▁ingresar	-10.757
▁fortalece	-10.7571
▁correa	-10.7572
▁actualizaciones	-10.7575
▁héroe	-10.7576
▁terminó	-10.7578
TOR	-10.7584
▁marino	-10.7586
tancia	-10.7587
▁verificación	-10.7587
lisis	-10.7588
UT	-10.7589
▁mueve	-10.7589
IOS	-10.7595
real	-10.7598
▁cosecha	-10.7602
HI	-10.7606
▁chaqueta	-10.7607
▁Intel	-10.7609
▁sexuales	-10.7611
cuerda	-10.7614
ÍA	-10.7626
▁mostrado	-10.7633
▁hardware	-10.7636
▁típica	-10.7641
tuvimos	-10.7643
▁oscura	-10.765
▁maquillaje	-10.7652
▁Lista	-10.7652
▁acusa	-10.7653
cabeza	-10.7653
▁DC	-10.7658
wood	-10.7667
▁Instagram	-10.7668
mone	-10.767
▁Tru	-10.7672
▁urbano	-10.7672
▁restricciones	-10.7679
▁Premio	-10.7681
▁protege	-10.7687
Cuánto	-10.769
métrico	-10.7695
▁compartido	-10.7699
JO	-10.77
▁Hill	-10.7709
▁Pulse	-10.7719
TH	-10.7721
▁oral	-10.7724
▁tranquila	-10.7726
▁peces	-10.7726
PM	-10.7728
pár	-10.7728
▁Podría	-10.7729
back	-10.7733
▁LOS	-10.7735
▁Quizá	-10.7737
▁enfria	-10.775
▁militares	-10.7751
ium	-10.7752
▁adulto	-10.7755
▁Realmente	-10.7758
▁discapacidad	-10.7763
▁espectacular	-10.7774
▁oxígeno	-10.7777
▁pasajeros	-10.7786
DOS	-10.7787
▁tablero	-10.7793
▁comunicaciones	-10.7793
burg	-10.7799
▁culturales	-10.7813
TOS	-10.7816
▁famosa	-10.7816
phi	-10.7817
▁almuerzo	-10.7818
▁pájaro	-10.7819
▁escribe	-10.782
▁Agua	-10.7822
here	-10.7826
guard	-10.7826
ific	-10.7827
▁deportiva	-10.7829
prove	-10.783
ward	-10.7837
▁financiación	-10.7838
▁señaló	-10.7843
▁disminución	-10.7844
Oh	-10.7846
▁alguno	-10.7848
VER	-10.7848
well	-10.7848
▁Pasa	-10.7848
ming	-10.7848
▁tome	-10.785
PP	-10.7852
▁reconocido	-10.7854
▁lesión	-10.7862
▁Center	-10.7863
▁mod	-10.7865
▁Sociedad	-10.7869
mora	-10.787
▁propone	-10.787
▁encantador	-10.7874
▁grabado	-10.7878
▁describir	-10.789
▁fruto	-10.7897
▁celda	-10.7898
▁Valor	-10.7901
▁climático	-10.7904
▁guitarra	-10.7908
▁encontraron	-10.7911
▁ampliamente	-10.7914
▁estacionamiento	-10.7917
▁judicial	-10.7925
▁inhibi	-10.7925
▁Audi	-10.7925
▁Rob	-10.7939
▁orgánico	-10.7941
▁Página	-10.7951
▁tubería	-10.7951
▁tuviera	-10.7951
▁asesinato	-10.7952
▁matriz	-10.7956
▁protesta	-10.796
COM	-10.7961
▁destinado	-10.7963
▁liberación	-10.7963
ICO	-10.7963
▁discrimina	-10.7967
CIONES	-10.7968
▁Arma	-10.7975
▁numerosos	-10.7977
▁muestre	-10.7977
▁inmuno	-10.7979
▁reforza	-10.7981
▁dificultad	-10.7982
▁resultó	-10.7984
▁satisfacción	-10.7984
▁contraste	-10.7988
▁copa	-10.7991
▁Motor	-10.7997
▁bebida	-10.7997
▁embarazada	-10.7999
▁testigo	-10.7999
scribe	-10.8
▁gol	-10.8001
▁desastre	-10.8001
▁automóviles	-10.8006
▁basura	-10.8013
FL	-10.8013
▁contaminación	-10.8014
geni	-10.8016
▁Asimismo	-10.8018
▁emisiones	-10.802
lateral	-10.8021
▁ubicada	-10.8027
▁reina	-10.8027
▁ruso	-10.8027
▁felicidad	-10.8027
piece	-10.8033
▁Come	-10.8033
▁vintage	-10.8035
▁raya	-10.8035
▁balance	-10.8036
▁proviene	-10.8038
UD	-10.8038
▁neumático	-10.8038
▁emocionante	-10.8038
▁Gestión	-10.804
▁Chu	-10.8048
▁trabajador	-10.8049
▁arreglo	-10.8049
▁lanzó	-10.8055
▁pide	-10.8056
▁Ángeles	-10.8058
▁compleja	-10.8061
▁torno	-10.8063
▁universo	-10.8076
▁excepción	-10.8076
▁“¿	-10.8077
▁reproduc	-10.8081
▁Mary	-10.8082
?”	-10.8083
▁disminuye	-10.8085
▁restante	-10.8112
▁consultor	-10.8125
▁Bio	-10.8127
▁bandeja	-10.8133
▁necesitamos	-10.8133
▁flexibilidad	-10.8134
OT	-10.8138
image	-10.8139
▁Vea	-10.814
▁Spi	-10.814
▁uñas	-10.8148
▁Descargar	-10.8149
▁productividad	-10.815
▁empieza	-10.815
▁entretenimiento	-10.8151
▁José	-10.8153
▁previamente	-10.8157
▁conservación	-10.8163
▁dependiendo	-10.8165
▁Video	-10.8166
RP	-10.8169
▁VIH	-10.8172
▁Familia	-10.8172
▁venir	-10.8178
▁adaptador	-10.8178
▁delantera	-10.818
▁desactiva	-10.8181
▁novela	-10.8182
▁asistir	-10.8182
▁Biblia	-10.8191
▁pasión	-10.8193
▁realista	-10.8193
vierte	-10.8193
▁Smith	-10.8193
▁minorista	-10.8199
sincroniza	-10.8204
▁comité	-10.8208
▁tableta	-10.8212
▁colonia	-10.8213
BE	-10.8214
▁dirigida	-10.8216
▁delantero	-10.8217
▁medicamento	-10.8218
▁banca	-10.8219
▁Jack	-10.8226
▁equivoca	-10.8228
▁mencionado	-10.8229
▁coincide	-10.823
▁religiosa	-10.823
▁ajustable	-10.8233
▁adquirir	-10.8237
tsu	-10.8243
▁emergente	-10.8247
▁turismo	-10.8248
▁paneles	-10.825
▁gafas	-10.8251
▁aislamiento	-10.8256
▁Historia	-10.8257
▁masculino	-10.8258
▁obtuvo	-10.8258
▁llevará	-10.826
▁Mark	-10.8262
▁dirigir	-10.8262
▁conforme	-10.8273
▁obstáculo	-10.8274
▁respaldo	-10.8274
▁hábito	-10.8281
▁diversión	-10.8283
▁imprimir	-10.8284
▁irre	-10.8289
Para	-10.8305
▁abrió	-10.8309
▁Primera	-10.831
▁industriales	-10.8311
▁lentamente	-10.8314
DM	-10.8318
▁cobre	-10.8321
▁Bluetooth	-10.8322
▁villa	-10.8325
▁transformación	-10.8326
▁cuidar	-10.8329
▁Cuba	-10.8336
▁grabación	-10.8337
▁accesible	-10.8338
▁expone	-10.8339
▁molesta	-10.8341
▁Samsung	-10.8341
▁ansiedad	-10.8341
▁Copa	-10.8343
▁roba	-10.8343
▁inalámbrico	-10.8343
The	-10.8347
▁típico	-10.8349
▁mantenerse	-10.8351
▁definido	-10.8355
PT	-10.8358
▁Frank	-10.8362
ábamos	-10.8365
Ñ	-10.8365
▁debía	-10.8369
▁exitosa	-10.837
▁temprana	-10.8372
▁suspensión	-10.8374
▁sensibilidad	-10.838
▁preciso	-10.8387
cele	-10.839
▁agricultura	-10.8401
▁tinta	-10.8403
▁juez	-10.8406
▁Bay	-10.8408
▁Francisco	-10.8413
▁cálido	-10.8413
▁merc	-10.8414
▁llamó	-10.8417
▁aislada	-10.8419
▁divide	-10.8422
▁aclara	-10.8427
▁viva	-10.8427
▁océano	-10.8434
bot	-10.8443
▁ceremonia	-10.8444
▁súper	-10.8448
cepción	-10.845
▁asegúrese	-10.8452
▁capaces	-10.8453
▁recipiente	-10.846
▁comenzaron	-10.8461
puso	-10.8468
▁bolso	-10.8469
▁obligado	-10.847
▁funcione	-10.847
▁retrato	-10.847
▁aproxima	-10.8475
▁advertencia	-10.8475
▁XVI	-10.8478
▁Administración	-10.848
▁Pregunta	-10.8483
▁desplaza	-10.8486
▁opta	-10.8489
▁ventilador	-10.8497
▁facial	-10.8511
▁ira	-10.8511
▁indígena	-10.8515
tho	-10.8529
▁marina	-10.8537
▁DVD	-10.854
▁consolida	-10.854
▁encendido	-10.8545
▁viendo	-10.8545
▁flecha	-10.8546
▁introducción	-10.8547
▁china	-10.8549
▁diseñar	-10.8549
▁ingeniero	-10.855
▁aprovecha	-10.8551
ANTE	-10.8554
▁propaga	-10.8561
▁falso	-10.8561
▁poderosa	-10.8562
▁llora	-10.8575
▁incremento	-10.8578
ándole	-10.8578
▁descansa	-10.8582
▁HP	-10.8583
▁afectada	-10.8584
▁riqueza	-10.8584
▁pluma	-10.8586
▁cerrada	-10.8586
▁gla	-10.8589
▁aparición	-10.859
▁raro	-10.8594
▁compañero	-10.8605
traves	-10.8606
brica	-10.8608
▁Big	-10.8609
▁Podemos	-10.861
▁documentación	-10.8615
▁integrada	-10.8618
frut	-10.8626
▁hormona	-10.8629
▁Cruz	-10.863
▁brindan	-10.863
▁nació	-10.8633
bula	-10.8636
juego	-10.8637
▁espectro	-10.8637
file	-10.8644
▁reemplazar	-10.8648
▁funcionalidad	-10.8653
▁decide	-10.8661
▁Palabra	-10.8663
▁Tour	-10.8677
▁terrible	-10.8677
▁aloja	-10.8679
▁asesina	-10.868
▁reunir	-10.8688
▁ocasión	-10.8688
▁falsa	-10.8689
▁beber	-10.8693
▁casual	-10.8693
▁Playa	-10.8695
▁ascenso	-10.8695
▁agrupa	-10.8698
pricing	-10.8699
▁coopera	-10.87
▁Sección	-10.8703
▁Beach	-10.8706
flexión	-10.8711
▁creativa	-10.8712
▁diabetes	-10.8713
▁Estilo	-10.8714
▁Blue	-10.8717
▁arregla	-10.8718
licenses	-10.8719
BL	-10.8719
▁aérea	-10.872
▁Tiempo	-10.8721
▁oscuridad	-10.8721
▁granja	-10.8722
terapia	-10.8727
ML	-10.8727
▁indio	-10.8727
mper	-10.8735
▁clip	-10.8737
▁Prueba	-10.8741
▁separada	-10.8742
▁comunicado	-10.8742
▁contribuir	-10.8748
▁cartera	-10.8748
▁disparo	-10.875
▁fiel	-10.875
▁rayos	-10.875
▁visualización	-10.8751
▁previsto	-10.8754
▁Inicia	-10.8755
▁globo	-10.8768
▁Disney	-10.877
▁pensé	-10.877
▁Organización	-10.8771
▁ilustraciones	-10.8771
trica	-10.8775
▁puro	-10.8779
▁Protección	-10.8784
▁profundamente	-10.8784
▁satélite	-10.88
▁habitantes	-10.8803
▁fluido	-10.8816
▁productores	-10.8818
▁reino	-10.8828
▁creó	-10.8829
▁falle	-10.883
▁Pantalla	-10.8834
▁sorprende	-10.8837
▁influye	-10.8845
▁recibirá	-10.8853
hua	-10.8858
▁mantenga	-10.8858
▁aprobado	-10.8863
▁salvo	-10.8863
dista	-10.8865
▁universitario	-10.8871
▁acusado	-10.8884
▁indicadores	-10.8884
▁North	-10.8894
▁sendero	-10.8896
▁prefiere	-10.8897
▁atributo	-10.8901
▁empuja	-10.8902
▁auriculares	-10.8906
▁escrita	-10.8909
▁femenina	-10.8914
▁Caja	-10.8917
▁felices	-10.8918
▁entidades	-10.8925
ógeno	-10.8927
▁sana	-10.8928
ington	-10.8929
▁noticia	-10.8931
▁campamento	-10.8932
▁preocupaciones	-10.8934
▁Alex	-10.8935
▁pasta	-10.8944
▁Marca	-10.8944
TM	-10.8953
▁Torre	-10.8954
▁criatura	-10.8959
▁bacterias	-10.8959
▁necesito	-10.8961
ADA	-10.8962
▁pidió	-10.8963
▁Tanto	-10.8963
ásico	-10.8965
QUI	-10.8966
▁mani	-10.8976
▁Accesorios	-10.8979
▁gesto	-10.8984
▁conformidad	-10.8986
▁virtud	-10.8988
▁requerir	-10.8988
▁realice	-10.8998
▁crónica	-10.9004
▁gota	-10.9005
▁cerebral	-10.9011
▁Martin	-10.9013
▁institución	-10.9015
▁Post	-10.9019
▁Administra	-10.9023
▁institucional	-10.9025
▁proporción	-10.9025
pida	-10.903
▁antecedentes	-10.9035
▁Libro	-10.9037
▁PRE	-10.9044
▁espuma	-10.9044
▁agradece	-10.9049
▁pelota	-10.9049
▁respondió	-10.9054
▁Perú	-10.9055
▁intercambia	-10.9056
▁alfombra	-10.9056
▁relleno	-10.9057
hol	-10.9057
▁aguja	-10.9058
▁ingresa	-10.9068
▁Island	-10.907
ónimo	-10.9078
▁árabe	-10.9079
▁Unidad	-10.9079
▁Fuente	-10.908
pendi	-10.9087
▁pastor	-10.9087
▁absorbe	-10.9087
present	-10.9089
▁necesariamente	-10.9092
memora	-10.9093
▁margen	-10.9101
scopio	-10.9103
▁Contacto	-10.9113
cogida	-10.9121
▁consistente	-10.9122
▁Industria	-10.9123
▁radical	-10.9131
▁extiende	-10.9137
trans	-10.9137
▁cruz	-10.9137
▁Ji	-10.9139
▁Dijo	-10.9142
▁Halloween	-10.9144
▁párrafo	-10.9148
▁directorio	-10.9148
▁manzana	-10.9173
▁siguiendo	-10.9184
▁supervivencia	-10.9196
▁High	-10.9199
▁Aún	-10.9203
.............	-10.9205
▁termo	-10.9206
▁transmitir	-10.9207
▁disminuir	-10.921
tenida	-10.9212
▁extracto	-10.9213
▁transacciones	-10.9213
▁abraza	-10.9214
▁ocurrir	-10.9223
▁ayudó	-10.9224
▁permitió	-10.923
▁agita	-10.9235
▁sentencia	-10.9235
pino	-10.9242
ánica	-10.9246
▁infecciones	-10.9249
▁fármaco	-10.9251
▁dental	-10.9256
▁dobla	-10.9257
ristian	-10.9261
▁exitoso	-10.9262
▁récord	-10.9262
▁"¡	-10.9263
▁armario	-10.9265
▁Clip	-10.9266
▁enumera	-10.9277
▁aprende	-10.9279
▁South	-10.9284
TAR	-10.9294
activ	-10.9297
▁Habla	-10.9297
▁Harry	-10.9298
▁Extra	-10.9299
▁Bolsa	-10.9301
▁minimiza	-10.9305
▁corredor	-10.9308
▁Thomas	-10.9315
▁Chica	-10.9316
serve	-10.9325
▁delicioso	-10.9327
TT	-10.9329
▁revestimiento	-10.9334
▁discutir	-10.9336
▁toneladas	-10.9347
▁fuga	-10.9348
▁genética	-10.9365
▁permitido	-10.9371
▁Norma	-10.9372
▁adquirida	-10.9377
▁Presenta	-10.9378
▁enamora	-10.9378
▁cantante	-10.9381
▁estricta	-10.9382
▁habido	-10.9389
▁Zi	-10.9389
▁elija	-10.9392
▁trimestre	-10.9401
▁inunda	-10.9406
ZA	-10.9409
traído	-10.941
FO	-10.9411
▁recauda	-10.9416
▁traslada	-10.9416
▁Datos	-10.9417
▁conjunta	-10.942
▁limitaciones	-10.9431
▁prisión	-10.9431
TIC	-10.9432
▁orgullo	-10.9438
▁numerosas	-10.9442
legisla	-10.9442
▁dicta	-10.9443
▁bella	-10.9444
▁inyección	-10.945
▁Fri	-10.9455
▁colorido	-10.9455
▁Pablo	-10.946
▁inserta	-10.9462
▁cilindro	-10.9465
▁Miembro	-10.9467
congela	-10.9467
poniendo	-10.947
▁anciano	-10.9485
▁vecinos	-10.9487
▁acogedor	-10.9491
▁huella	-10.9494
▁Global	-10.9509
▁emociona	-10.9511
▁tormenta	-10.9513
▁Fuerza	-10.9513
▁aparentemente	-10.9517
▁orto	-10.9518
▁mostr	-10.9521
vuelve	-10.9523
toxic	-10.9524
▁apareció	-10.9526
“	-10.9529
▁adquisición	-10.953
ING	-10.9553
▁grita	-10.9557
▁molécula	-10.9559
▁nariz	-10.9559
▁monto	-10.9561
▁renuncia	-10.9569
▁siguió	-10.957
▁alberga	-10.9572
▁supervisión	-10.9576
▁guardia	-10.9578
▁membrana	-10.9581
▁establecida	-10.9583
RAN	-10.9587
▁intenso	-10.9588
▁científico	-10.9591
▁Road	-10.9595
▁atractiva	-10.9596
▁sentía	-10.9598
▁urbana	-10.9598
▁Festival	-10.96
▁felicita	-10.9609
▁turístico	-10.9614
▁artística	-10.9616
▁preserva	-10.9616
book	-10.9619
safortunadamente	-10.962
▁juzga	-10.9621
▁colgante	-10.9625
carbon	-10.9631
▁desaparece	-10.964
DES	-10.965
▁papá	-10.9651
▁Soporte	-10.9654
▁Distrito	-10.966
▁repente	-10.966
▁corri	-10.966
▁Server	-10.9664
▁collar	-10.9666
▁disputa	-10.9672
▁periodista	-10.9673
▁consumidor	-10.9676
▁contempla	-10.9677
▁abstracto	-10.9682
▁monstruo	-10.9682
▁predeterminado	-10.9684
▁Elimina	-10.9687
▁japonés	-10.9688
▁cuidadosamente	-10.9693
▁Angel	-10.9695
▁mecánico	-10.9695
▁lidera	-10.9696
MT	-10.9705
▁Orden	-10.9715
▁Micro	-10.9719
ámico	-10.9721
▁filosofía	-10.9724
▁amistad	-10.9728
▁cuento	-10.974
▁llegaron	-10.9742
▁valle	-10.9746
▁toalla	-10.9753
▁espada	-10.9753
▁recluta	-10.9754
▁truco	-10.9755
▁ejerce	-10.9755
ímetro	-10.9757
ART	-10.9757
▁simultánea	-10.9759
▁Primer	-10.9767
▁oxida	-10.977
▁Excelente	-10.9771
▁descubrimiento	-10.9782
▁helado	-10.9788
▁Etiqueta	-10.9788
▁certificación	-10.9791
▁duradero	-10.9794
▁coronavirus	-10.9804
▁desplazamiento	-10.9807
▁pistola	-10.9809
▁jamás	-10.9815
▁atmósfera	-10.9822
▁Jim	-10.9827
▁Buena	-10.9827
ª	-10.9831
▁unirse	-10.9835
▁Hospital	-10.9838
▁Tecnología	-10.9838
▁maíz	-10.9838
CAR	-10.9838
▁tienden	-10.9841
▁frustra	-10.9842
▁desierto	-10.9849
limit	-10.9852
▁Aire	-10.9861
▁billete	-10.9865
▁inalámbrica	-10.9867
▁admira	-10.9868
▁seguirá	-10.987
▁parámetro	-10.987
DH	-10.9872
▁torneo	-10.9873
▁habita	-10.9883
▁reacciones	-10.9883
▁Conferencia	-10.9886
▁crucial	-10.9887
▁sustancial	-10.9889
▁traducción	-10.989
▁introducir	-10.9892
▁protegido	-10.9899
contra	-10.9907
▁castillo	-10.991
▁madura	-10.9911
Fabric	-10.9913
▁logró	-10.9919
clama	-10.9925
▁provee	-10.9926
▁cuchillo	-10.9928
▁Multi	-10.9931
▁apartado	-10.9935
▁carbón	-10.9939
▁Chicago	-10.9939
▁promociona	-10.9942
▁satisfecho	-10.9944
primir	-10.995
▁Mayor	-10.9953
▁colina	-10.9955
lítica	-10.9963
▁Steve	-10.9966
▁Ilustraciones	-10.9969
▁ficha	-10.997
▁declaraciones	-10.9982
▁variar	-11.0001
▁comunitario	-11.0002
▁Indica	-11.0017
▁Brown	-11.0019
▁galería	-11.0021
▁compone	-11.0028
▁estampado	-11.0029
▁promesa	-11.0031
IZ	-11.0033
▁impuesto	-11.0037
▁White	-11.004
▁disposiciones	-11.0042
▁penal	-11.0045
▁Investigación	-11.0045
▁argumenta	-11.0047
▁tercio	-11.0054
▁Plus	-11.0056
▁amplifica	-11.006
▁diagrama	-11.0062
▁agenda	-11.0062
▁escape	-11.007
ctico	-11.0075
▁concurso	-11.0082
▁comprobar	-11.0088
▁vigilancia	-11.0089
▁Sky	-11.0091
▁seguidores	-11.0091
▁Manual	-11.0095
▁experto	-11.0096
tempo	-11.0106
▁disfrute	-11.0109
£	-11.0113
▁joyería	-11.0113
▁impone	-11.0115
▁produjo	-11.0116
____	-11.012
▁estratégica	-11.012
utiliza	-11.0121
▁encaja	-11.0125
▁camión	-11.0136
▁Línea	-11.0139
▁interrump	-11.0139
▁hembra	-11.0146
▁recoger	-11.0147
▁cerámica	-11.015
▁infancia	-11.015
▁francesa	-11.0157
▁religioso	-11.0159
▁macho	-11.016
▁encaje	-11.0164
▁aroma	-11.0164
▁alegre	-11.0165
▁visite	-11.0165
▁disminu	-11.0165
▁Richard	-11.0169
▁invertir	-11.0169
▁Euro	-11.0184
▁convenci	-11.0185
▁municipio	-11.019
▁podido	-11.0194
▁Madre	-11.0199
▁Sitio	-11.0202
▁alimento	-11.0202
▁amarilla	-11.0204
▁Cocina	-11.0212
▁táctil	-11.0215
▁linda	-11.0218
▁lectores	-11.022
▁micrófono	-11.022
▁creatividad	-11.0223
▁requerido	-11.0225
▁cambió	-11.0225
▁enfermo	-11.0225
▁Animal	-11.0225
▁pretende	-11.0226
ERO	-11.0229
▁Junto	-11.0232
▁pasaje	-11.0234
▁gradual	-11.0243
viene	-11.0245
▁contactar	-11.0258
▁valida	-11.0259
▁explicó	-11.026
▁podamos	-11.0261
▁COVID	-11.0267
▁sostiene	-11.0272
▁arroja	-11.0275
▁Español	-11.0276
▁solucionar	-11.0276
▁Egipto	-11.0278
▁doméstico	-11.0278
CN	-11.0279
▁pronuncia	-11.0279
▁irrita	-11.0283
▁Guarda	-11.0286
▁floral	-11.0295
▁empezó	-11.03
▁Qua	-11.0303
▁Segunda	-11.0309
▁costura	-11.0311
▁Daniel	-11.0312
valua	-11.0315
▁mandato	-11.0315
▁Oriente	-11.0319
▁Concepto	-11.0323
▁vestir	-11.0324
▁promete	-11.0334
ett	-11.034
ficio	-11.0342
▁empresario	-11.0345
▁reputación	-11.0347
▁pozo	-11.0348
END	-11.0349
▁detallado	-11.0356
▁rastrea	-11.0362
▁bordo	-11.0366
▁descubierto	-11.0373
▁Hogar	-11.0376
▁Combina	-11.0376
▁docente	-11.0378
▁magia	-11.038
▁compromete	-11.0385
▁añade	-11.0389
▁procesador	-11.039
▁penetra	-11.0392
▁Ajuste	-11.0394
▁Juguete	-11.0397
▁POR	-11.0404
▁enfermera	-11.0408
▁guar	-11.0414
RR	-11.0416
▁Mejora	-11.0423
±	-11.0439
▁Reserva	-11.044
▁centr	-11.0442
▁Smart	-11.0443
▁intensa	-11.0443
▁suplemento	-11.0452
▁usó	-11.0456
▁metálico	-11.0461
▁Nadie	-11.0468
▁calefacción	-11.0468
▁Dentro	-11.047
▁Selecciona	-11.047
▁polar	-11.0483
▁inmediata	-11.0483
▁YouTube	-11.0489
▁comprometido	-11.0489
▁mercancía	-11.0489
▁Seguro	-11.049
▁alquila	-11.049
▁falda	-11.0502
Alguien	-11.0502
▁boleto	-11.051
viviente	-11.0511
▁concreta	-11.0519
▁nativo	-11.0529
▁Resultados	-11.0532
modern	-11.0538
▁motocicleta	-11.0545
▁recibieron	-11.0547
work	-11.055
▁Acuerdo	-11.0552
▁silicona	-11.0569
▁posiciona	-11.0574
▁Palm	-11.0581
▁extrema	-11.0583
▁Comunica	-11.0586
▁simplifica	-11.0586
▁turno	-11.0588
▁predeterminada	-11.0588
▁bits	-11.0589
lítico	-11.0596
▁rival	-11.0598
▁fortaleza	-11.0603
▁ranura	-11.0608
▁Irlanda	-11.061
▁visualiza	-11.0614
▁requisito	-11.0615
▁Royal	-11.0615
▁infecta	-11.0617
▁testimonio	-11.0625
MM	-11.0627
▁síndrome	-11.0629
▁residencial	-11.0634
▁macro	-11.0637
▁hidrata	-11.0642
SQL	-11.0646
▁percepción	-11.0646
▁dinámico	-11.0647
▁balcón	-11.0647
▁impar	-11.0648
▁retraso	-11.0652
MIN	-11.0653
▁Ideal	-11.0664
▁contribución	-11.0664
▁Caribe	-11.0666
▁estómago	-11.0681
▁disfraz	-11.0681
▁metodología	-11.0698
▁tecnológica	-11.0708
▁poblaciones	-11.0708
▁duplica	-11.0714
▁utilizó	-11.0715
▁Hermosa	-11.072
▁reacciona	-11.0725
normal	-11.0732
▁jardines	-11.0732
▁gravedad	-11.0735
▁espectador	-11.074
▁aviones	-11.0743
scripciones	-11.0743
▁telefónica	-11.0759
▁veinte	-11.0762
▁propuesto	-11.0763
▁competitivo	-11.0767
fact	-11.078
▁óptica	-11.0791
▁gracia	-11.0795
▁defensor	-11.0799
▁Luis	-11.0805
calentamiento	-11.0806
▁cintura	-11.0816
▁habló	-11.0818
▁redondo	-11.0822
▁orgulloso	-11.0824
▁confiar	-11.0825
▁sucedió	-11.0826
ALES	-11.0832
▁vulnerable	-11.0833
▁busque	-11.0836
▁Vectoriales	-11.0837
▁óptima	-11.0838
▁Cultura	-11.0838
▁arterial	-11.0843
▁consentimiento	-11.0846
▁Partido	-11.0856
▁Blanca	-11.0858
▁integridad	-11.0861
▁igualdad	-11.0863
▁húmedo	-11.0863
▁energética	-11.0878
▁comience	-11.0879
PAR	-11.089
▁millón	-11.0891
prueba	-11.0893
MAN	-11.0894
▁Nivel	-11.0903
▁publicó	-11.0906
▁Características	-11.0908
▁House	-11.0909
▁fantástico	-11.091
▁vigor	-11.0913
▁cuota	-11.092
▁abundante	-11.0923
Tatuaje	-11.0923
▁Tener	-11.0924
▁Resumen	-11.0925
▁envíe	-11.0929
▁grueso	-11.093
▁aldea	-11.0934
▁abarca	-11.0937
▁conversaciones	-11.0938
▁emoción	-11.0942
ı	-11.0943
â	-11.0946
▁Gratis	-11.0949
▁perdió	-11.0958
▁fallo	-11.0959
▁cabina	-11.0962
▁superficial	-11.0963
▁supervisa	-11.0964
▁Cuadro	-11.0968
condicion	-11.0973
▁algoritmo	-11.0976
▁Digital	-11.0981
▁Plaza	-11.0981
▁Punto	-11.0982
▁College	-11.0983
▁televisor	-11.0987
▁fundador	-11.0998
▁proporcione	-11.1001
▁resalta	-11.1007
▁ángel	-11.1016
ándola	-11.1017
▁silueta	-11.1019
▁Muestra	-11.1021
libera	-11.1023
▁pintor	-11.1033
▁Realiza	-11.1034
diseña	-11.1035
▁Cliente	-11.1042
info	-11.1044
xtrem	-11.105
▁Wood	-11.1051
▁Descarga	-11.1054
▁decidido	-11.1055
▁nutrientes	-11.1068
▁movilidad	-11.1073
▁ánimo	-11.1075
▁lápiz	-11.1079
▁ocurrió	-11.1082
▁Feliz	-11.1082
▁resort	-11.1091
▁Pedro	-11.1097
▁reproductor	-11.1101
▁caracteres	-11.1102
▁tecnológico	-11.1107
▁inventario	-11.1107
▁pensado	-11.1111
▁olvide	-11.1112
▁NOTA	-11.1115
▁ayude	-11.1124
▁Turquía	-11.1128
NAS	-11.1138
▁Visita	-11.114
▁fragmento	-11.1141
corta	-11.1141
▁acopla	-11.1145
▁primario	-11.1162
▁mantuvo	-11.1164
▁parecido	-11.1166
▁cómic	-11.1169
▁cheque	-11.1169
NES	-11.1171
▁costumbre	-11.1171
▁Registro	-11.1171
Espera	-11.1172
▁actriz	-11.1174
▁cariño	-11.1176
▁aumentó	-11.1182
▁Río	-11.1182
▁brilla	-11.1183
▁Charles	-11.1192
▁criminal	-11.1192
▁modula	-11.1194
▁imita	-11.1195
▁Asamblea	-11.1197
▁alimentaria	-11.1198
▁bronce	-11.1199
▁sufrir	-11.1203
▁ladrillo	-11.1205
▁reemplazo	-11.1207
▁cinturón	-11.121
▁pensó	-11.1212
▁extranjera	-11.1218
▁LCD	-11.1218
▁inspección	-11.122
▁asumir	-11.1222
▁parrilla	-11.1222
▁Interior	-11.1224
▁colegio	-11.1225
▁Probablemente	-11.1228
▁drama	-11.123
▁Comunidad	-11.1231
▁inversores	-11.1236
▁leyenda	-11.1236
▁viajeros	-11.1242
▁comunicarse	-11.1245
▁periódica	-11.1254
▁Louis	-11.1255
▁International	-11.1256
▁educativa	-11.1258
▁Galaxy	-11.1264
▁cuarta	-11.127
▁diagnostica	-11.1272
▁nervioso	-11.1272
▁ESP	-11.129
▁aniversario	-11.1303
▁silvestre	-11.1311
▁culpable	-11.1313
▁extracción	-11.1324
▁declaró	-11.1327
▁soldadura	-11.1329
▁arranque	-11.1334
▁tenis	-11.1336
▁turistas	-11.1338
▁acostumbra	-11.1347
▁Dirección	-11.136
exhibi	-11.1363
▁inusual	-11.1368
▁petición	-11.1371
▁Lleva	-11.1371
ö	-11.1376
▁corazones	-11.1381
▁Existe	-11.1389
▁royalties	-11.1392
Debería	-11.1392
▁puntuación	-11.1397
Cuando	-11.1406
▁cumpla	-11.1411
▁cotiza	-11.1411
▁personalizar	-11.1415
▁alambre	-11.1417
▁iPad	-11.1423
▁térmica	-11.1429
▁burbuja	-11.1431
▁Identifica	-11.1434
▁defender	-11.1446
▁reproducir	-11.1447
▁impermeable	-11.1447
▁sospecha	-11.1447
▁griego	-11.145
▁Funciona	-11.1455
▁Golf	-11.1459
▁respondi	-11.146
ENCIA	-11.1461
▁estira	-11.1463
▁fracaso	-11.1463
▁atleta	-11.1466
▁considere	-11.1471
▁auditoría	-11.1476
▁independencia	-11.1481
▁arrastra	-11.1481
▁ecosistema	-11.1487
▁reveló	-11.1492
▁empaque	-11.1492
▁campus	-11.1495
▁lenta	-11.1496
▁Prepara	-11.1496
▁comunitaria	-11.1501
▁cepillo	-11.1503
▁dedicada	-11.1503
▁ventilación	-11.1508
▁deliciosa	-11.1512
▁transacción	-11.1516
▁postura	-11.1516
▁patrimonio	-11.1518
▁encontré	-11.1522
▁estábamos	-11.1525
cionista	-11.1526
▁instrucción	-11.1537
▁Llega	-11.1539
▁aéreo	-11.1548
▁Varios	-11.1549
químico	-11.155
▁Studio	-11.1553
▁matemáticas	-11.1558
▁PDF	-11.1564
▁pasillo	-11.1567
▁asequible	-11.1569
▁Panel	-11.1571
▁Compañía	-11.1572
▁dimensión	-11.1577
▁volante	-11.158
▁proyecta	-11.1582
▁Área	-11.1591
▁agricultores	-11.1593
▁Nosotros	-11.1599
▁show	-11.1599
▁embalaje	-11.1607
▁embarca	-11.1607
▁Disfruta	-11.1609
▁School	-11.1617
▁valioso	-11.1617
▁favorable	-11.1621
▁divulga	-11.1628
▁Fiesta	-11.1634
▁recomendar	-11.1637
▁pudieron	-11.1639
TEN	-11.1644
▁asiático	-11.1657
TAL	-11.1667
▁cookies	-11.1668
▁órdenes	-11.1671
▁escondi	-11.1674
▁exhibición	-11.1674
▁compuesta	-11.1679
▁contemporáneo	-11.1679
▁Proporciona	-11.1682
▁construida	-11.1682
▁debut	-11.1685
▁Cambio	-11.1693
▁comerciante	-11.1704
▁grabar	-11.1705
▁patente	-11.1706
▁radiación	-11.1706
▁Detalle	-11.1708
▁East	-11.1709
▁Reloj	-11.172
polímero	-11.1722
▁relativo	-11.1727
▁orgánica	-11.1728
▁alternativo	-11.1737
▁complejidad	-11.1739
▁Scott	-11.1739
▁variante	-11.1745
▁voluntaria	-11.1747
▁Análisis	-11.1752
▁origina	-11.1754
▁Ejército	-11.1755
▁afirmó	-11.1769
▁Cuanto	-11.1769
▁modela	-11.1769
▁contento	-11.1774
▁llame	-11.1783
▁destrucción	-11.1788
▁requerida	-11.1793
▁inflamación	-11.1796
▁Hollywood	-11.1799
estructura	-11.1801
▁sentí	-11.1801
▁regulador	-11.1807
▁consigue	-11.1807
▁Cambia	-11.1809
▁enzima	-11.1809
▁Estudia	-11.181
▁descubre	-11.181
▁vinilo	-11.1812
▁catálogo	-11.1815
▁refugio	-11.1818
▁variación	-11.1819
▁democracia	-11.1826
▁dependencia	-11.1834
▁Categoría	-11.1842
▁reclamo	-11.1844
▁dañar	-11.1861
▁correspon	-11.1864
gestión	-11.1867
▁césped	-11.1873
▁descubrió	-11.1873
▁bancaria	-11.1882
▁herido	-11.1883
▁encontraba	-11.189
▁evoluciona	-11.1899
▁charla	-11.19
▁compacto	-11.1903
▁Aeropuerto	-11.1914
▁vieron	-11.1916
▁serpiente	-11.1923
▁encanto	-11.1924
▁continuó	-11.1925
▁Market	-11.193
▁aliviar	-11.1934
▁compila	-11.1942
▁asesoramiento	-11.1944
▁mochila	-11.1945
▁paralelo	-11.1945
▁maestra	-11.1948
▁colectiva	-11.1956
▁recomendado	-11.1958
▁intermedia	-11.1967
▁corriendo	-11.1972
▁Sexy	-11.1979
▁Grecia	-11.1984
▁terrestre	-11.1986
▁incidencia	-11.2006
ckey	-11.201
▁Acceso	-11.201
▁despertar	-11.2013
▁atender	-11.2013
▁anime	-11.2013
▁resina	-11.2013
▁Inglés	-11.2017
▁adopción	-11.2017
expand	-11.2019
▁situada	-11.2023
▁válido	-11.2028
▁mortalidad	-11.2031
▁jubila	-11.2031
▁japonesa	-11.2034
▁músico	-11.2036
▁flash	-11.2039
▁Representa	-11.2051
▁auxiliar	-11.2059
▁mexicano	-11.2067
▁bañera	-11.207
▁instantánea	-11.2074
▁hipótesis	-11.2092
▁extender	-11.2096
▁calorías	-11.2096
▁Regístrate	-11.2098
▁ensalada	-11.2099
▁Bretaña	-11.2101
▁destruir	-11.2102
▁Consulta	-11.2104
▁fotógrafo	-11.2109
▁Music	-11.211
▁vivía	-11.2116
▁nocturna	-11.2118
▁somete	-11.212
▁Federal	-11.2129
▁hígado	-11.2132
▁fantasía	-11.2132
IDO	-11.2132
▁secador	-11.2132
▁mantequilla	-11.2135
▁crimen	-11.2135
▁División	-11.2135
▁Plantilla	-11.214
▁condiciona	-11.214
▁Bank	-11.214
▁princesa	-11.2143
▁forestal	-11.2146
▁ensambla	-11.2152
▁masiva	-11.2158
▁aterriza	-11.2177
▁nocturno	-11.218
▁énfasis	-11.2183
▁lámina	-11.2183
▁deficiencia	-11.2186
firma	-11.2188
▁calcio	-11.2194
▁condensa	-11.2195
▁estratégico	-11.2203
▁mostrando	-11.2205
▁Sudáfrica	-11.222
▁XIX	-11.222
▁mural	-11.2221
especificaciones	-11.2224
▁aconseja	-11.2226
▁adentro	-11.2232
Book	-11.2234
▁acontecimiento	-11.2237
▁Paquete	-11.2246
▁Entrada	-11.226
▁oriental	-11.2271
|	-11.2272
▁Papel	-11.2273
▁pandemia	-11.2277
▁Miami	-11.228
▁facultad	-11.2283
▁Actualiza	-11.2289
racter	-11.2293
▁alivio	-11.2298
▁cambie	-11.2301
▁muere	-11.2306
▁exámenes	-11.2317
▁neutral	-11.2317
³	-11.2323
▁chimenea	-11.2326
▁fumar	-11.2334
▁insectos	-11.234
▁mierda	-11.2348
▁Zapatos	-11.2361
▁prometi	-11.2364
▁Transporte	-11.237
▁municipal	-11.2375
iéndolo	-11.2381
▁umbral	-11.2381
▁reciba	-11.2382
▁abrigo	-11.2382
▁revolución	-11.2387
▁garaje	-11.2387
▁detenido	-11.2388
▁cierra	-11.2391
▁Jardín	-11.2392
▁sacerdote	-11.2392
▁presidencia	-11.2395
▁pizza	-11.2401
instal	-11.2404
▁brecha	-11.2413
▁alianza	-11.2416
▁Prince	-11.2423
▁absorción	-11.2424
▁carcasa	-11.2425
▁hincha	-11.2425
▁impacta	-11.2427
▁encender	-11.2432
▁geográfica	-11.2438
iéramos	-11.2439
pondrá	-11.2441
▁Regalo	-11.2447
▁Service	-11.2448
▁financiamiento	-11.2448
▁Tailandia	-11.245
▁hiciera	-11.2454
▁Diseñado	-11.2454
▁irregular	-11.2462
▁transferir	-11.2472
▁Ministro	-11.2482
Work	-11.2489
▁corregir	-11.249
▁mágico	-11.2494
▁válida	-11.2497
Sabe	-11.2502
phone	-11.2507
▁sobrevivir	-11.2509
▁Patrón	-11.2512
▁repetida	-11.252
▁desgaste	-11.253
▁Lámina	-11.2535
▁acredita	-11.2537
▁aprendido	-11.2538
▁almohada	-11.2541
▁Decoración	-11.2541
▁esfera	-11.2543
▁Respuesta	-11.2543
▁estableció	-11.2546
▁novedad	-11.2547
▁oreja	-11.2549
▁estatua	-11.255
▁Termina	-11.2556
▁Academia	-11.2571
▁corporativo	-11.2571
▁Comercio	-11.2574
▁Fácil	-11.2577
▁mariposa	-11.2586
▁reflejo	-11.2586
▁pertinente	-11.2589
▁oscila	-11.2589
▁pleno	-11.2592
▁continente	-11.2598
▁pierda	-11.26
▁engaña	-11.2618
▁sanguíneo	-11.2618
▁aguda	-11.2624
▁transparencia	-11.2627
▁compartida	-11.2627
▁Victoria	-11.2633
Link	-11.2635
▁cristiana	-11.2642
▁COMP	-11.2652
▁palanca	-11.2654
▁dependiente	-11.2657
▁Venezuela	-11.2666
▁incorrecta	-11.2666
▁Civil	-11.267
▁precipita	-11.2675
▁kilo	-11.2675
▁molecular	-11.2678
▁definida	-11.2682
▁combatir	-11.2684
▁gobernador	-11.2689
▁extensa	-11.2696
▁restablec	-11.2698
▁variaciones	-11.2699
Dibuj	-11.2704
▁Visual	-11.2708
▁canadiense	-11.271
▁Restaurante	-11.2711
▁litros	-11.2721
▁baloncesto	-11.2725
Document	-11.2728
▁reembolso	-11.2737
▁inaugura	-11.274
▁Añadir	-11.274
▁treinta	-11.2749
▁transversal	-11.275
▁existir	-11.2755
▁obtendrá	-11.2756
▁exacta	-11.2763
fosf	-11.277
▁sabiduría	-11.2773
▁ministerio	-11.2773
▁definitiva	-11.2774
▁sanitaria	-11.2774
▁Humanos	-11.278
dimensional	-11.2783
▁Europeo	-11.2789
▁interacciones	-11.2789
▁protegida	-11.2792
▁residual	-11.2792
▁iStock	-11.2795
▁capucha	-11.2798
▁Póster	-11.2798
▁apasiona	-11.2798
▁creciendo	-11.2798
▁monitoreo	-11.2801
▁demasiada	-11.2804
▁esclavo	-11.2804
▁Condado	-11.2804
▁juvenil	-11.2807
▁hormigón	-11.281
▁camiones	-11.2813
▁cardíaca	-11.2822
▁gasolina	-11.2822
▁asusta	-11.2832
▁Llama	-11.2839
▁cartucho	-11.284
▁PVC	-11.2846
▁criterio	-11.2847
▁inevitable	-11.2849
▁Pacífico	-11.2849
▁Cooper	-11.285
▁desconocido	-11.2852
▁africano	-11.2861
▁Puerta	-11.2862
▁guantes	-11.2865
▁administrativo	-11.287
▁incentivo	-11.2871
▁alumno	-11.2876
▁monumento	-11.2886
▁aparcamiento	-11.2892
▁averiguar	-11.2892
▁migración	-11.2893
▁cebolla	-11.2895
▁cuadr	-11.2895
▁contorno	-11.2906
▁Herramientas	-11.2919
▁inició	-11.2923
▁horrible	-11.2928
▁atracciones	-11.2929
▁Adam	-11.2933
▁cremallera	-11.2934
▁Photo	-11.2947
▁atento	-11.2951
▁cayó	-11.2953
Cuándo	-11.2955
▁excesiva	-11.2959
▁trabajó	-11.2965
▁conquista	-11.2971
▁Office	-11.2974
▁metálica	-11.2974
▁Superior	-11.2974
▁competir	-11.2975
▁Cuerpo	-11.2977
▁Colección	-11.2979
▁retiro	-11.2991
▁Presione	-11.2992
▁policial	-11.2998
▁promueve	-11.3005
▁maravilla	-11.302
▁abuelo	-11.3021
▁académica	-11.3024
▁Jackson	-11.3024
▁Carolina	-11.303
landesa	-11.3034
▁Tampoco	-11.3048
▁Integra	-11.3053
▁Método	-11.3061
excava	-11.3068
▁intimida	-11.3076
▁Phil	-11.3077
▁comenzado	-11.3079
▁agregue	-11.3086
▁Salvador	-11.3089
▁alemana	-11.3089
▁pronóstico	-11.3098
▁inmigrantes	-11.3107
▁excede	-11.3111
▁Principal	-11.3117
▁claridad	-11.3129
▁muelle	-11.3133
▁Vintage	-11.3135
▁fantasma	-11.3135
▁adelanta	-11.3145
▁fiebre	-11.3148
▁púrpura	-11.3154
▁óptimo	-11.3154
▁Original	-11.3157
▁desarrolló	-11.3163
pusieron	-11.3174
▁reúne	-11.3176
bacteria	-11.318
▁joyas	-11.3185
▁desventaja	-11.3189
▁privilegio	-11.3195
▁conclusiones	-11.3195
▁Policía	-11.3201
▁absoluta	-11.3204
▁Image	-11.3223
▁británica	-11.3223
▁Jersey	-11.323
▁araña	-11.3233
▁barata	-11.3235
▁oponente	-11.3237
▁Máquina	-11.3245
▁colectivo	-11.3246
▁purifica	-11.3246
▁aficionado	-11.3248
▁Portugal	-11.3255
▁maximiza	-11.3255
▁Health	-11.3255
▁Usuario	-11.3255
▁trayectoria	-11.3258
▁Maestro	-11.3262
▁Disponible	-11.3267
▁sufrimiento	-11.3271
▁URL	-11.328
▁recomendamos	-11.3283
▁microondas	-11.3283
▁subyacente	-11.3293
▁System	-11.3296
▁literalmente	-11.3296
▁Antonio	-11.3296
PORT	-11.3296
▁maquinaria	-11.3299
▁Vinilo	-11.3302
▁Company	-11.3312
▁cárcel	-11.3315
▁enfatiza	-11.3325
▁Propiedad	-11.3331
▁descarta	-11.3332
▁incertidumbre	-11.3334
▁colegas	-11.3338
▁intente	-11.334
▁congelado	-11.3348
FORM	-11.3353
▁Objetivo	-11.3356
▁folleto	-11.3363
▁túnel	-11.337
▁tranquilidad	-11.3376
▁recolecta	-11.338
▁convoca	-11.3381
▁reparar	-11.3382
▁Palacio	-11.3385
▁quisiera	-11.339
▁garganta	-11.3392
▁rapidez	-11.3398
▁conocía	-11.3399
▁Efecto	-11.3405
▁retorno	-11.3405
refrigera	-11.3417
▁acciona	-11.3418
▁cápsula	-11.342
▁Capacidad	-11.3424
▁dividir	-11.343
gluc	-11.3433
▁Secretario	-11.3436
▁Berlín	-11.3444
▁conceptual	-11.3453
▁Parlamento	-11.3456
▁hipoteca	-11.3462
▁elegible	-11.3464
▁arranca	-11.3466
▁amortigua	-11.3469
▁cachorro	-11.3475
▁arquitecto	-11.3478
▁intervenciones	-11.3485
▁decorativo	-11.3491
▁redonda	-11.3493
▁prestigio	-11.3495
▁béisbol	-11.3498
▁Habitación	-11.3498
▁domicilio	-11.3501
▁viviendo	-11.3501
Alguna	-11.3501
▁valiosa	-11.3504
▁reconocida	-11.3508
▁Zelanda	-11.3511
▁editorial	-11.3511
▁Coloque	-11.3511
▁supermercado	-11.3514
▁espiral	-11.3514
▁Apartamento	-11.3517
▁contesta	-11.3525
▁Elija	-11.3528
ógrafo	-11.3529
▁patrocinado	-11.353
▁abruma	-11.353
▁protagonista	-11.354
▁leído	-11.3546
▁drenaje	-11.3553
▁sostenibilidad	-11.3554
▁Pública	-11.3559
▁extraordinaria	-11.3559
▁espesor	-11.356
▁ejerci	-11.3561
▁célula	-11.3563
▁Panamá	-11.3563
▁America	-11.3569
▁Jesucristo	-11.3569
▁cálida	-11.3571
▁Boston	-11.3571
▁enchufe	-11.3573
▁Acepta	-11.3578
▁Considera	-11.3583
▁sumergi	-11.3592
▁Obama	-11.3593
▁seguida	-11.3594
▁revisiones	-11.3596
▁Reglamento	-11.3599
▁oliva	-11.3604
▁Elemento	-11.3605
▁fractura	-11.3615
▁poema	-11.3616
▁tesoro	-11.3616
▁zapatillas	-11.3618
▁artístico	-11.3628
▁impresiona	-11.3633
▁honra	-11.3633
▁arbitra	-11.3638
▁pensaba	-11.3644
▁adjunto	-11.3645
▁clasificado	-11.3649
▁obviamente	-11.3651
▁observó	-11.3658
▁guiar	-11.3662
tiempo	-11.3666
▁rodillo	-11.3669
▁competente	-11.3677
▁caballero	-11.3684
▁preocupe	-11.3691
▁Justicia	-11.3694
▁Escritura	-11.3697
▁turística	-11.3697
▁milagro	-11.3701
View	-11.3723
▁corporativa	-11.3724
credit	-11.3725
▁equipaje	-11.3727
▁refugiados	-11.3747
▁glucosa	-11.375
▁hueco	-11.3757
▁choque	-11.376
▁finanzas	-11.3764
▁electoral	-11.3765
▁orificio	-11.377
▁contribuciones	-11.3774
▁Afortunadamente	-11.3777
comercialización	-11.3782
Creo	-11.3789
▁Recientemente	-11.379
▁Edward	-11.3791
▁Business	-11.3794
▁Gráfico	-11.3797
▁Henry	-11.3797
▁Envío	-11.3804
▁corrupción	-11.3807
▁Observa	-11.3807
▁vecindario	-11.3814
▁rescate	-11.3814
▁textil	-11.3815
▁ecuación	-11.3831
▁plegable	-11.3834
ísima	-11.3842
▁jabón	-11.385
▁repetir	-11.3854
▁pulmonar	-11.3857
▁ofreciendo	-11.3857
▁exacto	-11.3857
▁parezca	-11.3871
▁gloria	-11.3878
▁mutua	-11.3878
control	-11.389
▁asesino	-11.3894
▁cafetería	-11.3901
▁consume	-11.3907
▁complace	-11.392
▁entusiasmo	-11.3921
▁encontr	-11.3928
▁Normalmente	-11.3935
▁favorece	-11.3941
▁excelencia	-11.3941
▁pareció	-11.3945
▁veterano	-11.3952
▁franquicia	-11.3958
▁horizonte	-11.3962
▁autobuses	-11.3962
▁desconecta	-11.3963
▁Spring	-11.3965
▁doméstica	-11.3982
▁Teléfono	-11.3985
▁efectuar	-11.3992
▁estímulo	-11.3992
▁lienzo	-11.3992
▁analista	-11.3993
▁magnético	-11.3994
▁Singapur	-11.3996
▁gruesa	-11.3999
▁contenedores	-11.4
▁Clipart	-11.4
▁Conoce	-11.4003
▁campeonato	-11.4006
▁Suecia	-11.4006
▁medidor	-11.4017
▁celebridad	-11.403
▁Desarrolla	-11.404
▁dólar	-11.4047
▁auténtico	-11.4057
▁intermedio	-11.4057
▁Agregue	-11.4057
▁termine	-11.4061
▁voces	-11.4068
▁droga	-11.4081
▁carril	-11.4085
Sabía	-11.4088
▁hidrógeno	-11.4088
▁Farm	-11.409
▁manguera	-11.4091
▁Convención	-11.4092
▁Tratamiento	-11.4095
▁Esperamos	-11.4099
▁átomo	-11.4099
▁antioxidante	-11.4109
▁gabinete	-11.4109
▁oculto	-11.4113
▁jornada	-11.4115
▁Polonia	-11.4133
▁nominal	-11.4133
▁capitán	-11.414
▁Aprende	-11.4146
▁táctica	-11.4147
▁gancho	-11.4149
▁auténtica	-11.415
▁engaño	-11.4155
▁retrasa	-11.4158
▁mármol	-11.416
▁tabaco	-11.416
▁Explora	-11.4164
▁Descubre	-11.4167
▁League	-11.4167
▁tránsito	-11.4171
▁nombrado	-11.4177
véase	-11.4181
▁Guardia	-11.4185
▁seguía	-11.4191
▁competitiva	-11.4195
▁abuela	-11.4195
▁preliminar	-11.4198
▁múltiple	-11.4206
▁seminario	-11.4207
▁sacrificio	-11.4216
▁tambien	-11.4219
▁bordado	-11.422
▁desbloquea	-11.4223
▁pausa	-11.4228
▁pautas	-11.423
▁desnudo	-11.4236
▁añadido	-11.4237
▁italiana	-11.424
▁logística	-11.4244
▁térmico	-11.4247
▁sonriente	-11.4249
▁refrigeración	-11.4251
▁renovable	-11.4265
▁muerta	-11.4269
ándome	-11.4269
▁Ltd	-11.4271
▁volúmenes	-11.4275
▁sospechoso	-11.4289
▁renovación	-11.4289
▁artesanal	-11.4296
▁adhesivo	-11.43
▁galletas	-11.43
▁efectividad	-11.4303
▁lágrimas	-11.4307
▁certifica	-11.4312
▁esconde	-11.4323
▁Alquiler	-11.4331
▁palacio	-11.4331
▁Modern	-11.4332
Count	-11.4334
▁fantástica	-11.4338
▁escriba	-11.434
▁acuarela	-11.4345
▁Cuatro	-11.4356
▁dirigió	-11.436
▁Jordan	-11.436
▁vulnerabilidad	-11.437
▁singular	-11.4374
▁energético	-11.4384
▁Recursos	-11.4391
▁tóxico	-11.4398
▁equipamiento	-11.4402
también	-11.4403
▁quinto	-11.4403
▁peinado	-11.4406
▁gustó	-11.4413
▁urgente	-11.4416
▁hábil	-11.442
▁Mantenga	-11.442
▁ofreció	-11.442
▁Virginia	-11.4423
▁fachada	-11.4424
▁refresca	-11.4434
▁Oficial	-11.4438
▁aplique	-11.4441
▁Evaluación	-11.4445
▁mágica	-11.4445
▁agarre	-11.4445
▁desagradable	-11.4452
▁levantó	-11.4459
▁Ultra	-11.4459
▁medieval	-11.4462
▁doctrina	-11.4466
▁empeora	-11.4466
▁dañado	-11.4467
▁Ecuador	-11.447
▁Software	-11.4473
▁cotidiana	-11.4473
▁Mobile	-11.4477
▁concluye	-11.4477
▁perturba	-11.4491
▁masculina	-11.4495
▁Energía	-11.4498
▁Importa	-11.4503
▁alterna	-11.4503
▁materna	-11.4504
▁Organiza	-11.4507
▁sindicato	-11.451
▁destinada	-11.452
▁trauma	-11.4527
▁Santiago	-11.4541
▁desorden	-11.4542
▁Introducción	-11.4545
▁asume	-11.4555
▁fascinante	-11.4563
▁cascada	-11.4563
▁magnitud	-11.4577
▁rehabilitación	-11.4599
▁campana	-11.4599
▁cansado	-11.4601
▁refuerzo	-11.4602
▁expandir	-11.4617
▁Pantalones	-11.4621
▁Directiva	-11.4628
▁insulina	-11.4628
▁Donald	-11.4628
▁Moscú	-11.4632
▁Participa	-11.4635
▁implanta	-11.4639
▁multa	-11.4641
▁desmonta	-11.4642
▁Monitor	-11.4648
▁remedio	-11.465
▁Pegatina	-11.4653
▁premium	-11.4657
▁molesto	-11.4668
▁lidiar	-11.4672
▁Linux	-11.469
▁distinguir	-11.4693
▁óptico	-11.4693
▁University	-11.4697
▁antigüedad	-11.4708
sulf	-11.4709
▁United	-11.4726
▁ritual	-11.4731
▁Manager	-11.4734
▁hábitat	-11.4737
▁ícono	-11.4737
▁israelí	-11.4741
consult	-11.4743
▁higiene	-11.4752
▁Occidental	-11.4763
▁cigarrillo	-11.477
▁abdominal	-11.4781
▁Resulta	-11.4786
ándonos	-11.4792
▁Contenido	-11.4792
▁barbacoa	-11.48
▁comporta	-11.4801
▁cabaña	-11.4807
▁Posteriormente	-11.4822
▁compatibilidad	-11.4825
iéndole	-11.4826
▁respectivo	-11.4829
▁visibilidad	-11.483
Bienvenido	-11.4833
▁pienso	-11.4852
▁cueva	-11.4857
▁atardecer	-11.4863
▁Antiguo	-11.4863
▁solucion	-11.4864
▁navidad	-11.4866
▁almacén	-11.4874
franc	-11.4883
▁Igual	-11.489
▁Defensa	-11.4896
▁Encontrar	-11.4902
▁insignia	-11.4907
▁Michel	-11.4918
▁imprescindible	-11.4926
«	-11.8155
©	-12.0405
·	-12.0674
•	-12.2093
‘	-12.8138
